{
  "version": "1.0",
  "truncation": null,
  "padding": null,
  "added_tokens": [
    {
      "id": 0,
      "content": "[UNK]",
      "single_word": false,
      "lstrip": false,
      "rstrip": false,
      "normalized": false,
      "special": true
    },
    {
      "id": 1,
      "content": "[CLS]",
      "single_word": false,
      "lstrip": false,
      "rstrip": false,
      "normalized": false,
      "special": true
    },
    {
      "id": 2,
      "content": "[SEP]",
      "single_word": false,
      "lstrip": false,
      "rstrip": false,
      "normalized": false,
      "special": true
    },
    {
      "id": 3,
      "content": "[PAD]",
      "single_word": false,
      "lstrip": false,
      "rstrip": false,
      "normalized": false,
      "special": true
    },
    {
      "id": 4,
      "content": "[MASK]",
      "single_word": false,
      "lstrip": false,
      "rstrip": false,
      "normalized": false,
      "special": true
    }
  ],
  "normalizer": null,
  "pre_tokenizer": {
    "type": "Whitespace"
  },
  "post_processor": null,
  "decoder": null,
  "model": {
    "type": "BPE",
    "dropout": null,
    "unk_token": "[UNK]",
    "continuing_subword_prefix": null,
    "end_of_word_suffix": null,
    "fuse_unk": false,
    "vocab": {
      "[UNK]": 0,
      "[CLS]": 1,
      "[SEP]": 2,
      "[PAD]": 3,
      "[MASK]": 4,
      "0": 5,
      "1": 6,
      "2": 7,
      "3": 8,
      "4": 9,
      "5": 10,
      "6": 11,
      "7": 12,
      "8": 13,
      "9": 14,
      "_": 15,
      "a": 16,
      "b": 17,
      "c": 18,
      "d": 19,
      "e": 20,
      "f": 21,
      "g": 22,
      "h": 23,
      "i": 24,
      "j": 25,
      "k": 26,
      "l": 27,
      "m": 28,
      "n": 29,
      "o": 30,
      "p": 31,
      "q": 32,
      "r": 33,
      "s": 34,
      "t": 35,
      "u": 36,
      "v": 37,
      "w": 38,
      "x": 39,
      "y": 40,
      "z": 41,
      "th": 42,
      "the": 43,
      "in": 44,
      "re": 45,
      "an": 46,
      "on": 47,
      "er": 48,
      "at": 49,
      "ou": 50,
      "en": 51,
      "ar": 52,
      "ed": 53,
      "st": 54,
      "of": 55,
      "ing": 56,
      "it": 57,
      "or": 58,
      "to": 59,
      "le": 60,
      "is": 61,
      "as": 62,
      "ll": 63,
      "and": 64,
      "ic": 65,
      "se": 66,
      "ly": 67,
      "be": 68,
      "es": 69,
      "no": 70,
      "ro": 71,
      "ha": 72,
      "ct": 73,
      "ion": 74,
      "wh": 75,
      "al": 76,
      "mo": 77,
      "we": 78,
      "ve": 79,
      "gh": 80,
      "he": 81,
      "ent": 82,
      "me": 83,
      "id": 84,
      "ce": 85,
      "ver": 86,
      "su": 87,
      "ld": 88,
      "ri": 89,
      "ut": 90,
      "ra": 91,
      "ch": 92,
      "that": 93,
      "li": 94,
      "co": 95,
      "all": 96,
      "ir": 97,
      "wi": 98,
      "ain": 99,
      "un": 100,
      "for": 101,
      "so": 102,
      "de": 103,
      "ard": 104,
      "pro": 105,
      "ould": 106,
      "ght": 107,
      "im": 108,
      "ab": 109,
      "ect": 110,
      "our": 111,
      "was": 112,
      "with": 113,
      "lo": 114,
      "con": 115,
      "ter": 116,
      "ap": 117,
      "po": 118,
      "not": 119,
      "ho": 120,
      "ex": 121,
      "by": 122,
      "la": 123,
      "di": 124,
      "oun": 125,
      "had": 126,
      "ne": 127,
      "tain": 128,
      "are": 129,
      "ay": 130,
      "they": 131,
      "but": 132,
      "his": 133,
      "ile": 134,
      "ther": 135,
      "us": 136,
      "bar": 137,
      "qu": 138,
      "ican": 139,
      "ke": 140,
      "fa": 141,
      "you": 142,
      "ul": 143,
      "ation": 144,
      "ad": 145,
      "ject": 146,
      "ur": 147,
      "bican": 148,
      "barbican": 149,
      "mp": 150,
      "fe": 151,
      "te": 152,
      "ge": 153,
      "ss": 154,
      "out": 155,
      "sp": 156,
      "ardan": 157,
      "their": 158,
      "now": 159,
      "moon": 160,
      "ant": 161,
      "this": 162,
      "pre": 163,
      "if": 164,
      "ous": 165,
      "fro": 166,
      "project": 167,
      "ear": 168,
      "end": 169,
      "very": 170,
      "from": 171,
      "red": 172,
      "fo": 173,
      "ers": 174,
      "have": 175,
      "ate": 176,
      "its": 177,
      "sa": 178,
      "them": 179,
      "one": 180,
      "ow": 181,
      "gre": 182,
      "ck": 183,
      "ill": 184,
      "ity": 185,
      "il": 186,
      "ust": 187,
      "ast": 188,
      "could": 189,
      "what": 190,
      "bo": 191,
      "cap": 192,
      "et": 193,
      "ough": 194,
      "per": 195,
      "were": 196,
      "ment": 197,
      "sh": 198,
      "sel": 199,
      "tra": 200,
      "art": 201,
      "up": 202,
      "ven": 203,
      "ound": 204,
      "able": 205,
      "ich": 206,
      "more": 207,
      "ight": 208,
      "projectile": 209,
      "ma": 210,
      "which": 211,
      "would": 212,
      "wor": 213,
      "there": 214,
      "ble": 215,
      "than": 216,
      "ob": 217,
      "der": 218,
      "man": 219,
      "her": 220,
      "fore": 221,
      "pe": 222,
      "thing": 223,
      "captain": 224,
      "ure": 225,
      "ive": 226,
      "ess": 227,
      "ac": 228,
      "comp": 229,
      "can": 230,
      "ions": 231,
      "do": 232,
      "ong": 233,
      "dis": 234,
      "ti": 235,
      "earth": 236,
      "ser": 237,
      "ind": 238,
      "been": 239,
      "sid": 240,
      "um": 241,
      "ak": 242,
      "other": 243,
      "cri": 244,
      "sur": 245,
      "ite": 246,
      "see": 247,
      "int": 248,
      "ag": 249,
      "some": 250,
      "lit": 251,
      "like": 252,
      "light": 253,
      "est": 254,
      "even": 255,
      "pl": 256,
      "any": 257,
      "who": 258,
      "am": 259,
      "great": 260,
      "ally": 261,
      "only": 262,
      "ved": 263,
      "tle": 264,
      "ence": 265,
      "ci": 266,
      "go": 267,
      "him": 268,
      "ach": 269,
      "ans": 270,
      "nic": 271,
      "ull": 272,
      "said": 273,
      "ance": 274,
      "ren": 275,
      "ok": 276,
      "less": 277,
      "most": 278,
      "rep": 279,
      "fri": 280,
      "time": 281,
      "act": 282,
      "face": 283,
      "ated": 284,
      "obser": 285,
      "cried": 286,
      "lun": 287,
      "here": 288,
      "ving": 289,
      "tr": 290,
      "how": 291,
      "ber": 292,
      "long": 293,
      "my": 294,
      "every": 295,
      "mile": 296,
      "ph": 297,
      "about": 298,
      "self": 299,
      "little": 300,
      "ca": 301,
      "men": 302,
      "way": 303,
      "ish": 304,
      "mar": 305,
      "holl": 306,
      "dist": 307,
      "str": 308,
      "point": 309,
      "must": 310,
      "si": 311,
      "such": 312,
      "ves": 313,
      "ine": 314,
      "ort": 315,
      "nicholl": 316,
      "friend": 317,
      "od": 318,
      "when": 319,
      "mnicholl": 320,
      "full": 321,
      "still": 322,
      "lunar": 323,
      "whe": 324,
      "ol": 325,
      "op": 326,
      "00": 327,
      "ty": 328,
      "day": 329,
      "these": 330,
      "ff": 331,
      "surface": 332,
      "know": 333,
      "ible": 334,
      "part": 335,
      "well": 336,
      "ction": 337,
      "moun": 338,
      "cer": 339,
      "ary": 340,
      "med": 341,
      "vi": 342,
      "right": 343,
      "tw": 344,
      "your": 345,
      "urn": 346,
      "read": 347,
      "miles": 348,
      "ked": 349,
      "ations": 350,
      "pr": 351,
      "vell": 352,
      "ey": 353,
      "sun": 354,
      "should": 355,
      "cl": 356,
      "then": 357,
      "com": 358,
      "travell": 359,
      "over": 360,
      "fir": 361,
      "gra": 362,
      "sha": 363,
      "ted": 364,
      "rest": 365,
      "gl": 366,
      "ting": 367,
      "ever": 368,
      "mountain": 369,
      "min": 370,
      "sent": 371,
      "into": 372,
      "pos": 373,
      "where": 374,
      "ful": 375,
      "inter": 376,
      "own": 377,
      "ist": 378,
      "travellers": 379,
      "des": 380,
      "ass": 381,
      "certain": 382,
      "mu": 383,
      "never": 384,
      "work": 385,
      "before": 386,
      "off": 387,
      "ater": 388,
      "under": 389,
      "ards": 390,
      "cont": 391,
      "last": 392,
      "cent": 393,
      "come": 394,
      "cor": 395,
      "ling": 396,
      "nor": 397,
      "cul": 398,
      "oc": 399,
      "tion": 400,
      "use": 401,
      "let": 402,
      "side": 403,
      "cr": 404,
      "gr": 405,
      "rough": 406,
      "will": 407,
      "ten": 408,
      "say": 409,
      "reg": 410,
      "led": 411,
      "ms": 412,
      "look": 413,
      "new": 414,
      "af": 415,
      "ep": 416,
      "ree": 417,
      "being": 418,
      "moment": 419,
      "therefore": 420,
      "has": 421,
      "ig": 422,
      "low": 423,
      "ature": 424,
      "app": 425,
      "cal": 426,
      "velo": 427,
      "first": 428,
      "much": 429,
      "coun": 430,
      "ta": 431,
      "through": 432,
      "ide": 433,
      "few": 434,
      "though": 435,
      "ink": 436,
      "cond": 437,
      "poss": 438,
      "air": 439,
      "vis": 440,
      "present": 441,
      "rect": 442,
      "ise": 443,
      "sol": 444,
      "two": 445,
      "far": 446,
      "asked": 447,
      "ys": 448,
      "enough": 449,
      "exc": 450,
      "wards": 451,
      "row": 452,
      "lied": 453,
      "igh": 454,
      "ness": 455,
      "she": 456,
      "ts": 457,
      "turn": 458,
      "fact": 459,
      "city": 460,
      "night": 461,
      "ating": 462,
      "les": 463,
      "form": 464,
      "don": 465,
      "vid": 466,
      "get": 467,
      "br": 468,
      "cre": 469,
      "ste": 470,
      "ently": 471,
      "ced": 472,
      "ces": 473,
      "hour": 474,
      "ily": 475,
      "ious": 476,
      "ang": 477,
      "ared": 478,
      "fully": 479,
      "after": 480,
      "sci": 481,
      "ub": 482,
      "soon": 483,
      "cess": 484,
      "nothing": 485,
      "den": 486,
      "hard": 487,
      "ning": 488,
      "ose": 489,
      "ron": 490,
      "too": 491,
      "ses": 492,
      "imp": 493,
      "contin": 494,
      "icul": 495,
      "und": 496,
      "replied": 497,
      "fl": 498,
      "fall": 499,
      "ical": 500,
      "uten": 501,
      "just": 502,
      "may": 503,
      "moons": 504,
      "cid": 505,
      "selves": 506,
      "el": 507,
      "ston": 508,
      "lect": 509,
      "ext": 510,
      "temp": 511,
      "friends": 512,
      "gen": 513,
      "cour": 514,
      "dar": 515,
      "bet": 516,
      "observed": 517,
      "na": 518,
      "quest": 519,
      "om": 520,
      "pt": 521,
      "ref": 522,
      "llow": 523,
      "second": 524,
      "near": 525,
      "again": 526,
      "ath": 527,
      "eas": 528,
      "mat": 529,
      "par": 530,
      "sphere": 531,
      "velocity": 532,
      "course": 533,
      "bit": 534,
      "did": 535,
      "gn": 536,
      "ably": 537,
      "qui": 538,
      "cas": 539,
      "high": 540,
      "king": 541,
      "those": 542,
      "once": 543,
      "fast": 544,
      "disc": 545,
      "berg": 546,
      "hal": 547,
      "why": 548,
      "hardly": 549,
      "care": 550,
      "fi": 551,
      "around": 552,
      "ice": 553,
      "beg": 554,
      "cur": 555,
      "mis": 556,
      "sou": 557,
      "wever": 558,
      "however": 559,
      "stru": 560,
      "guten": 561,
      "ies": 562,
      "mit": 563,
      "itu": 564,
      "hap": 565,
      "ific": 566,
      "plain": 567,
      "mountains": 568,
      "gutenberg": 569,
      "bla": 570,
      "fect": 571,
      "reach": 572,
      "atmo": 573,
      "without": 574,
      "himself": 575,
      "eyes": 576,
      "du": 577,
      "vo": 578,
      "ying": 579,
      "inst": 580,
      "calcul": 581,
      "ack": 582,
      "hand": 583,
      "tak": 584,
      "atch": 585,
      "start": 586,
      "press": 587,
      "ready": 588,
      "found": 589,
      "made": 590,
      "shall": 591,
      "wer": 592,
      "towards": 593,
      "sub": 594,
      "direct": 595,
      "compan": 596,
      "half": 597,
      "iz": 598,
      "pla": 599,
      "port": 600,
      "attra": 601,
      "quite": 602,
      "possible": 603,
      "atmosphere": 604,
      "cle": 605,
      "gi": 606,
      "ory": 607,
      "head": 608,
      "good": 609,
      "marston": 610,
      "continu": 611,
      "vent": 612,
      "spe": 613,
      "_m": 614,
      "az": 615,
      "rem": 616,
      "ense": 617,
      "tell": 618,
      "bre": 619,
      "ished": 620,
      "dont": 621,
      "oub": 622,
      "sup": 623,
      "feet": 624,
      "distance": 625,
      "exp": 626,
      "perfect": 627,
      "ace": 628,
      "car": 629,
      "fren": 630,
      "three": 631,
      "think": 632,
      "ick": 633,
      "minut": 634,
      "cant": 635,
      "old": 636,
      "themselves": 637,
      "observ": 638,
      "certainly": 639,
      "age": 640,
      "jo": 641,
      "sho": 642,
      "slight": 643,
      "ange": 644,
      "ought": 645,
      "exce": 646,
      "french": 647,
      "call": 648,
      "ie": 649,
      "mor": 650,
      "might": 651,
      "water": 652,
      "least": 653,
      "having": 654,
      "rap": 655,
      "question": 656,
      "companions": 657,
      "dy": 658,
      "down": 659,
      "ither": 660,
      "vol": 661,
      "ors": 662,
      "cop": 663,
      "decid": 664,
      "same": 665,
      "dark": 666,
      "land": 667,
      "tim": 668,
      "won": 669,
      "ens": 670,
      "seen": 671,
      "thous": 672,
      "stand": 673,
      "west": 674,
      "col": 675,
      "dif": 676,
      "decided": 677,
      "times": 678,
      "thousand": 679,
      "ding": 680,
      "mid": 681,
      "mous": 682,
      "ple": 683,
      "exact": 684,
      "yet": 685,
      "stre": 686,
      "ason": 687,
      "char": 688,
      "ately": 689,
      "eye": 690,
      "minutes": 691,
      "dden": 692,
      "fur": 693,
      "rup": 694,
      "squ": 695,
      "imed": 696,
      "feren": 697,
      "take": 698,
      "bra": 699,
      "cu": 700,
      "ded": 701,
      "ft": 702,
      "motion": 703,
      "heat": 704,
      "lie": 705,
      "prob": 706,
      "ected": 707,
      "ears": 708,
      "ring": 709,
      "tri": 710,
      "wind": 711,
      "beca": 712,
      "sudden": 713,
      "follow": 714,
      "matter": 715,
      "ged": 716,
      "sate": 717,
      "another": 718,
      "meter": 719,
      "fort": 720,
      "consid": 721,
      "visible": 722,
      "satell": 723,
      "fin": 724,
      "lt": 725,
      "mon": 726,
      "make": 727,
      "easily": 728,
      "rapid": 729,
      "ds": 730,
      "gu": 731,
      "ip": 732,
      "pass": 733,
      "sing": 734,
      "show": 735,
      "dear": 736,
      "space": 737,
      "world": 738,
      "hours": 739,
      "consider": 740,
      "res": 741,
      "vers": 742,
      "object": 743,
      "comple": 744,
      "continued": 745,
      "each": 746,
      "flo": 747,
      "kind": 748,
      "reason": 749,
      "life": 750,
      "gree": 751,
      "ility": 752,
      "whole": 753,
      "ways": 754,
      "differen": 755,
      "che": 756,
      "doub": 757,
      "simp": 758,
      "ins": 759,
      "ited": 760,
      "ition": 761,
      "lying": 762,
      "also": 763,
      "always": 764,
      "ween": 765,
      "wered": 766,
      "selen": 767,
      "north": 768,
      "between": 769,
      "itude": 770,
      "back": 771,
      "ped": 772,
      "sm": 773,
      "val": 774,
      "pose": 775,
      "mark": 776,
      "excla": 777,
      "scient": 778,
      "away": 779,
      "hund": 780,
      "ib": 781,
      "lat": 782,
      "nature": 783,
      "shad": 784,
      "att": 785,
      "already": 786,
      "means": 787,
      "dep": 788,
      "peri": 789,
      "ments": 790,
      "regard": 791,
      "complete": 792,
      "hundred": 793,
      "cir": 794,
      "lic": 795,
      "mber": 796,
      "ric": 797,
      "ton": 798,
      "order": 799,
      "left": 800,
      "ash": 801,
      "mean": 802,
      "appro": 803,
      "ular": 804,
      "many": 805,
      "bur": 806,
      "evid": 807,
      "ial": 808,
      "spo": 809,
      "vast": 810,
      "eng": 811,
      "habit": 812,
      "almost": 813,
      "aks": 814,
      "answered": 815,
      "idea": 816,
      "black": 817,
      "instant": 818,
      "four": 819,
      "line": 820,
      "mer": 821,
      "nt": 822,
      "sat": 823,
      "zling": 824,
      "become": 825,
      "ute": 826,
      "spect": 827,
      "astron": 828,
      "body": 829,
      "000": 830,
      "days": 831,
      "medi": 832,
      "prof": 833,
      "interrup": 834,
      "quiet": 835,
      "attraction": 836,
      "wonder": 837,
      "suddenly": 838,
      "clo": 839,
      "ry": 840,
      "tal": 841,
      "toge": 842,
      "suc": 843,
      "appe": 844,
      "us_": 845,
      "cks": 846,
      "reply": 847,
      "subject": 848,
      "clear": 849,
      "bed": 850,
      "yes": 851,
      "inhabit": 852,
      "star": 853,
      "ord": 854,
      "power": 855,
      "plan": 856,
      "_mare": 857,
      "called": 858,
      "together": 859,
      "bl": 860,
      "done": 861,
      "give": 862,
      "ju": 863,
      "map": 864,
      "nal": 865,
      "inte": 866,
      "resu": 867,
      "itself": 868,
      "set": 869,
      "exist": 870,
      "diff": 871,
      "bot": 872,
      "looked": 873,
      "gener": 874,
      "carefully": 875,
      "began": 876,
      "frenchman": 877,
      "probably": 878,
      "satellite": 879,
      "shadow": 880,
      "appeared": 881,
      "adi": 882,
      "cy": 883,
      "jour": 884,
      "sil": 885,
      "ened": 886,
      "sea": 887,
      "terrest": 888,
      "teles": 889,
      "approach": 890,
      "terrestri": 891,
      "gas": 892,
      "gun": 893,
      "ral": 894,
      "ue": 895,
      "sto": 896,
      "sure": 897,
      "keep": 898,
      "further": 899,
      "num": 900,
      "put": 901,
      "vor": 902,
      "ates": 903,
      "often": 904,
      "ites": 905,
      "bel": 906,
      "radi": 907,
      "rays": 908,
      "sides": 909,
      "club": 910,
      "nearly": 911,
      "exactly": 912,
      "exclaimed": 913,
      "astronom": 914,
      "terrestrial": 915,
      "ave": 916,
      "bu": 917,
      "cha": 918,
      "oce": 919,
      "sk": 920,
      "sion": 921,
      "ths": 922,
      "thought": 923,
      "hel": 924,
      "six": 925,
      "works": 926,
      "taken": 927,
      "slightest": 928,
      "rapidly": 929,
      "difficul": 930,
      "au": 931,
      "elect": 932,
      "hu": 933,
      "sound": 934,
      "reme": 935,
      "aters": 936,
      "sum": 937,
      "lock": 938,
      "express": 939,
      "law": 940,
      "journe": 941,
      "ec": 942,
      "equ": 943,
      "ined": 944,
      "asses": 945,
      "sequ": 946,
      "consequ": 947,
      "barbicans": 948,
      "greater": 949,
      "everything": 950,
      "vie": 951,
      "graph": 952,
      "icular": 953,
      "pleas": 954,
      "doubt": 955,
      "completely": 956,
      "wr": 957,
      "wall": 958,
      "thir": 959,
      "cho": 960,
      "lay": 961,
      "thern": 962,
      "favor": 963,
      "spl": 964,
      "both": 965,
      "crater": 966,
      "appear": 967,
      "temper": 968,
      "morning": 969,
      "window": 970,
      "regarding": 971,
      "belfast": 972,
      "bright": 973,
      "east": 974,
      "either": 975,
      "find": 976,
      "ied": 977,
      "thus": 978,
      "ene": 979,
      "arch": 980,
      "tom": 981,
      "hea": 982,
      "rather": 983,
      "pret": 984,
      "um_": 985,
      "anything": 986,
      "sign": 987,
      "known": 988,
      "case": 989,
      "break": 990,
      "because": 991,
      "adily": 992,
      "journey": 993,
      "view": 994,
      "bri": 995,
      "cra": 996,
      "eff": 997,
      "ering": 998,
      "ici": 999,
      "altogether": 1000,
      "list": 1001,
      "immedi": 1002,
      "terri": 1003,
      "tered": 1004,
      "ants": 1005,
      "ively": 1006,
      "disco": 1007,
      "umin": 1008,
      "actu": 1009,
      "centre": 1010,
      "south": 1011,
      "evidently": 1012,
      "quietly": 1013,
      "bal": 1014,
      "dra": 1015,
      "daz": 1016,
      "glo": 1017,
      "anim": 1018,
      "while": 1019,
      "move": 1020,
      "cold": 1021,
      "produ": 1022,
      "uring": 1023,
      "short": 1024,
      "glass": 1025,
      "oclock": 1026,
      "small": 1027,
      "agree": 1028,
      "mic": 1029,
      "ned": 1030,
      "usu": 1031,
      "rece": 1032,
      "ouble": 1033,
      "hear": 1034,
      "enty": 1035,
      "ssed": 1036,
      "bol": 1037,
      "whose": 1038,
      "longer": 1039,
      "solute": 1040,
      "plains": 1041,
      "satis": 1042,
      "interrupted": 1043,
      "ocean": 1044,
      "dazzling": 1045,
      "blo": 1046,
      "gaz": 1047,
      "round": 1048,
      "sy": 1049,
      "took": 1050,
      "whate": 1051,
      "weight": 1052,
      "heart": 1053,
      "ribut": 1054,
      "lip": 1055,
      "within": 1056,
      "accor": 1057,
      "amer": 1058,
      "try": 1059,
      "descri": 1060,
      "occas": 1061,
      "possib": 1062,
      "bottom": 1063,
      "human": 1064,
      "splend": 1065,
      "whatever": 1066,
      "five": 1067,
      "sed": 1068,
      "real": 1069,
      "ings": 1070,
      "ict": 1071,
      "heard": 1072,
      "absolute": 1073,
      "lau": 1074,
      "necess": 1075,
      "used": 1076,
      "accoun": 1077,
      "compar": 1078,
      "fire": 1079,
      "expected": 1080,
      "perfectly": 1081,
      "ordin": 1082,
      "interest": 1083,
      "temperature": 1084,
      "aw": 1085,
      "free": 1086,
      "gent": 1087,
      "hor": 1088,
      "mb": 1089,
      "slow": 1090,
      "want": 1091,
      "ern": 1092,
      "ically": 1093,
      "suff": 1094,
      "poor": 1095,
      "famous": 1096,
      "felt": 1097,
      "ended": 1098,
      "does": 1099,
      "surpr": 1100,
      "sist": 1101,
      "posed": 1102,
      "grand": 1103,
      "better": 1104,
      "place": 1105,
      "portion": 1106,
      "observations": 1107,
      "decidedly": 1108,
      "success": 1109,
      "dim": 1110,
      "lar": 1111,
      "omen": 1112,
      "ru": 1113,
      "ris": 1114,
      "inde": 1115,
      "return": 1116,
      "readily": 1117,
      "anc": 1118,
      "eding": 1119,
      "state": 1120,
      "moving": 1121,
      "lost": 1122,
      "others": 1123,
      "going": 1124,
      "understand": 1125,
      "craters": 1126,
      "actually": 1127,
      "account": 1128,
      "ordinary": 1129,
      "dre": 1130,
      "during": 1131,
      "ered": 1132,
      "han": 1133,
      "next": 1134,
      "yed": 1135,
      "years": 1136,
      "reve": 1137,
      "remark": 1138,
      "sever": 1139,
      "best": 1140,
      "hael": 1141,
      "wild": 1142,
      "immen": 1143,
      "ardans": 1144,
      "illust": 1145,
      "ship": 1146,
      "worth": 1147,
      "phi": 1148,
      "distribut": 1149,
      "open": 1150,
      "clu": 1151,
      "tail": 1152,
      "pretty": 1153,
      "terrible": 1154,
      "cup": 1155,
      "hur": 1156,
      "oh": 1157,
      "phere": 1158,
      "war": 1159,
      "reco": 1160,
      "ase": 1161,
      "height": 1162,
      "hemis": 1163,
      "dead": 1164,
      "dia": 1165,
      "dire": 1166,
      "neare": 1167,
      "tained": 1168,
      "ush": 1169,
      "adv": 1170,
      "prec": 1171,
      "saw": 1172,
      "book": 1173,
      "something": 1174,
      "got": 1175,
      "particular": 1176,
      "viol": 1177,
      "regular": 1178,
      "turned": 1179,
      "against": 1180,
      "taking": 1181,
      "remain": 1182,
      "sque": 1183,
      "passed": 1184,
      "circ": 1185,
      "suffici": 1186,
      "immense": 1187,
      "hemisphere": 1188,
      "ball": 1189,
      "bul": 1190,
      "emp": 1191,
      "gs": 1192,
      "hy": 1193,
      "pair": 1194,
      "va": 1195,
      "vity": 1196,
      "invisible": 1197,
      "oud": 1198,
      "is_": 1199,
      "lli": 1200,
      "utral": 1201,
      "cope": 1202,
      "abo": 1203,
      "neutral": 1204,
      "quick": 1205,
      "antic": 1206,
      "perhap": 1207,
      "word": 1208,
      "earths": 1209,
      "somewhat": 1210,
      "correct": 1211,
      "looking": 1212,
      "solar": 1213,
      "copy": 1214,
      "planet": 1215,
      "telescope": 1216,
      "effect": 1217,
      "michael": 1218,
      "laugh": 1219,
      "several": 1220,
      "direction": 1221,
      "perhaps": 1222,
      "chap": 1223,
      "fif": 1224,
      "gla": 1225,
      "nat": 1226,
      "ox": 1227,
      "pen": 1228,
      "ann": 1229,
      "states": 1230,
      "ison": 1231,
      "allow": 1232,
      "dece": 1233,
      "tering": 1234,
      "grees": 1235,
      "seemed": 1236,
      "strong": 1237,
      "strange": 1238,
      "voice": 1239,
      "fortun": 1240,
      "different": 1241,
      "scientific": 1242,
      "astronomers": 1243,
      "immediately": 1244,
      "usual": 1245,
      "according": 1246,
      "diameter": 1247,
      "bene": 1248,
      "catch": 1249,
      "oms": 1250,
      "path": 1251,
      "sc": 1252,
      "sor": 1253,
      "sight": 1254,
      "ze": 1255,
      "throw": 1256,
      "really": 1257,
      "enor": 1258,
      "enomen": 1259,
      "vered": 1260,
      "cool": 1261,
      "deep": 1262,
      "degrees": 1263,
      "hope": 1264,
      "kept": 1265,
      "teen": 1266,
      "presid": 1267,
      "ously": 1268,
      "shar": 1269,
      "disp": 1270,
      "timore": 1271,
      "phenomen": 1272,
      "disting": 1273,
      "twenty": 1274,
      "presented": 1275,
      "flu": 1276,
      "directly": 1277,
      "volcan": 1278,
      "wonderful": 1279,
      "baltimore": 1280,
      "occasion": 1281,
      "enormous": 1282,
      "12": 1283,
      "18": 1284,
      "fer": 1285,
      "gli": 1286,
      "glit": 1287,
      "lished": 1288,
      "main": 1289,
      "mind": 1290,
      "ured": 1291,
      "vin": 1292,
      "ond": 1293,
      "stri": 1294,
      "ities": 1295,
      "llar": 1296,
      "road": 1297,
      "idge": 1298,
      "susque": 1299,
      "conf": 1300,
      "dies": 1301,
      "words": 1302,
      "peak": 1303,
      "answer": 1304,
      "posse": 1305,
      "science": 1306,
      "reflect": 1307,
      "attract": 1308,
      "speak": 1309,
      "suppose": 1310,
      "shock": 1311,
      "floor": 1312,
      "existence": 1313,
      "electron": 1314,
      "necessary": 1315,
      "precise": 1316,
      "chapter": 1317,
      "president": 1318,
      "distingu": 1319,
      "susquehan": 1320,
      "_susquehan": 1321,
      "cke": 1322,
      "ior": 1323,
      "ming": 1324,
      "ner": 1325,
      "pur": 1326,
      "sense": 1327,
      "wa": 1328,
      "watch": 1329,
      "ances": 1330,
      "arri": 1331,
      "argu": 1332,
      "bear": 1333,
      "besides": 1334,
      "escap": 1335,
      "rop": 1336,
      "alt": 1337,
      "unt": 1338,
      "detail": 1339,
      "ternal": 1340,
      "hold": 1341,
      "magn": 1342,
      "making": 1343,
      "ople": 1344,
      "occup": 1345,
      "vided": 1346,
      "falling": 1347,
      "na_": 1348,
      "begin": 1349,
      "calculated": 1350,
      "given": 1351,
      "selenites": 1352,
      "depths": 1353,
      "close": 1354,
      "sky": 1355,
      "gentle": 1356,
      "bus": 1357,
      "dang": 1358,
      "hill": 1359,
      "pu": 1360,
      "pri": 1361,
      "san": 1362,
      "var": 1363,
      "went": 1364,
      "seas": 1365,
      "ents": 1366,
      "enter": 1367,
      "formed": 1368,
      "fee": 1369,
      "ago": 1370,
      "true": 1371,
      "trouble": 1372,
      "came": 1373,
      "comm": 1374,
      "formation": 1375,
      "seconds": 1376,
      "simple": 1377,
      "general": 1378,
      "help": 1379,
      "slowly": 1380,
      "indeed": 1381,
      "electronic": 1382,
      "_susquehanna_": 1383,
      "bor": 1384,
      "burn": 1385,
      "cing": 1386,
      "gave": 1387,
      "ks": 1388,
      "mill": 1389,
      "non": 1390,
      "pa": 1391,
      "pit": 1392,
      "pac": 1393,
      "scre": 1394,
      "ygen": 1395,
      "instru": 1396,
      "requi": 1397,
      "respect": 1398,
      "liar": 1399,
      "united": 1400,
      "conce": 1401,
      "terms": 1402,
      "neither": 1403,
      "test": 1404,
      "ending": 1405,
      "atest": 1406,
      "people": 1407,
      "things": 1408,
      "ures": 1409,
      "reached": 1410,
      "hands": 1411,
      "darkness": 1412,
      "difference": 1413,
      "simply": 1414,
      "period": 1415,
      "stars": 1416,
      "equal": 1417,
      "favorable": 1418,
      "brilli": 1419,
      "reveal": 1420,
      "illustr": 1421,
      "sufficient": 1422,
      "bullet": 1423,
      "oxygen": 1424,
      "beneath": 1425,
      "15": 1426,
      "bing": 1427,
      "cut": 1428,
      "ef": 1429,
      "mi": 1430,
      "sin": 1431,
      "ines": 1432,
      "influ": 1433,
      "ero": 1434,
      "stra": 1435,
      "alle": 1436,
      "ceed": 1437,
      "det": 1438,
      "imag": 1439,
      "ability": 1440,
      "log": 1441,
      "safe": 1442,
      "bodies": 1443,
      "umb": 1444,
      "seeing": 1445,
      "intense": 1446,
      "suns": 1447,
      "gradu": 1448,
      "gravity": 1449,
      "posit": 1450,
      "ists": 1451,
      "counter": 1452,
      "country": 1453,
      "getting": 1454,
      "ublic": 1455,
      "extreme": 1456,
      "easy": 1457,
      "observation": 1458,
      "streaks": 1459,
      "motionless": 1460,
      "spot": 1461,
      "approaching": 1462,
      "listen": 1463,
      "draw": 1464,
      "december": 1465,
      "pacific": 1466,
      "dri": 1467,
      "ebook": 1468,
      "fr": 1469,
      "hum": 1470,
      "ii": 1471,
      "ian": 1472,
      "ived": 1473,
      "ken": 1474,
      "kes": 1475,
      "pie": 1476,
      "run": 1477,
      "enthus": 1478,
      "assu": 1479,
      "ics": 1480,
      "below": 1481,
      "meas": 1482,
      "rah": 1483,
      "ract": 1484,
      "chie": 1485,
      "uni": 1486,
      "unity": 1487,
      "contra": 1488,
      "hot": 1489,
      "fellow": 1490,
      "pres": 1491,
      "illed": 1492,
      "ounds": 1493,
      "pecu": 1494,
      "peaks": 1495,
      "ishing": 1496,
      "shape": 1497,
      "brought": 1498,
      "flash": 1499,
      "remind": 1500,
      "exceeding": 1501,
      "lands": 1502,
      "charact": 1503,
      "tried": 1504,
      "following": 1505,
      "number": 1506,
      "eclip": 1507,
      "globe": 1508,
      "movement": 1509,
      "hurrah": 1510,
      "nearer": 1511,
      "circum": 1512,
      "sharp": 1513,
      "until": 1514,
      "enthusi": 1515,
      "chief": 1516,
      "peculiar": 1517,
      "aff": 1518,
      "eight": 1519,
      "ging": 1520,
      "har": 1521,
      "ians": 1522,
      "ns": 1523,
      "past": 1524,
      "rate": 1525,
      "ward": 1526,
      "attemp": 1527,
      "stop": 1528,
      "seven": 1529,
      "belie": 1530,
      "rock": 1531,
      "hast": 1532,
      "wel": 1533,
      "ution": 1534,
      "thats": 1535,
      "force": 1536,
      "dest": 1537,
      "convin": 1538,
      "exam": 1539,
      "need": 1540,
      "arent": 1541,
      "added": 1542,
      "prep": 1543,
      "illumin": 1544,
      "iled": 1545,
      "upon": 1546,
      "ages": 1547,
      "action": 1548,
      "glasses": 1549,
      "position": 1550,
      "bridge": 1551,
      "stead": 1552,
      "name": 1553,
      "southern": 1554,
      "struck": 1555,
      "started": 1556,
      "venture": 1557,
      "except": 1558,
      "single": 1559,
      "blind": 1560,
      "silence": 1561,
      "animal": 1562,
      "american": 1563,
      "absolutely": 1564,
      "glimp": 1565,
      "beginning": 1566,
      "danger": 1567,
      "illustration": 1568,
      "10": 1569,
      "1e": 1570,
      "20": 1571,
      "a_": 1572,
      "hes": 1573,
      "ler": 1574,
      "os": 1575,
      "oper": 1576,
      "rs": 1577,
      "s_": 1578,
      "situ": 1579,
      "ump": 1580,
      "wit": 1581,
      "ination": 1582,
      "ati": 1583,
      "lection": 1584,
      "white": 1585,
      "vel": 1586,
      "rious": 1587,
      "iron": 1588,
      "quar": 1589,
      "gest": 1590,
      "iling": 1591,
      "boys": 1592,
      "forever": 1593,
      "cannot": 1594,
      "myself": 1595,
      "distant": 1596,
      "opin": 1597,
      "regions": 1598,
      "apparent": 1599,
      "questions": 1600,
      "curve": 1601,
      "foundation": 1602,
      "directions": 1603,
      "charge": 1604,
      "square": 1605,
      "became": 1606,
      "profess": 1607,
      "powerful": 1608,
      "summit": 1609,
      "possibly": 1610,
      "dispatch": 1611,
      "brilliant": 1612,
      "exceedingly": 1613,
      "character": 1614,
      "50": 1615,
      "bro": 1616,
      "cus": 1617,
      "cast": 1618,
      "mr": 1619,
      "sen": 1620,
      "swe": 1621,
      "till": 1622,
      "zing": 1623,
      "instead": 1624,
      "orig": 1625,
      "ised": 1626,
      "asser": 1627,
      "met": 1628,
      "mete": 1629,
      "meet": 1630,
      "utter": 1631,
      "change": 1632,
      "provided": 1633,
      "iment": 1634,
      "ourselves": 1635,
      "contr": 1636,
      "consci": 1637,
      "post": 1638,
      "que": 1639,
      "tele": 1640,
      "outside": 1641,
      "greatest": 1642,
      "ety": 1643,
      "arts": 1644,
      "serious": 1645,
      "trying": 1646,
      "prin": 1647,
      "ledge": 1648,
      "solid": 1649,
      "excite": 1650,
      "daring": 1651,
      "paralle": 1652,
      "instance": 1653,
      "izing": 1654,
      "objects": 1655,
      "latitude": 1656,
      "result": 1657,
      "difficult": 1658,
      "difficulty": 1659,
      "blooms": 1660,
      "large": 1661,
      "advant": 1662,
      "glittering": 1663,
      "confid": 1664,
      "precisely": 1665,
      "gradually": 1666,
      "opinion": 1667,
      "origin": 1668,
      "contrary": 1669,
      "bloomsbur": 1670,
      "13": 1671,
      "16": 1672,
      "_v": 1673,
      "ah": 1674,
      "bound": 1675,
      "ell": 1676,
      "fain": 1677,
      "gig": 1678,
      "iad": 1679,
      "ls": 1680,
      "lab": 1681,
      "leng": 1682,
      "ot": 1683,
      "ption": 1684,
      "rid": 1685,
      "tone": 1686,
      "tical": 1687,
      "ught": 1688,
      "yond": 1689,
      "thick": 1690,
      "iness": 1691,
      "incre": 1692,
      "relie": 1693,
      "atus": 1694,
      "orbit": 1695,
      "lear": 1696,
      "isco": 1697,
      "beyond": 1698,
      "rocke": 1699,
      "vest": 1700,
      "ried": 1701,
      "rail": 1702,
      "forth": 1703,
      "proble": 1704,
      "conside": 1705,
      "add": 1706,
      "feature": 1707,
      "whats": 1708,
      "bold": 1709,
      "accomp": 1710,
      "evening": 1711,
      "fright": 1712,
      "trans": 1713,
      "cause": 1714,
      "points": 1715,
      "whether": 1716,
      "opport": 1717,
      "interior": 1718,
      "northern": 1719,
      "saying": 1720,
      "import": 1721,
      "discus": 1722,
      "attent": 1723,
      "burst": 1724,
      "numer": 1725,
      "consequence": 1726,
      "heaven": 1727,
      "produced": 1728,
      "satisfact": 1729,
      "syste": 1730,
      "worthy": 1731,
      "copyright": 1732,
      "phenomenon": 1733,
      "circumst": 1734,
      "conscious": 1735,
      "excitement": 1736,
      "considered": 1737,
      "ama": 1738,
      "bon": 1739,
      "crow": 1740,
      "gor": 1741,
      "ia": 1742,
      "knew": 1743,
      "pers": 1744,
      "pull": 1745,
      "ror": 1746,
      "sof": 1747,
      "tre": 1748,
      "tly": 1749,
      "yards": 1750,
      "theory": 1751,
      "init": 1752,
      "intell": 1753,
      "ator": 1754,
      "ences": 1755,
      "arr": 1756,
      "iting": 1757,
      "uttered": 1758,
      "ramp": 1759,
      "ched": 1760,
      "unless": 1761,
      "deter": 1762,
      "absor": 1763,
      "pole": 1764,
      "extra": 1765,
      "external": 1766,
      "dian": 1767,
      "capable": 1768,
      "acce": 1769,
      "surround": 1770,
      "plate": 1771,
      "tran": 1772,
      "strict": 1773,
      "comb": 1774,
      "coming": 1775,
      "flat": 1776,
      "cident": 1777,
      "ized": 1778,
      "columb": 1779,
      "midnight": 1780,
      "followed": 1781,
      "floating": 1782,
      "scientists": 1783,
      "talk": 1784,
      "wrong": 1785,
      "agreement": 1786,
      "bolide": 1787,
      "comparison": 1788,
      "surprise": 1789,
      "emplo": 1790,
      "details": 1791,
      "quarter": 1792,
      "princi": 1793,
      "parallel": 1794,
      "bloomsbury": 1795,
      "length": 1796,
      "intellig": 1797,
      "columbiad": 1798,
      "30": 1799,
      "ax": 1800,
      "bly": 1801,
      "cou": 1802,
      "fla": 1803,
      "ger": 1804,
      "gged": 1805,
      "mur": 1806,
      "nam": 1807,
      "nine": 1808,
      "ograph": 1809,
      "py": 1810,
      "ping": 1811,
      "rise": 1812,
      "smo": 1813,
      "table": 1814,
      "rese": 1815,
      "enjo": 1816,
      "ster": 1817,
      "itions": 1818,
      "orious": 1819,
      "leep": 1820,
      "ask": 1821,
      "lly": 1822,
      "ication": 1823,
      "chan": 1824,
      "lies": 1825,
      "death": 1826,
      "proved": 1827,
      "pow": 1828,
      "feel": 1829,
      "prevent": 1830,
      "captains": 1831,
      "render": 1832,
      "pointed": 1833,
      "tycho": 1834,
      "glance": 1835,
      "cular": 1836,
      "occur": 1837,
      "grou": 1838,
      "lower": 1839,
      "excited": 1840,
      "highly": 1841,
      "careful": 1842,
      "struct": 1843,
      "starting": 1844,
      "shot": 1845,
      "showed": 1846,
      "latter": 1847,
      "engine": 1848,
      "inhabitants": 1849,
      "buo": 1850,
      "laws": 1851,
      "thirty": 1852,
      "glare": 1853,
      "fortunately": 1854,
      "possess": 1855,
      "altitude": 1856,
      "magnific": 1857,
      "gentlemen": 1858,
      "puz": 1859,
      "glimpse": 1860,
      "professor": 1861,
      "rockets": 1862,
      "initial": 1863,
      "ramparts": 1864,
      "brow": 1865,
      "cam": 1866,
      "drop": 1867,
      "fre": 1868,
      "fate": 1869,
      "hou": 1870,
      "ild": 1871,
      "lu": 1872,
      "loud": 1873,
      "mort": 1874,
      "ometer": 1875,
      "public": 1876,
      "send": 1877,
      "trem": 1878,
      "ual": 1879,
      "ume": 1880,
      "vain": 1881,
      "wo": 1882,
      "year": 1883,
      "thor": 1884,
      "recor": 1885,
      "asm": 1886,
      "secre": 1887,
      "ross": 1888,
      "along": 1889,
      "vely": 1890,
      "mere": 1891,
      "util": 1892,
      "rage": 1893,
      "prot": 1894,
      "contemp": 1895,
      "convers": 1896,
      "laid": 1897,
      "usion": 1898,
      "admit": 1899,
      "foot": 1900,
      "board": 1901,
      "mach": 1902,
      "disappeared": 1903,
      "seems": 1904,
      "report": 1905,
      "partic": 1906,
      "moments": 1907,
      "appar": 1908,
      "turning": 1909,
      "giving": 1910,
      "supp": 1911,
      "copes": 1912,
      "standing": 1913,
      "western": 1914,
      "finally": 1915,
      "license": 1916,
      "profound": 1917,
      "telescopes": 1918,
      "pleasure": 1919,
      "discover": 1920,
      "dimin": 1921,
      "above": 1922,
      "influence": 1923,
      "straight": 1924,
      "ceeded": 1925,
      "increas": 1926,
      "opportunity": 1927,
      "attention": 1928,
      "group": 1929,
      "cambridge": 1930,
      "conversation": 1931,
      "17": 1932,
      "_tycho": 1933,
      "cla": 1934,
      "gan": 1935,
      "ith": 1936,
      "ier": 1937,
      "lof": 1938,
      "omy": 1939,
      "pet": 1940,
      "pure": 1941,
      "pounds": 1942,
      "vap": 1943,
      "ret": 1944,
      "ery": 1945,
      "engl": 1946,
      "alone": 1947,
      "alive": 1948,
      "moved": 1949,
      "veget": 1950,
      "coast": 1951,
      "forget": 1952,
      "develo": 1953,
      "proper": 1954,
      "impossible": 1955,
      "concer": 1956,
      "notic": 1957,
      "exper": 1958,
      "explain": 1959,
      "ounced": 1960,
      "quit": 1961,
      "adventure": 1962,
      "preci": 1963,
      "access": 1964,
      "likely": 1965,
      "ams": 1966,
      "reader": 1967,
      "comes": 1968,
      "firm": 1969,
      "glorious": 1970,
      "calm": 1971,
      "former": 1972,
      "steep": 1973,
      "else": 1974,
      "nautil": 1975,
      "due": 1976,
      "calculation": 1977,
      "ize": 1978,
      "volume": 1979,
      "valle": 1980,
      "talking": 1981,
      "inhabitable": 1982,
      "consequently": 1983,
      "walls": 1984,
      "third": 1985,
      "breakfast": 1986,
      "splendid": 1987,
      "comparat": 1988,
      "ancisco": 1989,
      "fifty": 1990,
      "volcano": 1991,
      "occasionally": 1992,
      "enterpr": 1993,
      "commun": 1994,
      "detect": 1995,
      "drawn": 1996,
      "francisco": 1997,
      "pressure": 1998,
      "meteor": 1999,
      "gigantic": 2000,
      "circumstances": 2001,
      "magnificent": 2002,
      "apparatus": 2003,
      "adventurers": 2004,
      "40": 2005,
      "aut": 2006,
      "eld": 2007,
      "fig": 2008,
      "ges": 2009,
      "gul": 2010,
      "grow": 2011,
      "hon": 2012,
      "ire": 2013,
      "ium_": 2014,
      "later": 2015,
      "mist": 2016,
      "pal": 2017,
      "pap": 2018,
      "pay": 2019,
      "sl": 2020,
      "smile": 2021,
      "sink": 2022,
      "tou": 2023,
      "vac": 2024,
      "winter": 2025,
      "zen": 2026,
      "zed": 2027,
      "inclu": 2028,
      "anci": 2029,
      "atory": 2030,
      "arms": 2031,
      "mot": 2032,
      "chron": 2033,
      "forty": 2034,
      "forces": 2035,
      "soci": 2036,
      "del": 2037,
      "degree": 2038,
      "conclu": 2039,
      "lava": 2040,
      "die": 2041,
      "theyre": 2042,
      "youre": 2043,
      "ury": 2044,
      "fear": 2045,
      "antly": 2046,
      "endous": 2047,
      "boy": 2048,
      "herself": 2049,
      "agra": 2050,
      "lights": 2051,
      "myster": 2052,
      "phy": 2053,
      "sible": 2054,
      "comfort": 2055,
      "internal": 2056,
      "offic": 2057,
      "donations": 2058,
      "reflection": 2059,
      "higher": 2060,
      "mission": 2061,
      "reaching": 2062,
      "void": 2063,
      "calculate": 2064,
      "calculations": 2065,
      "acknow": 2066,
      "carried": 2067,
      "color": 2068,
      "midst": 2069,
      "brain": 2070,
      "triump": 2071,
      "finite": 2072,
      "depth": 2073,
      "instantly": 2074,
      "generally": 2075,
      "shadows": 2076,
      "stood": 2077,
      "appearance": 2078,
      "cracks": 2079,
      "smaller": 2080,
      "surprised": 2081,
      "remarkable": 2082,
      "philo": 2083,
      "violent": 2084,
      "laughed": 2085,
      "feeling": 2086,
      "pitch": 2087,
      "required": 2088,
      "since": 2089,
      "counteract": 2090,
      "measure": 2091,
      "attempt": 2092,
      "believe": 2093,
      "prepared": 2094,
      "telegraph": 2095,
      "railroad": 2096,
      "problem": 2097,
      "important": 2098,
      "satisfactory": 2099,
      "diana": 2100,
      "powder": 2101,
      "tremendous": 2102,
      "english": 2103,
      "experiment": 2104,
      "nautilus": 2105,
      "enterprise": 2106,
      "gulf": 2107,
      "_co": 2108,
      "bow": 2109,
      "base": 2110,
      "cli": 2111,
      "d_": 2112,
      "em": 2113,
      "ether": 2114,
      "fle": 2115,
      "fut": 2116,
      "fun": 2117,
      "furn": 2118,
      "flying": 2119,
      "gro": 2120,
      "gri": 2121,
      "iv": 2122,
      "lumin": 2123,
      "mass": 2124,
      "oon": 2125,
      "pho": 2126,
      "pract": 2127,
      "ran": 2128,
      "sis": 2129,
      "uced": 2130,
      "wid": 2131,
      "thod": 2132,
      "inct": 2133,
      "inch": 2134,
      "information": 2135,
      "resist": 2136,
      "ening": 2137,
      "itat": 2138,
      "itable": 2139,
      "whir": 2140,
      "whil": 2141,
      "method": 2142,
      "demark": 2143,
      "ours": 2144,
      "const": 2145,
      "notice": 2146,
      "ult": 2147,
      "ural": 2148,
      "spar": 2149,
      "spir": 2150,
      "iful": 2151,
      "sail": 2152,
      "trademark": 2153,
      "mac": 2154,
      "worse": 2155,
      "obli": 2156,
      "ager": 2157,
      "aged": 2158,
      "liter": 2159,
      "among": 2160,
      "longs": 2161,
      "caught": 2162,
      "marked": 2163,
      "distur": 2164,
      "size": 2165,
      "vessel": 2166,
      "clou": 2167,
      "commit": 2168,
      "centric": 2169,
      "cry": 2170,
      "crust": 2171,
      "anged": 2172,
      "continents": 2173,
      "stony": 2174,
      "paragra": 2175,
      "fied": 2176,
      "field": 2177,
      "izon": 2178,
      "heads": 2179,
      "excell": 2180,
      "street": 2181,
      "closed": 2182,
      "jump": 2183,
      "maps": 2184,
      "electric": 2185,
      "remember": 2186,
      "expression": 2187,
      "describe": 2188,
      "possibility": 2189,
      "horizon": 2190,
      "particularly": 2191,
      "balloon": 2192,
      "hyper": 2193,
      "quickly": 2194,
      "volcanic": 2195,
      "attractions": 2196,
      "speaking": 2197,
      "vari": 2198,
      "millions": 2199,
      "revealed": 2200,
      "imagine": 2201,
      "positively": 2202,
      "extremely": 2203,
      "nson": 2204,
      "situation": 2205,
      "learned": 2206,
      "vestig": 2207,
      "system": 2208,
      "arrange": 2209,
      "extraordinary": 2210,
      "names": 2211,
      "brownson": 2212,
      "contempl": 2213,
      "vacu": 2214,
      "chronometer": 2215,
      "whilst": 2216,
      "paragraph": 2217,
      "bat": 2218,
      "ele": 2219,
      "fat": 2220,
      "gone": 2221,
      "hun": 2222,
      "sim": 2223,
      "sens": 2224,
      "ura": 2225,
      "van": 2226,
      "youn": 2227,
      "zero": 2228,
      "thou": 2229,
      "ining": 2230,
      "investig": 2231,
      "ancy": 2232,
      "envelo": 2233,
      "leave": 2234,
      "ices": 2235,
      "separ": 2236,
      "es_": 2237,
      "noon": 2238,
      "alo": 2239,
      "held": 2240,
      "meant": 2241,
      "vertical": 2242,
      "rig": 2243,
      "rill": 2244,
      "unexpected": 2245,
      "forgot": 2246,
      "depress": 2247,
      "hood": 2248,
      "diver": 2249,
      "taining": 2250,
      "fair": 2251,
      "fail": 2252,
      "faces": 2253,
      "tee": 2254,
      "ify": 2255,
      "ified": 2256,
      "ends": 2257,
      "sav": 2258,
      "themat": 2259,
      "boat": 2260,
      "pernic": 2261,
      "projectiles": 2262,
      "mathemat": 2263,
      "acle": 2264,
      "across": 2265,
      "compre": 2266,
      "dollar": 2267,
      "displa": 2268,
      "amed": 2269,
      "longitude": 2270,
      "mount": 2271,
      "posing": 2272,
      "condition": 2273,
      "fallen": 2274,
      "breath": 2275,
      "thinking": 2276,
      "observatory": 2277,
      "ensions": 2278,
      "midship": 2279,
      "trip": 2280,
      "satellites": 2281,
      "considerably": 2282,
      "reasons": 2283,
      "cheer": 2284,
      "selenite": 2285,
      "ashed": 2286,
      "clearly": 2287,
      "jud": 2288,
      "silent": 2289,
      "radiating": 2290,
      "astronomer": 2291,
      "eastern": 2292,
      "archive": 2293,
      "received": 2294,
      "gazing": 2295,
      "splendor": 2296,
      "recogn": 2297,
      "ushed": 2298,
      "fifteen": 2299,
      "natural": 2300,
      "arrived": 2301,
      "piece": 2302,
      "eclipse": 2303,
      "enthusiasm": 2304,
      "convinced": 2305,
      "witness": 2306,
      "apparently": 2307,
      "advantage": 2308,
      "determin": 2309,
      "puzzling": 2310,
      "house": 2311,
      "mortal": 2312,
      "supply": 2313,
      "lofty": 2314,
      "vapor": 2315,
      "retard": 2316,
      "valley": 2317,
      "comparatively": 2318,
      "mysterious": 2319,
      "philoso": 2320,
      "luminous": 2321,
      "literary": 2322,
      "excellent": 2323,
      "vacuum": 2324,
      "midshipman": 2325,
      "_new": 2326,
      "amp": 2327,
      "ban": 2328,
      "bay": 2329,
      "cil": 2330,
      "double": 2331,
      "eu": 2332,
      "fra": 2333,
      "fric": 2334,
      "gg": 2335,
      "gal": 2336,
      "hing": 2337,
      "hind": 2338,
      "lines": 2339,
      "mir": 2340,
      "mits": 2341,
      "mast": 2342,
      "none": 2343,
      "pan": 2344,
      "sand": 2345,
      "sca": 2346,
      "scent": 2347,
      "swall": 2348,
      "twel": 2349,
      "wise": 2350,
      "yor": 2351,
      "indi": 2352,
      "incident": 2353,
      "revol": 2354,
      "stu": 2355,
      "orb": 2356,
      "level": 2357,
      "ico": 2358,
      "section": 2359,
      "beer": 2360,
      "beaut": 2361,
      "behind": 2362,
      "roll": 2363,
      "rossed": 2364,
      "whis": 2365,
      "mometer": 2366,
      "mel": 2367,
      "river": 2368,
      "race": 2369,
      "ching": 2370,
      "child": 2371,
      "lif": 2372,
      "living": 2373,
      "limit": 2374,
      "covered": 2375,
      "sole": 2376,
      "depart": 2377,
      "proof": 2378,
      "proce": 2379,
      "impress": 2380,
      "lose": 2381,
      "losing": 2382,
      "contained": 2383,
      "home": 2384,
      "explan": 2385,
      "lake": 2386,
      "nest": 2387,
      "thermometer": 2388,
      "spite": 2389,
      "spring": 2390,
      "preca": 2391,
      "early": 2392,
      "grew": 2393,
      "ilar": 2394,
      "perce": 2395,
      "train": 2396,
      "maed": 2397,
      "manner": 2398,
      "company": 2399,
      "seem": 2400,
      "tru": 2401,
      "prison": 2402,
      "deser": 2403,
      "despair": 2404,
      "central": 2405,
      "comet": 2406,
      "useless": 2407,
      "grat": 2408,
      "willing": 2409,
      "beings": 2410,
      "vision": 2411,
      "visions": 2412,
      "shell": 2413,
      "nights": 2414,
      "forming": 2415,
      "steam": 2416,
      "undoub": 2417,
      "utenant": 2418,
      "didnt": 2419,
      "struction": 2420,
      "blazing": 2421,
      "specul": 2422,
      "brea": 2423,
      "explo": 2424,
      "mighty": 2425,
      "brave": 2426,
      "lieutenant": 2427,
      "consideration": 2428,
      "circular": 2429,
      "resumed": 2430,
      "bottle": 2431,
      "chains": 2432,
      "crack": 2433,
      "discovered": 2434,
      "gazed": 2435,
      "remained": 2436,
      "quicker": 2437,
      "distinguish": 2438,
      "distinguished": 2439,
      "purpose": 2440,
      "watching": 2441,
      "argument": 2442,
      "escaped": 2443,
      "business": 2444,
      "million": 2445,
      "screw": 2446,
      "instrument": 2447,
      "logical": 2448,
      "humor": 2449,
      "landscap": 2450,
      "rocky": 2451,
      "illuminated": 2452,
      "original": 2453,
      "_v_": 2454,
      "relief": 2455,
      "courage": 2456,
      "engineer": 2457,
      "triumph": 2458,
      "_copernic": 2459,
      "friction": 2460,
      "swallow": 2461,
      "york": 2462,
      "undoubted": 2463,
      "1f": 2464,
      "25": 2465,
      "_ap": 2466,
      "bir": 2467,
      "blow": 2468,
      "dama": 2469,
      "fu": 2470,
      "fit": 2471,
      "killed": 2472,
      "lon": 2473,
      "mine": 2474,
      "nect": 2475,
      "pes": 2476,
      "pend": 2477,
      "rub": 2478,
      "snow": 2479,
      "thro": 2480,
      "infinite": 2481,
      "rel": 2482,
      "resp": 2483,
      "anx": 2484,
      "ative": 2485,
      "ency": 2486,
      "stor": 2487,
      "orter": 2488,
      "orable": 2489,
      "lea": 2490,
      "lead": 2491,
      "ision": 2492,
      "search": 2493,
      "roy": 2494,
      "room": 2495,
      "alar": 2496,
      "ides": 2497,
      "union": 2498,
      "dered": 2499,
      "proportion": 2500,
      "imbri": 2501,
      "abled": 2502,
      "cone": 2503,
      "construct": 2504,
      "experi": 2505,
      "neigh": 2506,
      "faction": 2507,
      "admi": 2508,
      "reduced": 2509,
      "green": 2510,
      "astic": 2511,
      "perpend": 2512,
      "trace": 2513,
      "makes": 2514,
      "theres": 2515,
      "cannon": 2516,
      "doing": 2517,
      "somewhere": 2518,
      "estab": 2519,
      "plic": 2520,
      "plun": 2521,
      "repla": 2522,
      "observers": 2523,
      "phys": 2524,
      "mnicholls": 2525,
      "knows": 2526,
      "party": 2527,
      "vivid": 2528,
      "yours": 2529,
      "ground": 2530,
      "appears": 2531,
      "visit": 2532,
      "iously": 2533,
      "angu": 2534,
      "afterwards": 2535,
      "joy": 2536,
      "shores": 2537,
      "fined": 2538,
      "considerable": 2539,
      "selenograph": 2540,
      "spoke": 2541,
      "starry": 2542,
      "resul": 2543,
      "chair": 2544,
      "author": 2545,
      "windows": 2546,
      "signal": 2547,
      "discovery": 2548,
      "satisfaction": 2549,
      "gaze": 2550,
      "hearts": 2551,
      "interesting": 2552,
      "mbers": 2553,
      "hypo": 2554,
      "planets": 2555,
      "effects": 2556,
      "natura": 2557,
      "thrown": 2558,
      "12000": 2559,
      "striking": 2560,
      "possessed": 2561,
      "arguments": 2562,
      "escape": 2563,
      "safely": 2564,
      "uniform": 2565,
      "hastily": 2566,
      "osity": 2567,
      "sweet": 2568,
      "faint": 2569,
      "accomplished": 2570,
      "tranqu": 2571,
      "strictly": 2572,
      "murphy": 2573,
      "buoy": 2574,
      "_tycho_": 2575,
      "vegetation": 2576,
      "comfortable": 2577,
      "acknowledge": 2578,
      "future": 2579,
      "practical": 2580,
      "itatis_": 2581,
      "spark": 2582,
      "hyperbo": 2583,
      "arrangement": 2584,
      "young": 2585,
      "compreh": 2586,
      "witnessed": 2587,
      "twelve": 2588,
      "_copernicus_": 2589,
      "imbrium_": 2590,
      "neighbor": 2591,
      "perpendicular": 2592,
      "11": 2593,
      "35": 2594,
      "400": 2595,
      "_p": 2596,
      "_al": 2597,
      "aid": 2598,
      "ade": 2599,
      "cred": 2600,
      "dle": 2601,
      "e_": 2602,
      "fare": 2603,
      "filled": 2604,
      "gy": 2605,
      "gain": 2606,
      "lain": 2607,
      "mn": 2608,
      "pain": 2609,
      "rink": 2610,
      "sch": 2611,
      "sleep": 2612,
      "tint": 2613,
      "ufact": 2614,
      "vy": 2615,
      "vide": 2616,
      "wand": 2617,
      "wide": 2618,
      "wings": 2619,
      "x_": 2620,
      "xx": 2621,
      "yaw": 2622,
      "thy": 2623,
      "thre": 2624,
      "incess": 2625,
      "repe": 2626,
      "enabled": 2627,
      "arrow": 2628,
      "top": 2629,
      "issu": 2630,
      "asc": 2631,
      "noise": 2632,
      "roared": 2633,
      "rocks": 2634,
      "alter": 2635,
      "modif": 2636,
      "weigh": 2637,
      "verse": 2638,
      "sug": 2639,
      "utions": 2640,
      "rain": 2641,
      "chas": 2642,
      "unknown": 2643,
      "unfortunately": 2644,
      "formu": 2645,
      "forts": 2646,
      "delight": 2647,
      "defect": 2648,
      "devo": 2649,
      "prove": 2650,
      "provide": 2651,
      "lot": 2652,
      "loss": 2653,
      "exting": 2654,
      "using": 2655,
      "gebra": 2656,
      "preh": 2657,
      "prefer": 2658,
      "ifying": 2659,
      "earnest": 2660,
      "ers_": 2661,
      "usted": 2662,
      "shif": 2663,
      "track": 2664,
      "worst": 2665,
      "manufact": 2666,
      "hero": 2667,
      "compared": 2668,
      "dogs": 2669,
      "ties": 2670,
      "served": 2671,
      "sometimes": 2672,
      "gold": 2673,
      "nice": 2674,
      "rent": 2675,
      "oppos": 2676,
      "gled": 2677,
      "glory": 2678,
      "working": 2679,
      "crescent": 2680,
      "continent": 2681,
      "refund": 2682,
      "highest": 2683,
      "curves": 2684,
      "happy": 2685,
      "gives": 2686,
      "speed": 2687,
      "carry": 2688,
      "colors": 2689,
      "curi": 2690,
      "probability": 2691,
      "month": 2692,
      "singular": 2693,
      "shows": 2694,
      "attach": 2695,
      "tons": 2696,
      "medium": 2697,
      "succeeded": 2698,
      "jules": 2699,
      "stock": 2700,
      "immediate": 2701,
      "recei": 2702,
      "receive": 2703,
      "described": 2704,
      "humanity": 2705,
      "successful": 2706,
      "rugged": 2707,
      "rising": 2708,
      "distributing": 2709,
      "recover": 2710,
      "pencil": 2711,
      "allowed": 2712,
      "fortunate": 2713,
      "phenomena": 2714,
      "maintained": 2715,
      "strike": 2716,
      "hills": 2717,
      "priv": 2718,
      "prime": 2719,
      "various": 2720,
      "burned": 2721,
      "paid": 2722,
      "instruments": 2723,
      "require": 2724,
      "efforts": 2725,
      "running": 2726,
      "fellows": 2727,
      "examined": 2728,
      "blinding": 2729,
      "broken": 2730,
      "assert": 2731,
      "labors": 2732,
      "addition": 2733,
      "features": 2734,
      "discussion": 2735,
      "numerous": 2736,
      "person": 2737,
      "absorbed": 2738,
      "plateau": 2739,
      "employed": 2740,
      "secret": 2741,
      "communication": 2742,
      "including": 2743,
      "pitchy": 2744,
      "width": 2745,
      "disturbed": 2746,
      "clouds": 2747,
      "dollars": 2748,
      "scale": 2749,
      "departure": 2750,
      "explanation": 2751,
      "naturally": 2752,
      "neighborhood": 2753,
      "formula": 2754,
      "extingu": 2755,
      "opposite": 2756,
      "14": 2757,
      "_ar": 2758,
      "_car": 2759,
      "ather": 2760,
      "bs": 2761,
      "border": 2762,
      "crossed": 2763,
      "din": 2764,
      "dut": 2765,
      "dder": 2766,
      "ek": 2767,
      "een": 2768,
      "emin": 2769,
      "eternal": 2770,
      "fancy": 2771,
      "gle": 2772,
      "hence": 2773,
      "hang": 2774,
      "i_": 2775,
      "ime": 2776,
      "ifor": 2777,
      "jup": 2778,
      "ky": 2779,
      "lish": 2780,
      "llect": 2781,
      "mut": 2782,
      "mus": 2783,
      "mad": 2784,
      "masses": 2785,
      "nub": 2786,
      "oting": 2787,
      "pi": 2788,
      "pment": 2789,
      "rang": 2790,
      "rush": 2791,
      "uct": 2792,
      "wish": 2793,
      "waters": 2794,
      "ye": 2795,
      "inex": 2796,
      "incl": 2797,
      "inside": 2798,
      "invent": 2799,
      "insist": 2800,
      "rene": 2801,
      "ane": 2802,
      "anced": 2803,
      "er_": 2804,
      "enn": 2805,
      "enable": 2806,
      "aring": 2807,
      "stain": 2808,
      "itation": 2809,
      "organ": 2810,
      "told": 2811,
      "today": 2812,
      "ascertain": 2813,
      "ica": 2814,
      "icy": 2815,
      "icated": 2816,
      "bewild": 2817,
      "becoming": 2818,
      "becomes": 2819,
      "espe": 2820,
      "algebra": 2821,
      "weak": 2822,
      "mechan": 2823,
      "cele": 2824,
      "sul": 2825,
      "super": 2826,
      "superi": 2827,
      "utmost": 2828,
      "ray": 2829,
      "allu": 2830,
      "unanim": 2831,
      "deck": 2832,
      "image": 2833,
      "absur": 2834,
      "washing": 2835,
      "concus": 2836,
      "notes": 2837,
      "hole": 2838,
      "ladel": 2839,
      "quant": 2840,
      "advis": 2841,
      "fell": 2842,
      "fered": 2843,
      "previ": 2844,
      "prepar": 2845,
      "focus": 2846,
      "oney": 2847,
      "ils": 2848,
      "aston": 2849,
      "permit": 2850,
      "shout": 2851,
      "maj": 2852,
      "worked": 2853,
      "heral": 2854,
      "complain": 2855,
      "otherwise": 2856,
      "intended": 2857,
      "estim": 2858,
      "plenty": 2859,
      "cially": 2860,
      "observer": 2861,
      "phr": 2862,
      "knowledge": 2863,
      "parts": 2864,
      "yourself": 2865,
      "reading": 2866,
      "commen": 2867,
      "common": 2868,
      "interposed": 2869,
      "desc": 2870,
      "descent": 2871,
      "desire": 2872,
      "undertaken": 2873,
      "contact": 2874,
      "comets": 2875,
      "gry": 2876,
      "grant": 2877,
      "tenance": 2878,
      "news": 2879,
      "ign": 2880,
      "ignor": 2881,
      "califor": 2882,
      "farther": 2883,
      "bring": 2884,
      "sooner": 2885,
      "paris": 2886,
      "sought": 2887,
      "blazed": 2888,
      "startling": 2889,
      "places": 2890,
      "continually": 2891,
      "spec": 2892,
      "ield": 2893,
      "copies": 2894,
      "wond": 2895,
      "thousands": 2896,
      "furrow": 2897,
      "curious": 2898,
      "mont": 2899,
      "guess": 2900,
      "check": 2901,
      "attended": 2902,
      "hundreds": 2903,
      "burg": 2904,
      "spots": 2905,
      "blackness": 2906,
      "inhabited": 2907,
      "orders": 2908,
      "intellect": 2909,
      "approached": 2910,
      "radiation": 2911,
      "finding": 2912,
      "produce": 2913,
      "bolts": 2914,
      "lips": 2915,
      "america": 2916,
      "interested": 2917,
      "aware": 2918,
      "dimensions": 2919,
      "phia": 2920,
      "philadel": 2921,
      "distribution": 2922,
      "warm": 2923,
      "nearest": 2924,
      "violence": 2925,
      "regularly": 2926,
      "planetary": 2927,
      "scene": 2928,
      "cooling": 2929,
      "reflecting": 2930,
      "pursu": 2931,
      "arrival": 2932,
      "occupied": 2933,
      "busy": 2934,
      "burning": 2935,
      "effort": 2936,
      "eroid": 2937,
      "pieces": 2938,
      "contrad": 2939,
      "flashed": 2940,
      "convince": 2941,
      "illumination": 2942,
      "operation": 2943,
      "senses": 2944,
      "assertion": 2945,
      "meeting": 2946,
      "ellip": 2947,
      "labor": 2948,
      "frightful": 2949,
      "heavenly": 2950,
      "consciousness": 2951,
      "crowd": 2952,
      "surrounded": 2953,
      "principle": 2954,
      "axis": 2955,
      "resemb": 2956,
      "channe": 2957,
      "dropped": 2958,
      "increasing": 2959,
      "noticed": 2960,
      "ancient": 2961,
      "concluded": 2962,
      "fearful": 2963,
      "grim": 2964,
      "committee": 2965,
      "meantime": 2966,
      "determined": 2967,
      "master": 2968,
      "beautiful": 2969,
      "explosion": 2970,
      "storm": 2971,
      "tranquill": 2972,
      "farewell": 2973,
      "curiosity": 2974,
      "secretary": 2975,
      "jupit": 2976,
      "nubium_": 2977,
      "especially": 2978,
      "superior": 2979,
      "absurd": 2980,
      "washington": 2981,
      "concussion": 2982,
      "californ": 2983,
      "philadelphia": 2984,
      "200": 2985,
      "8000": 2986,
      "_r": 2987,
      "_s": 2988,
      "_x_": 2989,
      "ahead": 2990,
      "bits": 2991,
      "blast": 2992,
      "cated": 2993,
      "dry": 2994,
      "eat": 2995,
      "eager": 2996,
      "fic": 2997,
      "fish": 2998,
      "flow": 2999,
      "gently": 3000,
      "ium": 3001,
      "kins": 3002,
      "lately": 3003,
      "langu": 3004,
      "mou": 3005,
      "mater": 3006,
      "muttered": 3007,
      "nation": 3008,
      "pas": 3009,
      "page": 3010,
      "pict": 3011,
      "rit": 3012,
      "rant": 3013,
      "rous": 3014,
      "sw": 3015,
      "sit": 3016,
      "swit": 3017,
      "wast": 3018,
      "yield": 3019,
      "zy": 3020,
      "thin": 3021,
      "thunder": 3022,
      "thesis": 3023,
      "infer": 3024,
      "regre": 3025,
      "represent": 3026,
      "repose": 3027,
      "relat": 3028,
      "remarked": 3029,
      "ancho": 3030,
      "erup": 3031,
      "ener": 3032,
      "ars": 3033,
      "edge": 3034,
      "sts": 3035,
      "stout": 3036,
      "stren": 3037,
      "story": 3038,
      "ingen": 3039,
      "orid": 3040,
      "tot": 3041,
      "tograph": 3042,
      "le_": 3043,
      "asp": 3044,
      "asleep": 3045,
      "associ": 3046,
      "seld": 3047,
      "sevent": 3048,
      "behold": 3049,
      "rose": 3050,
      "mole": 3051,
      "mother": 3052,
      "meal": 3053,
      "idly": 3054,
      "susp": 3055,
      "sustain": 3056,
      "racy": 3057,
      "lius": 3058,
      "limb": 3059,
      "cot": 3060,
      "coll": 3061,
      "irous": 3062,
      "uninhabitable": 3063,
      "unwilling": 3064,
      "devi": 3065,
      "promp": 3066,
      "abol": 3067,
      "abund": 3068,
      "conject": 3069,
      "pop": 3070,
      "pot": 3071,
      "note": 3072,
      "lamp": 3073,
      "ouncing": 3074,
      "net": 3075,
      "iles": 3076,
      "fah": 3077,
      "admir": 3078,
      "outline": 3079,
      "spent": 3080,
      "preva": 3081,
      "endless": 3082,
      "sake": 3083,
      "greed": 3084,
      "gress": 3085,
      "astound": 3086,
      "asteroid": 3087,
      "etc": 3088,
      "permission": 3089,
      "traces": 3090,
      "upwards": 3091,
      "mag": 3092,
      "blessed": 3093,
      "mans": 3094,
      "accu": 3095,
      "ester": 3096,
      "cious": 3097,
      "republic": 3098,
      "marine": 3099,
      "lunarians": 3100,
      "ols": 3101,
      "opened": 3102,
      "twice": 3103,
      "pron": 3104,
      "rested": 3105,
      "desirous": 3106,
      "lasted": 3107,
      "countenance": 3108,
      "solution": 3109,
      "bran": 3110,
      "creature": 3111,
      "florid": 3112,
      "extent": 3113,
      "parabol": 3114,
      "current": 3115,
      "happ": 3116,
      "ization": 3117,
      "portions": 3118,
      "continue": 3119,
      "supposing": 3120,
      "minute": 3121,
      "jove": 3122,
      "shooting": 3123,
      "stret": 3124,
      "charged": 3125,
      "rupt": 3126,
      "follows": 3127,
      "showing": 3128,
      "considering": 3129,
      "meaning": 3130,
      "evident": 3131,
      "engaged": 3132,
      "saturn": 3133,
      "wonderfully": 3134,
      "blanc": 3135,
      "surely": 3136,
      "keeping": 3137,
      "putting": 3138,
      "sounding": 3139,
      "summits": 3140,
      "eccentric": 3141,
      "please": 3142,
      "writing": 3143,
      "brighter": 3144,
      "gloomy": 3145,
      "usually": 3146,
      "occasions": 3147,
      "horror": 3148,
      "wildly": 3149,
      "violently": 3150,
      "announced": 3151,
      "sorry": 3152,
      "twentysix": 3153,
      "maintain": 3154,
      "pale": 3155,
      "positive": 3156,
      "assumed": 3157,
      "measured": 3158,
      "presence": 3159,
      "reminded": 3160,
      "affir": 3161,
      "stopped": 3162,
      "hasty": 3163,
      "prepare": 3164,
      "blindly": 3165,
      "animals": 3166,
      "queen": 3167,
      "advantages": 3168,
      "confident": 3169,
      "sofa": 3170,
      "accept": 3171,
      "surrounding": 3172,
      "intelligence": 3173,
      "fresh": 3174,
      "protected": 3175,
      "particle": 3176,
      "diminished": 3177,
      "increased": 3178,
      "figures": 3179,
      "honorable": 3180,
      "paper": 3181,
      "sinking": 3182,
      "zenith": 3183,
      "battle": 3184,
      "similar": 3185,
      "sensations": 3186,
      "vanished": 3187,
      "savage": 3188,
      "judge": 3189,
      "ample": 3190,
      "precautions": 3191,
      "maedler": 3192,
      "truth": 3193,
      "london": 3194,
      "replace": 3195,
      "selenographic": 3196,
      "hypothesis": 3197,
      "hyperbola": 3198,
      "suggest": 3199,
      "chasms": 3200,
      "heroes": 3201,
      "julesburg": 3202,
      "extinguished": 3203,
      "_carpath": 3204,
      "alluded": 3205,
      "quantity": 3206,
      "herald_": 3207,
      "commenced": 3208,
      "california": 3209,
      "mouth": 3210,
      "regret": 3211,
      "streng": 3212,
      "seldom": 3213,
      "accuracy": 3214,
      "florida": 3215,
      "100": 3216,
      "27": 3217,
      "60": 3218,
      "_belfast": 3219,
      "_ocean": 3220,
      "_sin": 3221,
      "ake": 3222,
      "aimed": 3223,
      "avoid": 3224,
      "bility": 3225,
      "cat": 3226,
      "cand": 3227,
      "dust": 3228,
      "dance": 3229,
      "dread": 3230,
      "emotion": 3231,
      "fing": 3232,
      "fling": 3233,
      "gir": 3234,
      "hat": 3235,
      "ired": 3236,
      "ience": 3237,
      "jack": 3238,
      "jury": 3239,
      "kno": 3240,
      "late": 3241,
      "money": 3242,
      "nin": 3243,
      "nit": 3244,
      "nas": 3245,
      "oth": 3246,
      "pon": 3247,
      "pou": 3248,
      "pati": 3249,
      "rou": 3250,
      "rated": 3251,
      "sir": 3252,
      "scho": 3253,
      "salt": 3254,
      "sending": 3255,
      "ture": 3256,
      "vit": 3257,
      "vice": 3258,
      "wal": 3259,
      "xed": 3260,
      "xim": 3261,
      "xico": 3262,
      "yan": 3263,
      "yell": 3264,
      "zled": 3265,
      "thrill": 3266,
      "thed": 3267,
      "theast": 3268,
      "invol": 3269,
      "innumer": 3270,
      "inery": 3271,
      "analo": 3272,
      "ons": 3273,
      "ones": 3274,
      "err": 3275,
      "ende": 3276,
      "enced": 3277,
      "enclosed": 3278,
      "station": 3279,
      "step": 3280,
      "oric": 3281,
      "islands": 3282,
      "lled": 3283,
      "iction": 3284,
      "sec": 3285,
      "seren": 3286,
      "beams": 3287,
      "rot": 3288,
      "ctor": 3289,
      "aled": 3290,
      "ality": 3291,
      "moder": 3292,
      "weary": 3293,
      "entering": 3294,
      "ident": 3295,
      "idian": 3296,
      "vern": 3297,
      "vert": 3298,
      "rived": 3299,
      "rable": 3300,
      "raction": 3301,
      "ches": 3302,
      "chant": 3303,
      "live": 3304,
      "liqu": 3305,
      "liable": 3306,
      "lively": 3307,
      "coal": 3308,
      "cover": 3309,
      "irs": 3310,
      "wil": 3311,
      "dec": 3312,
      "dee": 3313,
      "deli": 3314,
      "promin": 3315,
      "proceeded": 3316,
      "abs": 3317,
      "loco": 3318,
      "located": 3319,
      "cones": 3320,
      "concl": 3321,
      "apse": 3322,
      "apart": 3323,
      "exer": 3324,
      "exha": 3325,
      "died": 3326,
      "divided": 3327,
      "ilege": 3328,
      "yous": 3329,
      "ulated": 3330,
      "geo": 3331,
      "spy": 3332,
      "spher": 3333,
      "spac": 3334,
      "spread": 3335,
      "fold": 3336,
      "sailing": 3337,
      "bore": 3338,
      "perple": 3339,
      "mention": 3340,
      "shut": 3341,
      "shine": 3342,
      "obst": 3343,
      "accent": 3344,
      "dog": 3345,
      "doctor": 3346,
      "disput": 3347,
      "disposed": 3348,
      "disconcer": 3349,
      "umber": 3350,
      "crib": 3351,
      "intens": 3352,
      "lightning": 3353,
      "plat": 3354,
      "anyhow": 3355,
      "tless": 3356,
      "cial": 3357,
      "reporter": 3358,
      "observe": 3359,
      "lunte": 3360,
      "whenever": 3361,
      "sunlight": 3362,
      "gracious": 3363,
      "restless": 3364,
      "interplanetary": 3365,
      "design": 3366,
      "century": 3367,
      "cord": 3368,
      "corn": 3369,
      "lets": 3370,
      "letter": 3371,
      "says": 3372,
      "apping": 3373,
      "tax": 3374,
      "facts": 3375,
      "steadily": 3376,
      "dense": 3377,
      "genial": 3378,
      "refract": 3379,
      "fastened": 3380,
      "fires": 3381,
      "itudes": 3382,
      "vored": 3383,
      "volunte": 3384,
      "oubled": 3385,
      "support": 3386,
      "carbon": 3387,
      "joyous": 3388,
      "exception": 3389,
      "morgan": 3390,
      "collection": 3391,
      "brains": 3392,
      "months": 3393,
      "passing": 3394,
      "showers": 3395,
      "reasonable": 3396,
      "cheers": 3397,
      "ibly": 3398,
      "meridian": 3399,
      "spectacle": 3400,
      "interruption": 3401,
      "keeps": 3402,
      "buff": 3403,
      "oceans": 3404,
      "summer": 3405,
      "equator": 3406,
      "pleased": 3407,
      "pleasant": 3408,
      "brightness": 3409,
      "heavi": 3410,
      "heavy": 3411,
      "bolides": 3412,
      "blood": 3413,
      "describing": 3414,
      "freely": 3415,
      "dream": 3416,
      "remarks": 3417,
      "illustrious": 3418,
      "distribute": 3419,
      "distributed": 3420,
      "warrant": 3421,
      "empty": 3422,
      "glittered": 3423,
      "minds": 3424,
      "llarum_": 3425,
      "reflected": 3426,
      "wait": 3427,
      "occupying": 3428,
      "nonsense": 3429,
      "screen": 3430,
      "respective": 3431,
      "tested": 3432,
      "intensely": 3433,
      "listening": 3434,
      "ebooks": 3435,
      "humbold": 3436,
      "assume": 3437,
      "assured": 3438,
      "univers": 3439,
      "contract": 3440,
      "ians_": 3441,
      "operations": 3442,
      "situated": 3443,
      "posted": 3444,
      "confidently": 3445,
      "boundless": 3446,
      "relieved": 3447,
      "pulling": 3448,
      "princip": 3449,
      "resem": 3450,
      "enjoy": 3451,
      "enjoyed": 3452,
      "buoys": 3453,
      "recorded": 3454,
      "protect": 3455,
      "machinery": 3456,
      "precious": 3457,
      "papers": 3458,
      "motive": 3459,
      "officers": 3460,
      "cliff": 3461,
      "photograph": 3462,
      "constant": 3463,
      "spirits": 3464,
      "oblique": 3465,
      "cryst": 3466,
      "jumping": 3467,
      "variety": 3468,
      "philosoph": 3469,
      "lifted": 3470,
      "procellarum_": 3471,
      "breathe": 3472,
      "swallowed": 3473,
      "undoubtedly": 3474,
      "birds": 3475,
      "nectar": 3476,
      "respon": 3477,
      "plicable": 3478,
      "plunged": 3479,
      "comprehend": 3480,
      "yawning": 3481,
      "privilege": 3482,
      "additional": 3483,
      "inclined": 3484,
      "ellipse": 3485,
      "_r_": 3486,
      "language": 3487,
      "associated": 3488,
      "pronounced": 3489,
      "_carpathians_": 3490,
      "strength": 3491,
      "_belfasters_": 3492,
      "_oceanus": 3493,
      "_sinus": 3494,
      "knock": 3495,
      "yanke": 3496,
      "innumerable": 3497,
      "endea": 3498,
      "intensity": 3499,
      "1st": 3500,
      "250": 3501,
      "46": 3502,
      "5th": 3503,
      "500": 3504,
      "_e": 3505,
      "_n": 3506,
      "_the": 3507,
      "_le": 3508,
      "_do": 3509,
      "_must": 3510,
      "_d_": 3511,
      "aer": 3512,
      "ament": 3513,
      "ba": 3514,
      "bare": 3515,
      "bull": 3516,
      "bread": 3517,
      "bbing": 3518,
      "cab": 3519,
      "cities": 3520,
      "da": 3521,
      "dying": 3522,
      "eur": 3523,
      "equi": 3524,
      "fal": 3525,
      "fight": 3526,
      "fine": 3527,
      "ga": 3528,
      "glow": 3529,
      "hist": 3530,
      "ix": 3531,
      "iest": 3532,
      "jt": 3533,
      "l_": 3534,
      "lust": 3535,
      "mand": 3536,
      "mation": 3537,
      "mmer": 3538,
      "narrow": 3539,
      "ore": 3540,
      "oton": 3541,
      "pat": 3542,
      "por": 3543,
      "pun": 3544,
      "pound": 3545,
      "pti": 3546,
      "pub": 3547,
      "passes": 3548,
      "rying": 3549,
      "soften": 3550,
      "tions": 3551,
      "uce": 3552,
      "uine": 3553,
      "voc": 3554,
      "wn": 3555,
      "wre": 3556,
      "wro": 3557,
      "xity": 3558,
      "xvi": 3559,
      "thoms": 3560,
      "thered": 3561,
      "insu": 3562,
      "incon": 3563,
      "inspect": 3564,
      "injury": 3565,
      "renew": 3566,
      "resplend": 3567,
      "on_": 3568,
      "oned": 3569,
      "online": 3570,
      "eral": 3571,
      "erable": 3572,
      "attered": 3573,
      "encoun": 3574,
      "ensible": 3575,
      "edience": 3576,
      "stif": 3577,
      "offered": 3578,
      "ingly": 3579,
      "itten": 3580,
      "total": 3581,
      "leg": 3582,
      "ism": 3583,
      "ising": 3584,
      "isite": 3585,
      "isnt": 3586,
      "asy": 3587,
      "ased": 3588,
      "asking": 3589,
      "assist": 3590,
      "season": 3591,
      "seizing": 3592,
      "serene": 3593,
      "beat": 3594,
      "bell": 3595,
      "betra": 3596,
      "esq": 3597,
      "escrib": 3598,
      "haul": 3599,
      "whence": 3600,
      "alp": 3601,
      "mol": 3602,
      "weather": 3603,
      "vere": 3604,
      "heit": 3605,
      "mexico": 3606,
      "iding": 3607,
      "rie": 3608,
      "rier": 3609,
      "rivers": 3610,
      "chang": 3611,
      "libr": 3612,
      "lift": 3613,
      "cost": 3614,
      "cocks": 3615,
      "alling": 3616,
      "unable": 3617,
      "unconscious": 3618,
      "forward": 3619,
      "deal": 3620,
      "delic": 3621,
      "delay": 3622,
      "demand": 3623,
      "provisions": 3624,
      "progress": 3625,
      "improve": 3626,
      "withstanding": 3627,
      "loved": 3628,
      "conical": 3629,
      "confound": 3630,
      "concentric": 3631,
      "containing": 3632,
      "construction": 3633,
      "confined": 3634,
      "appointed": 3635,
      "appreh": 3636,
      "polar": 3637,
      "notwithstanding": 3638,
      "holes": 3639,
      "exec": 3640,
      "exposed": 3641,
      "example": 3642,
      "dig": 3643,
      "dign": 3644,
      "nell": 3645,
      "thering": 3646,
      "quisite": 3647,
      "ulate": 3648,
      "jected": 3649,
      "span": 3650,
      "spap": 3651,
      "split": 3652,
      "projected": 3653,
      "sage": 3654,
      "owing": 3655,
      "ustion": 3656,
      "box": 3657,
      "oughly": 3658,
      "upper": 3659,
      "veni": 3660,
      "ables": 3661,
      "thanks": 3662,
      "obedience": 3663,
      "forests": 3664,
      "acid": 3665,
      "acles": 3666,
      "accident": 3667,
      "comply": 3668,
      "compli": 3669,
      "compens": 3670,
      "disappear": 3671,
      "discharge": 3672,
      "tired": 3673,
      "indescrib": 3674,
      "aked": 3675,
      "surve": 3676,
      "aming": 3677,
      "amid": 3678,
      "rendered": 3679,
      "lessly": 3680,
      "observing": 3681,
      "lungs": 3682,
      "myth": 3683,
      "caused": 3684,
      "mars": 3685,
      "distinct": 3686,
      "pointing": 3687,
      "optical": 3688,
      "knowing": 3689,
      "partitions": 3690,
      "vigor": 3691,
      "proud": 3692,
      "class": 3693,
      "travelling": 3694,
      "grave": 3695,
      "shade": 3696,
      "shaking": 3697,
      "minus": 3698,
      "whereas": 3699,
      "istic": 3700,
      "understood": 3701,
      "centri": 3702,
      "cris": 3703,
      "grounds": 3704,
      "region": 3705,
      "newspap": 3706,
      "excuse": 3707,
      "format": 3708,
      "viding": 3709,
      "vidual": 3710,
      "steamer": 3711,
      "stellar": 3712,
      "deny": 3713,
      "impati": 3714,
      "flour": 3715,
      "genuine": 3716,
      "refraction": 3717,
      "match": 3718,
      "parabo": 3719,
      "discla": 3720,
      "begun": 3721,
      "missing": 3722,
      "soul": 3723,
      "takes": 3724,
      "startled": 3725,
      "subst": 3726,
      "submarine": 3727,
      "halfpast": 3728,
      "play": 3729,
      "played": 3730,
      "cleare": 3731,
      "cleared": 3732,
      "giant": 3733,
      "marstons": 3734,
      "_m_": 3735,
      "_mapp": 3736,
      "breast": 3737,
      "expect": 3738,
      "wont": 3739,
      "collect": 3740,
      "middle": 3741,
      "squared": 3742,
      "monoton": 3743,
      "rapidity": 3744,
      "guard": 3745,
      "versed": 3746,
      "valu": 3747,
      "ibility": 3748,
      "fourth": 3749,
      "succeed": 3750,
      "subjected": 3751,
      "setting": 3752,
      "radius": 3753,
      "chain": 3754,
      "chamber": 3755,
      "helion": 3756,
      "expressive": 3757,
      "ecst": 3758,
      "consequences": 3759,
      "written": 3760,
      "thirteen": 3761,
      "layers": 3762,
      "signs": 3763,
      "breaking": 3764,
      "viewed": 3765,
      "gloom": 3766,
      "blocks": 3767,
      "accordance": 3768,
      "reality": 3769,
      "fireworks": 3770,
      "grandeur": 3771,
      "larger": 3772,
      "ancing": 3773,
      "wildest": 3774,
      "heights": 3775,
      "advanced": 3776,
      "remains": 3777,
      "sufficiently": 3778,
      "llipt": 3779,
      "abode": 3780,
      "laughing": 3781,
      "native": 3782,
      "announcing": 3783,
      "strongly": 3784,
      "throwing": 3785,
      "cooled": 3786,
      "deeply": 3787,
      "twentyfour": 3788,
      "186": 3789,
      "attractive": 3790,
      "bearing": 3791,
      "closely": 3792,
      "conceive": 3793,
      "ines_": 3794,
      "detected": 3795,
      "imagination": 3796,
      "drily": 3797,
      "iii": 3798,
      "contrast": 3799,
      "eclipses": 3800,
      "enthusiastic": 3801,
      "harm": 3802,
      "harbor": 3803,
      "welcome": 3804,
      "examine": 3805,
      "americans": 3806,
      "atio": 3807,
      "gesticul": 3808,
      "sensible": 3809,
      "confidence": 3810,
      "ahs": 3811,
      "ridges": 3812,
      "determine": 3813,
      "absorbing": 3814,
      "acceler": 3815,
      "transp": 3816,
      "combustion": 3817,
      "intelligent": 3818,
      "flag": 3819,
      "nineteen": 3820,
      "smooth": 3821,
      "possession": 3822,
      "luck": 3823,
      "wood": 3824,
      "thoroughly": 3825,
      "secrets": 3826,
      "particip": 3827,
      "developed": 3828,
      "development": 3829,
      "noticing": 3830,
      "quitting": 3831,
      "firmly": 3832,
      "volcanoes": 3833,
      "meteoric": 3834,
      "figure": 3835,
      "misty": 3836,
      "touching": 3837,
      "conclude": 3838,
      "counteracting": 3839,
      "furnace": 3840,
      "groo": 3841,
      "rank": 3842,
      "fields": 3843,
      "fatal": 3844,
      "rigidly": 3845,
      "depression": 3846,
      "mathematical": 3847,
      "recognize": 3848,
      "galile": 3849,
      "individual": 3850,
      "revolution": 3851,
      "melancho": 3852,
      "children": 3853,
      "solemn": 3854,
      "springs": 3855,
      "company_": 3856,
      "screws": 3857,
      "landscape": 3858,
      "landscapes": 3859,
      "triumphantly": 3860,
      "_apenn": 3861,
      "rubbing": 3862,
      "leaving": 3863,
      "royal": 3864,
      "alarm": 3865,
      "constructed": 3866,
      "resulting": 3867,
      "354": 3868,
      "aided": 3869,
      "schmid": 3870,
      "threw": 3871,
      "incessant": 3872,
      "repeated": 3873,
      "devoted": 3874,
      "golden": 3875,
      "duty": 3876,
      "ranges": 3877,
      "unanimously": 3878,
      "previous": 3879,
      "phrase": 3880,
      "specific": 3881,
      "wonders": 3882,
      "eagerly": 3883,
      "material": 3884,
      "relatively": 3885,
      "ingenious": 3886,
      "totally": 3887,
      "aspect": 3888,
      "cotton": 3889,
      "deviation": 3890,
      "conjecture": 3891,
      "creatures": 3892,
      "parabolic": 3893,
      "liquid": 3894,
      "absence": 3895,
      "conclusion": 3896,
      "spyglasses": 3897,
      "spaces": 3898,
      "disconcerted": 3899,
      "carbonic": 3900,
      "humboldt": 3901,
      "cliffs": 3902,
      "yankee": 3903,
      "_must_": 3904,
      "false": 3905,
      "wrote": 3906,
      "encountered": 3907,
      "changing": 3908,
      "parabola": 3909,
      "melancholy": 3910,
      "_apennines_": 3911,
      "19": 3912,
      "22": 3913,
      "23": 3914,
      "75": 3915,
      "80": 3916,
      "_a": 3917,
      "_not": 3918,
      "_la": 3919,
      "_you": 3920,
      "_barbican": 3921,
      "aver": 3922,
      "athen": 3923,
      "agreed": 3924,
      "bad": 3925,
      "bill": 3926,
      "cad": 3927,
      "cum": 3928,
      "dd": 3929,
      "dated": 3930,
      "dashed": 3931,
      "drink": 3932,
      "econ": 3933,
      "eter": 3934,
      "eks": 3935,
      "ellipt": 3936,
      "fant": 3937,
      "fron": 3938,
      "fund": 3939,
      "fissu": 3940,
      "gate": 3941,
      "hed": 3942,
      "hers": 3943,
      "iac": 3944,
      "ires": 3945,
      "jar": 3946,
      "jun": 3947,
      "kal": 3948,
      "kill": 3949,
      "lor": 3950,
      "lers": 3951,
      "lantic": 3952,
      "latest": 3953,
      "nd": 3954,
      "nally": 3955,
      "o_": 3956,
      "osc": 3957,
      "olly": 3958,
      "pher": 3959,
      "piled": 3960,
      "ppi": 3961,
      "piles": 3962,
      "ridge": 3963,
      "ratio": 3964,
      "sn": 3965,
      "sive": 3966,
      "tong": 3967,
      "tled": 3968,
      "vated": 3969,
      "vitable": 3970,
      "wers": 3971,
      "wrap": 3972,
      "women": 3973,
      "yester": 3974,
      "z_": 3975,
      "inf": 3976,
      "inder": 3977,
      "infall": 3978,
      "inconce": 3979,
      "indifference": 3980,
      "resh": 3981,
      "resol": 3982,
      "referen": 3983,
      "represented": 3984,
      "reversed": 3985,
      "ank": 3986,
      "angry": 3987,
      "onward": 3988,
      "erfe": 3989,
      "ators": 3990,
      "atlantic": 3991,
      "ena": 3992,
      "enet": 3993,
      "enses": 3994,
      "arily": 3995,
      "sty": 3996,
      "stir": 3997,
      "stun": 3998,
      "stone": 3999,
      "stared": 4000,
      "orary": 4001,
      "orily": 4002,
      "icate": 4003,
      "icking": 4004,
      "seat": 4005,
      "severe": 4006,
      "beloved": 4007,
      "nod": 4008,
      "nobody": 4009,
      "roar": 4010,
      "roast": 4011,
      "rogen": 4012,
      "haz": 4013,
      "whist": 4014,
      "alay": 4015,
      "alizing": 4016,
      "modi": 4017,
      "moves": 4018,
      "mobility": 4019,
      "weir": 4020,
      "webs": 4021,
      "velius": 4022,
      "hey": 4023,
      "heap": 4024,
      "hevelius": 4025,
      "ented": 4026,
      "mem": 4027,
      "memor": 4028,
      "cely": 4029,
      "ceiling": 4030,
      "rif": 4031,
      "rim": 4032,
      "uttering": 4033,
      "raised": 4034,
      "lime": 4035,
      "liked": 4036,
      "cox": 4037,
      "cock": 4038,
      "cook": 4039,
      "coolly": 4040,
      "alled": 4041,
      "aint": 4042,
      "une": 4043,
      "uncertain": 4044,
      "unusual": 4045,
      "depos": 4046,
      "demon": 4047,
      "defined": 4048,
      "proving": 4049,
      "promis": 4050,
      "provision": 4051,
      "love": 4052,
      "lowest": 4053,
      "conve": 4054,
      "concent": 4055,
      "consist": 4056,
      "congrat": 4057,
      "consul": 4058,
      "term": 4059,
      "terra": 4060,
      "apo": 4061,
      "apsed": 4062,
      "appreci": 4063,
      "exter": 4064,
      "explains": 4065,
      "laying": 4066,
      "ladder": 4067,
      "divisions": 4068,
      "ount": 4069,
      "neg": 4070,
      "quet": 4071,
      "keen": 4072,
      "father": 4073,
      "faith": 4074,
      "fault": 4075,
      "uran": 4076,
      "feas": 4077,
      "outlines": 4078,
      "spill": 4079,
      "sprit": 4080,
      "saved": 4081,
      "onel": 4082,
      "ity_": 4083,
      "il_": 4084,
      "illet": 4085,
      "astically": 4086,
      "ets": 4087,
      "perfor": 4088,
      "performed": 4089,
      "artic": 4090,
      "obtain": 4091,
      "obtained": 4092,
      "obstruct": 4093,
      "pered": 4094,
      "acqu": 4095,
      "accur": 4096,
      "accompan": 4097,
      "acade": 4098,
      "dom": 4099,
      "disorder": 4100,
      "discharged": 4101,
      "serve": 4102,
      "serving": 4103,
      "indul": 4104,
      "indicated": 4105,
      "cribed": 4106,
      "agon": 4107,
      "ests": 4108,
      "plor": 4109,
      "plant": 4110,
      "plough": 4111,
      "plates": 4112,
      "anyone": 4113,
      "amount": 4114,
      "goes": 4115,
      "himalay": 4116,
      "rence": 4117,
      "renheit": 4118,
      "acting": 4119,
      "active": 4120,
      "longing": 4121,
      "everywhere": 4122,
      "cavern": 4123,
      "hollow": 4124,
      "sippi": 4125,
      "inevitable": 4126,
      "odor": 4127,
      "viv": 4128,
      "vius_": 4129,
      "yourselves": 4130,
      "shoulders": 4131,
      "gray": 4132,
      "shake": 4133,
      "sentiment": 4134,
      "interstellar": 4135,
      "office": 4136,
      "northeast": 4137,
      "uses": 4138,
      "letting": 4139,
      "crushed": 4140,
      "looks": 4141,
      "afra": 4142,
      "affor": 4143,
      "counted": 4144,
      "inkled": 4145,
      "conditions": 4146,
      "presenting": 4147,
      "excess": 4148,
      "formations": 4149,
      "bris": 4150,
      "brink": 4151,
      "crew": 4152,
      "dens": 4153,
      "impenet": 4154,
      "els": 4155,
      "extend": 4156,
      "extended": 4157,
      "extending": 4158,
      "extinct": 4159,
      "refer": 4160,
      "refresh": 4161,
      "secondly": 4162,
      "easier": 4163,
      "matic": 4164,
      "fier": 4165,
      "cury": 4166,
      "missed": 4167,
      "missis": 4168,
      "miserable": 4169,
      "strug": 4170,
      "strugg": 4171,
      "plainly": 4172,
      "atmospher": 4173,
      "voices": 4174,
      "calculating": 4175,
      "foundations": 4176,
      "directing": 4177,
      "companion": 4178,
      "placed": 4179,
      "special": 4180,
      "suppress": 4181,
      "supposed": 4182,
      "expense": 4183,
      "carrying": 4184,
      "icks": 4185,
      "icken": 4186,
      "older": 4187,
      "exceed": 4188,
      "landed": 4189,
      "colonel": 4190,
      "streams": 4191,
      "bravo": 4192,
      "bracing": 4193,
      "brakes": 4194,
      "rings": 4195,
      "ringing": 4196,
      "winds": 4197,
      "gues": 4198,
      "resses": 4199,
      "cheering": 4200,
      "doubts": 4201,
      "background": 4202,
      "valid": 4203,
      "exclaim": 4204,
      "scientist": 4205,
      "attend": 4206,
      "deprived": 4207,
      "perige": 4208,
      "circle": 4209,
      "ricci": 4210,
      "ton_": 4211,
      "tones": 4212,
      "evidence": 4213,
      "spoken": 4214,
      "astronomy": 4215,
      "blance": 4216,
      "settled": 4217,
      "existed": 4218,
      "existing": 4219,
      "silver": 4220,
      "guncotton": 4221,
      "radiant": 4222,
      "build": 4223,
      "thoughts": 4224,
      "audi": 4225,
      "sounded": 4226,
      "equally": 4227,
      "write": 4228,
      "actual": 4229,
      "southwest": 4230,
      "draught": 4231,
      "dragged": 4232,
      "animated": 4233,
      "producing": 4234,
      "agreeable": 4235,
      "satisfied": 4236,
      "symp": 4237,
      "heartily": 4238,
      "description": 4239,
      "awak": 4240,
      "freeze": 4241,
      "freezing": 4242,
      "horses": 4243,
      "wanted": 4244,
      "grandest": 4245,
      "ruins": 4246,
      "risk": 4247,
      "returning": 4248,
      "understanding": 4249,
      "drew": 4250,
      "dressed": 4251,
      "revel": 4252,
      "ships": 4253,
      "regularity": 4254,
      "correctly": 4255,
      "glad": 4256,
      "peninsu": 4257,
      "annular": 4258,
      "scen": 4259,
      "occasional": 4260,
      "attracting": 4261,
      "magnifying": 4262,
      "entertain": 4263,
      "borne": 4264,
      "conceived": 4265,
      "mix": 4266,
      "shapeless": 4267,
      "eclipsed": 4268,
      "enthusiastically": 4269,
      "affect": 4270,
      "affected": 4271,
      "destination": 4272,
      "glimpses": 4273,
      "dangerous": 4274,
      "1e1": 4275,
      "hesitation": 4276,
      "characteristic": 4277,
      "broke": 4278,
      "castle": 4279,
      "meteors": 4280,
      "telegra": 4281,
      "seriously": 4282,
      "solidly": 4283,
      "13th": 4284,
      "_vive": 4285,
      "thickness": 4286,
      "learn": 4287,
      "problems": 4288,
      "frightened": 4289,
      "discuss": 4290,
      "satisfactorily": 4291,
      "bones": 4292,
      "gorge": 4293,
      "persist": 4294,
      "soft": 4295,
      "softly": 4296,
      "treas": 4297,
      "arranged": 4298,
      "accep": 4299,
      "combined": 4300,
      "smothering": 4301,
      "puzzled": 4302,
      "lucid": 4303,
      "wore": 4304,
      "recording": 4305,
      "machine": 4306,
      "_tychos_": 4307,
      "concerned": 4308,
      "explained": 4309,
      "quitted": 4310,
      "growled": 4311,
      "paying": 4312,
      "slumber": 4313,
      "touch": 4314,
      "society": 4315,
      "feelings": 4316,
      "measurements": 4317,
      "telegraphic": 4318,
      "bowsprit": 4319,
      "embracing": 4320,
      "whirl": 4321,
      "streets": 4322,
      "contemplated": 4323,
      "investigations": 4324,
      "separating": 4325,
      "forgotten": 4326,
      "failure": 4327,
      "boats": 4328,
      "mathematics": 4329,
      "display": 4330,
      "displaying": 4331,
      "retarding": 4332,
      "_newton_": 4333,
      "banks": 4334,
      "frag": 4335,
      "study": 4336,
      "whispered": 4337,
      "limited": 4338,
      "proceeding": 4339,
      "desert": 4340,
      "breathing": 4341,
      "bottles": 4342,
      "cracking": 4343,
      "1f3": 4344,
      "damage": 4345,
      "anxiously": 4346,
      "leaves": 4347,
      "experience": 4348,
      "established": 4349,
      "establish": 4350,
      "results": 4351,
      "sparkling": 4352,
      "gained": 4353,
      "wandering": 4354,
      "altern": 4355,
      "modify": 4356,
      "delighted": 4357,
      "shifting": 4358,
      "manufactured": 4359,
      "attached": 4360,
      "receipt": 4361,
      "eminently": 4362,
      "celebr": 4363,
      "majest": 4364,
      "furrows": 4365,
      "contradict": 4366,
      "resembled": 4367,
      "channel": 4368,
      "tranquillity": 4369,
      "jupiter": 4370,
      "passage": 4371,
      "switched": 4372,
      "seventeen": 4373,
      "limbs": 4374,
      "collision": 4375,
      "promptly": 4376,
      "popular": 4377,
      "fahrenheit": 4378,
      "astounding": 4379,
      "happened": 4380,
      "replacement": 4381,
      "selenographica_": 4382,
      "suggested": 4383,
      "dreadful": 4384,
      "patience": 4385,
      "school": 4386,
      "analog": 4387,
      "serenitatis_": 4388,
      "vertically": 4389,
      "wilcox": 4390,
      "deeper": 4391,
      "locomotive": 4392,
      "exhausted": 4393,
      "geological": 4394,
      "obstacle": 4395,
      "accents": 4396,
      "volunteers": 4397,
      "crystal": 4398,
      "nectaris_": 4399,
      "_doerfe": 4400,
      "breadth": 4401,
      "published": 4402,
      "wrecks": 4403,
      "inspection": 4404,
      "renewed": 4405,
      "splitting": 4406,
      "compliance": 4407,
      "indescribable": 4408,
      "disclaim": 4409,
      "clearer": 4410,
      "_mappa": 4411,
      "valuable": 4412,
      "galileo": 4413,
      "schmidt": 4414,
      "_you_": 4415,
      "athens": 4416,
      "fantastic": 4417,
      "hersche": 4418,
      "iacal": 4419,
      "oscill": 4420,
      "tongue": 4421,
      "yesterday": 4422,
      "inconceiv": 4423,
      "deposited": 4424,
      "concentrated": 4425,
      "accompanied": 4426,
      "himalayahs": 4427,
      "impenetrable": 4428,
      "mississippi": 4429,
      "atmospheric": 4430,
      "peninsula": 4431,
      "_doerfel_": 4432,
      "24": 4433,
      "28": 4434,
      "300": 4435,
      "41": 4436,
      "6th": 4437,
      "6000": 4438,
      "70": 4439,
      "90": 4440,
      "97": 4441,
      "_g": 4442,
      "_y": 4443,
      "_was": 4444,
      "_con": 4445,
      "_could": 4446,
      "_ca": 4447,
      "_has": 4448,
      "_cas": 4449,
      "_is_": 4450,
      "_unity": 4451,
      "_cla": 4452,
      "aus": 4453,
      "awhile": 4454,
      "bou": 4455,
      "band": 4456,
      "bid": 4457,
      "bree": 4458,
      "big": 4459,
      "breach": 4460,
      "cable": 4461,
      "cence": 4462,
      "crest": 4463,
      "coff": 4464,
      "clay": 4465,
      "cisco": 4466,
      "drow": 4467,
      "drun": 4468,
      "eve": 4469,
      "epo": 4470,
      "eous": 4471,
      "event": 4472,
      "emer": 4473,
      "evapor": 4474,
      "egg": 4475,
      "ejected": 4476,
      "fou": 4477,
      "fris": 4478,
      "fanc": 4479,
      "fond": 4480,
      "fishing": 4481,
      "fanci": 4482,
      "fasc": 4483,
      "gar": 4484,
      "gall": 4485,
      "gust": 4486,
      "gence": 4487,
      "glistening": 4488,
      "hi": 4489,
      "hn": 4490,
      "hit": 4491,
      "hone": 4492,
      "hull": 4493,
      "hens": 4494,
      "hilar": 4495,
      "hiding": 4496,
      "ige": 4497,
      "iety": 4498,
      "ikins": 4499,
      "ker": 4500,
      "lou": 4501,
      "link": 4502,
      "lens": 4503,
      "lined": 4504,
      "lashed": 4505,
      "lapse": 4506,
      "mt": 4507,
      "mal": 4508,
      "mul": 4509,
      "mers": 4510,
      "mart": 4511,
      "mess": 4512,
      "mantic": 4513,
      "ni": 4514,
      "nay": 4515,
      "oli": 4516,
      "ored": 4517,
      "omin": 4518,
      "pard": 4519,
      "pul": 4520,
      "pity": 4521,
      "pack": 4522,
      "pip": 4523,
      "pped": 4524,
      "pices": 4525,
      "pray": 4526,
      "rul": 4527,
      "ratt": 4528,
      "sal": 4529,
      "sco": 4530,
      "slo": 4531,
      "sne": 4532,
      "ske": 4533,
      "scor": 4534,
      "sang": 4535,
      "scar": 4536,
      "slip": 4537,
      "tu": 4538,
      "tor": 4539,
      "twi": 4540,
      "tap": 4541,
      "tend": 4542,
      "tast": 4543,
      "tight": 4544,
      "tted": 4545,
      "trop": 4546,
      "task": 4547,
      "ues": 4548,
      "uge": 4549,
      "uck": 4550,
      "ually": 4551,
      "uber": 4552,
      "vre": 4553,
      "vir": 4554,
      "vul": 4555,
      "vous": 4556,
      "vary": 4557,
      "vities": 4558,
      "win": 4559,
      "wling": 4560,
      "wants": 4561,
      "yr": 4562,
      "zes": 4563,
      "thr": 4564,
      "thread": 4565,
      "theless": 4566,
      "iner": 4567,
      "inmat": 4568,
      "incompreh": 4569,
      "incred": 4570,
      "rever": 4571,
      "recon": 4572,
      "reck": 4573,
      "reig": 4574,
      "repress": 4575,
      "retained": 4576,
      "relished": 4577,
      "removed": 4578,
      "reserved": 4579,
      "ont": 4580,
      "error": 4581,
      "eness": 4582,
      "enlight": 4583,
      "enths": 4584,
      "ara": 4585,
      "armor": 4586,
      "edition": 4587,
      "editions": 4588,
      "stage": 4589,
      "stial": 4590,
      "stern": 4591,
      "status": 4592,
      "itating": 4593,
      "itute": 4594,
      "ories": 4595,
      "orama": 4596,
      "toler": 4597,
      "tools": 4598,
      "town": 4599,
      "legs": 4600,
      "isha": 4601,
      "isol": 4602,
      "as_": 4603,
      "ases": 4604,
      "assum": 4605,
      "llo": 4606,
      "sem": 4607,
      "select": 4608,
      "semb": 4609,
      "bered": 4610,
      "beside": 4611,
      "beating": 4612,
      "beef": 4613,
      "belonging": 4614,
      "nove": 4615,
      "noble": 4616,
      "nowhere": 4617,
      "noses": 4618,
      "novel": 4619,
      "rol": 4620,
      "rope": 4621,
      "romantic": 4622,
      "hall": 4623,
      "ctive": 4624,
      "ctions": 4625,
      "mode": 4626,
      "wear": 4627,
      "week": 4628,
      "weeks": 4629,
      "heal": 4630,
      "ential": 4631,
      "entered": 4632,
      "meat": 4633,
      "mest": 4634,
      "members": 4635,
      "rip": 4636,
      "rist": 4637,
      "ries": 4638,
      "uted": 4639,
      "utation": 4640,
      "rapt": 4641,
      "raged": 4642,
      "chin": 4643,
      "chill": 4644,
      "chance": 4645,
      "changed": 4646,
      "chlor": 4647,
      "lier": 4648,
      "liability": 4649,
      "comed": 4650,
      "allic": 4651,
      "irrepress": 4652,
      "ung": 4653,
      "forci": 4654,
      "forms": 4655,
      "som": 4656,
      "deb": 4657,
      "def": 4658,
      "decla": 4659,
      "destruction": 4660,
      "process": 4661,
      "propose": 4662,
      "prospect": 4663,
      "proposed": 4664,
      "propri": 4665,
      "proportions": 4666,
      "proxim": 4667,
      "providing": 4668,
      "imper": 4669,
      "impe": 4670,
      "impart": 4671,
      "impossibility": 4672,
      "immobility": 4673,
      "abil": 4674,
      "abalo": 4675,
      "ource": 4676,
      "withdrawn": 4677,
      "loose": 4678,
      "lowered": 4679,
      "conver": 4680,
      "consu": 4681,
      "confir": 4682,
      "connect": 4683,
      "applicable": 4684,
      "polished": 4685,
      "notebook": 4686,
      "host": 4687,
      "hoax": 4688,
      "excl": 4689,
      "exquisite": 4690,
      "explor": 4691,
      "laun": 4692,
      "diving": 4693,
      "oundest": 4694,
      "neat": 4695,
      "arers": 4696,
      "usc": 4697,
      "barbar": 4698,
      "qued": 4699,
      "quir": 4700,
      "quality": 4701,
      "kepl": 4702,
      "facul": 4703,
      "favored": 4704,
      "ulation": 4705,
      "ulous": 4706,
      "adop": 4707,
      "adjust": 4708,
      "urged": 4709,
      "mption": 4710,
      "fees": 4711,
      "tearing": 4712,
      "ssing": 4713,
      "preserve": 4714,
      "projections": 4715,
      "endent": 4716,
      "endured": 4717,
      "redoubled": 4718,
      "sa_": 4719,
      "greet": 4720,
      "ilt": 4721,
      "ille": 4722,
      "eties": 4723,
      "perate": 4724,
      "performing": 4725,
      "shr": 4726,
      "shu": 4727,
      "shorter": 4728,
      "shattered": 4729,
      "shrie": 4730,
      "travel": 4731,
      "uphea": 4732,
      "venus": 4733,
      "mail": 4734,
      "mament": 4735,
      "thank": 4736,
      "derr": 4737,
      "manage": 4738,
      "managed": 4739,
      "manhole": 4740,
      "foreshort": 4741,
      "pea": 4742,
      "acqui": 4743,
      "comput": 4744,
      "compare": 4745,
      "compris": 4746,
      "domin": 4747,
      "doom": 4748,
      "dozen": 4749,
      "dotted": 4750,
      "earthly": 4751,
      "indust": 4752,
      "induce": 4753,
      "sidence": 4754,
      "umes": 4755,
      "anywhere": 4756,
      "amused": 4757,
      "gods": 4758,
      "aching": 4759,
      "answers": 4760,
      "frigor": 4761,
      "lunat": 4762,
      "everybody": 4763,
      "phinst": 4764,
      "cavities": 4765,
      "mens": 4766,
      "ishment": 4767,
      "stricken": 4768,
      "sibly": 4769,
      "whel": 4770,
      "olis": 4771,
      "oped": 4772,
      "opposition": 4773,
      "type": 4774,
      "vig": 4775,
      "readers": 4776,
      "sunk": 4777,
      "clap": 4778,
      "clust": 4779,
      "cloud": 4780,
      "comical": 4781,
      "overcome": 4782,
      "overboard": 4783,
      "overwhel": 4784,
      "firmament": 4785,
      "grace": 4786,
      "grade": 4787,
      "gravely": 4788,
      "share": 4789,
      "restored": 4790,
      "gling": 4791,
      "mineral": 4792,
      "intox": 4793,
      "owner": 4794,
      "desol": 4795,
      "certain_": 4796,
      "certainty": 4797,
      "nevertheless": 4798,
      "undertaking": 4799,
      "contribut": 4800,
      "contents": 4801,
      "centres": 4802,
      "corusc": 4803,
      "culti": 4804,
      "leton": 4805,
      "crash": 4806,
      "tened": 4807,
      "ledged": 4808,
      "apped": 4809,
      "caloric": 4810,
      "counting": 4811,
      "ideas": 4812,
      "condens": 4813,
      "solic": 4814,
      "solve": 4815,
      "exciting": 4816,
      "creation": 4817,
      "creating": 4818,
      "creator": 4819,
      "steel": 4820,
      "angle": 4821,
      "afternoon": 4822,
      "flapping": 4823,
      "justify": 4824,
      "elphinst": 4825,
      "extrem": 4826,
      "navig": 4827,
      "ptions": 4828,
      "refuse": 4829,
      "refused": 4830,
      "refuge": 4831,
      "nearing": 4832,
      "athy": 4833,
      "fired": 4834,
      "curtly": 4835,
      "ifications": 4836,
      "blame": 4837,
      "submit": 4838,
      "sublime": 4839,
      "director": 4840,
      "giants": 4841,
      "ventured": 4842,
      "spee": 4843,
      "supper": 4844,
      "expenses": 4845,
      "john": 4846,
      "shore": 4847,
      "copying": 4848,
      "copied": 4849,
      "landing": 4850,
      "standstill": 4851,
      "stream": 4852,
      "charming": 4853,
      "probable": 4854,
      "trill": 4855,
      "matters": 4856,
      "final": 4857,
      "finest": 4858,
      "res_": 4859,
      "versary": 4860,
      "float": 4861,
      "flood": 4862,
      "kinds": 4863,
      "kindly": 4864,
      "life_": 4865,
      "smart": 4866,
      "smiling": 4867,
      "vals": 4868,
      "valent": 4869,
      "exclamation": 4870,
      "perihelion": 4871,
      "circul": 4872,
      "tonight": 4873,
      "ashy": 4874,
      "instantane": 4875,
      "profoundest": 4876,
      "talked": 4877,
      "clearing": 4878,
      "beds": 4879,
      "inhabitability": 4880,
      "plane": 4881,
      "integr": 4882,
      "diffused": 4883,
      "adieu": 4884,
      "silvery": 4885,
      "gaseous": 4886,
      "store": 4887,
      "ites_": 4888,
      "radii": 4889,
      "radiated": 4890,
      "buried": 4891,
      "built": 4892,
      "skin": 4893,
      "helped": 4894,
      "sixteen": 4895,
      "difficulties": 4896,
      "aux": 4897,
      "remembers": 4898,
      "expressed": 4899,
      "wrinkled": 4900,
      "favorite": 4901,
      "belfasts": 4902,
      "archimed": 4903,
      "signed": 4904,
      "terrific": 4905,
      "balance": 4906,
      "micro": 4907,
      "reception": 4908,
      "sym": 4909,
      "realized": 4910,
      "laught": 4911,
      "horse": 4912,
      "succession": 4913,
      "successive": 4914,
      "dimmer": 4915,
      "risen": 4916,
      "rises": 4917,
      "indefinite": 4918,
      "drear": 4919,
      "dreamed": 4920,
      "opening": 4921,
      "recovered": 4922,
      "circles": 4923,
      "hemispheres": 4924,
      "balls": 4925,
      "pairs": 4926,
      "penet": 4927,
      "anni": 4928,
      "strangely": 4929,
      "accordingly": 4930,
      "catching": 4931,
      "dispute": 4932,
      "confess": 4933,
      "mingled": 4934,
      "waving": 4935,
      "waves": 4936,
      "arrive": 4937,
      "holder": 4938,
      "occupy": 4939,
      "occupants": 4940,
      "gentleman": 4941,
      "dangers": 4942,
      "command": 4943,
      "commence": 4944,
      "respects": 4945,
      "respectable": 4946,
      "conceal": 4947,
      "periods": 4948,
      "revealing": 4949,
      "150": 4950,
      "cutting": 4951,
      "influences": 4952,
      "driving": 4953,
      "flashing": 4954,
      "flashes": 4955,
      "reminds": 4956,
      "eighteen": 4957,
      "believing": 4958,
      "welcomed": 4959,
      "destroy": 4960,
      "examination": 4961,
      "namely": 4962,
      "1e8": 4963,
      "casting": 4964,
      "metallic": 4965,
      "utterly": 4966,
      "posts": 4967,
      "solidity": 4968,
      "1300": 4969,
      "faintest": 4970,
      "vestige": 4971,
      "accompany": 4972,
      "importance": 4973,
      "discussed": 4974,
      "heavens": 4975,
      "systems": 4976,
      "circumstance": 4977,
      "trees": 4978,
      "employ": 4979,
      "couple": 4980,
      "flame": 4981,
      "smothered": 4982,
      "tables": 4983,
      "rendering": 4984,
      "occurred": 4985,
      "occurrence": 4986,
      "possessing": 4987,
      "houses": 4988,
      "woman": 4989,
      "merely": 4990,
      "admitting": 4991,
      "footnote": 4992,
      "supplied": 4993,
      "diminish": 4994,
      "claimed": 4995,
      "vegetable": 4996,
      "explaining": 4997,
      "formerly": 4998,
      "elsewhere": 4999,
      "motions": 5000,
      "officer": 5001,
      "official": 5002,
      "acknowledged": 5003,
      "flew": 5004,
      "furnished": 5005,
      "groans": 5006,
      "inches": 5007,
      "resistance": 5008,
      "methods": 5009,
      "disturb": 5010,
      "cloudy": 5011,
      "horizontal": 5012,
      "contemplate": 5013,
      "hunger": 5014,
      "hungry": 5015,
      "envelope": 5016,
      "enveloping": 5017,
      "depressed": 5018,
      "fairly": 5019,
      "cheerful": 5020,
      "recognized": 5021,
      "philosophy": 5022,
      "banquet": 5023,
      "europe": 5024,
      "panorama": 5025,
      "indians": 5026,
      "revolving": 5027,
      "whispers": 5028,
      "lifting": 5029,
      "impression": 5030,
      "precaution": 5031,
      "perceive": 5032,
      "perceived": 5033,
      "percepti": 5034,
      "maedlers": 5035,
      "speculation": 5036,
      "speculations": 5037,
      "screwed": 5038,
      "humorum_": 5039,
      "_apo": 5040,
      "damages": 5041,
      "throbbing": 5042,
      "infinitely": 5043,
      "anxiety": 5044,
      "experienced": 5045,
      "admired": 5046,
      "physical": 5047,
      "physics": 5048,
      "joyful": 5049,
      "authorities": 5050,
      "signals": 5051,
      "threat": 5052,
      "incessantly": 5053,
      "rainbow": 5054,
      "manufacture": 5055,
      "singularly": 5056,
      "recovering": 5057,
      "requirements": 5058,
      "personal": 5059,
      "dinner": 5060,
      "gleam": 5061,
      "rushing": 5062,
      "invented": 5063,
      "insisted": 5064,
      "organization": 5065,
      "bewildered": 5066,
      "mechanical": 5067,
      "mechanically": 5068,
      "celestial": 5069,
      "astonishment": 5070,
      "permitted": 5071,
      "shouted": 5072,
      "major": 5073,
      "estimation": 5074,
      "descend": 5075,
      "ignorant": 5076,
      "inhabited_": 5077,
      "intellectual": 5078,
      "pursued": 5079,
      "resembling": 5080,
      "grimly": 5081,
      "tranquillitatis_": 5082,
      "picture": 5083,
      "pictures": 5084,
      "waste": 5085,
      "yielded": 5086,
      "yielding": 5087,
      "inferior": 5088,
      "eruptions": 5089,
      "suspended": 5090,
      "abundant": 5091,
      "potash": 5092,
      "admiration": 5093,
      "asteroids": 5094,
      "branch": 5095,
      "ruptured": 5096,
      "fingers": 5097,
      "pouillet": 5098,
      "route": 5099,
      "walks": 5100,
      "involving": 5101,
      "secure": 5102,
      "rotation": 5103,
      "identical": 5104,
      "decision": 5105,
      "prominence": 5106,
      "letters": 5107,
      "university": 5108,
      "principally": 5109,
      "resemble": 5110,
      "philosophers": 5111,
      "_nil_": 5112,
      "amental": 5113,
      "barely": 5114,
      "history": 5115,
      "molten": 5116,
      "library": 5117,
      "delicious": 5118,
      "confounded": 5119,
      "venient": 5120,
      "compensation": 5121,
      "newspaper": 5122,
      "flourishing": 5123,
      "ecstasy": 5124,
      "nineteenth": 5125,
      "participated": 5126,
      "grooves": 5127,
      "_not_": 5128,
      "_barbicanites_": 5129,
      "front": 5130,
      "fundamental": 5131,
      "junction": 5132,
      "wrapped": 5133,
      "style": 5134,
      "whistling": 5135,
      "modified": 5136,
      "weird": 5137,
      "website": 5138,
      "memory": 5139,
      "demoniacal": 5140,
      "promised": 5141,
      "faithful": 5142,
      "feasibility": 5143,
      "spillikins": 5144,
      "performan": 5145,
      "accurate": 5146,
      "agony": 5147,
      "brisk": 5148,
      "struggling": 5149,
      "guesses": 5150,
      "riccioli": 5151,
      "awakened": 5152,
      "telegram": 5153,
      "gorgeous": 5154,
      "treasure": 5155,
      "fragments": 5156,
      "analogous": 5157,
      "_could_": 5158,
      "_unity_": 5159,
      "_clavius_": 5160,
      "coffin": 5161,
      "drowned": 5162,
      "epoch": 5163,
      "fanciful": 5164,
      "hullabalo": 5165,
      "multi": 5166,
      "martyr": 5167,
      "pipes": 5168,
      "ruler": 5169,
      "tube": 5170,
      "tropical": 5171,
      "inmates": 5172,
      "incomprehensible": 5173,
      "assuming": 5174,
      "november": 5175,
      "irrepressible": 5176,
      "proximity": 5177,
      "confirmed": 5178,
      "greeted": 5179,
      "comprised": 5180,
      "frigoris_": 5181,
      "elphinstone": 5182,
      "hullabaloo": 5183,
      "1c": 5184,
      "113": 5185,
      "29": 5186,
      "212": 5187,
      "240": 5188,
      "2400": 5189,
      "33": 5190,
      "38": 5191,
      "360": 5192,
      "42": 5193,
      "45": 5194,
      "4000": 5195,
      "450": 5196,
      "56": 5197,
      "5000": 5198,
      "_t": 5199,
      "_er": 5200,
      "_had": 5201,
      "_ne": 5202,
      "_qu": 5203,
      "_were": 5204,
      "_ma": 5205,
      "_her": 5206,
      "_mar": 5207,
      "_should": 5208,
      "_did": 5209,
      "_down": 5210,
      "_py": 5211,
      "_rill": 5212,
      "_jupit": 5213,
      "_saturn": 5214,
      "_eccentric": 5215,
      "_herald_": 5216,
      "_plat": 5217,
      "_uran": 5218,
      "_perige": 5219,
      "_life_": 5220,
      "_archimed": 5221,
      "ame": 5222,
      "aust": 5223,
      "ahalf": 5224,
      "ava": 5225,
      "aqued": 5226,
      "bb": 5227,
      "bi": 5228,
      "bas": 5229,
      "bent": 5230,
      "bli": 5231,
      "bab": 5232,
      "bag": 5233,
      "blun": 5234,
      "bber": 5235,
      "bling": 5236,
      "broad": 5237,
      "cile": 5238,
      "cass": 5239,
      "cles": 5240,
      "cility": 5241,
      "cross": 5242,
      "cinder": 5243,
      "dor": 5244,
      "dus": 5245,
      "dur": 5246,
      "date": 5247,
      "dull": 5248,
      "dash": 5249,
      "dict": 5250,
      "drank": 5251,
      "eh": 5252,
      "ement": 5253,
      "eman": 5254,
      "elast": 5255,
      "echo": 5256,
      "email": 5257,
      "fy": 5258,
      "fly": 5259,
      "flun": 5260,
      "fring": 5261,
      "ggs": 5262,
      "gging": 5263,
      "ghast": 5264,
      "gusted": 5265,
      "hil": 5266,
      "hide": 5267,
      "iver": 5268,
      "ially": 5269,
      "ia_": 5270,
      "igrade": 5271,
      "je": 5272,
      "jard": 5273,
      "jag": 5274,
      "jok": 5275,
      "knot": 5276,
      "kne": 5277,
      "kers": 5278,
      "lur": 5279,
      "lone": 5280,
      "lass": 5281,
      "lord": 5282,
      "lishing": 5283,
      "mas": 5284,
      "mes": 5285,
      "mcon": 5286,
      "mil": 5287,
      "mise": 5288,
      "mabil": 5289,
      "nu": 5290,
      "ny": 5291,
      "nap": 5292,
      "nected": 5293,
      "ncy": 5294,
      "ost": 5295,
      "obe": 5296,
      "pm": 5297,
      "ps": 5298,
      "pse": 5299,
      "pra": 5300,
      "pall": 5301,
      "pup": 5302,
      "pig": 5303,
      "pier": 5304,
      "pushed": 5305,
      "rat": 5306,
      "rus": 5307,
      "rum": 5308,
      "ride": 5309,
      "rors": 5310,
      "rue": 5311,
      "son": 5312,
      "sle": 5313,
      "scri": 5314,
      "snic": 5315,
      "sses": 5316,
      "scur": 5317,
      "sangu": 5318,
      "saint": 5319,
      "swore": 5320,
      "t_": 5321,
      "tit": 5322,
      "tant": 5323,
      "tree": 5324,
      "tresses": 5325,
      "upro": 5326,
      "uvi": 5327,
      "vic": 5328,
      "vad": 5329,
      "vill": 5330,
      "vil": 5331,
      "vable": 5332,
      "vag": 5333,
      "vance": 5334,
      "vine": 5335,
      "vices": 5336,
      "viction": 5337,
      "wy": 5338,
      "wat": 5339,
      "wing": 5340,
      "wis": 5341,
      "wine": 5342,
      "wave": 5343,
      "wager": 5344,
      "yon": 5345,
      "yer": 5346,
      "yen": 5347,
      "zac": 5348,
      "theat": 5349,
      "theories": 5350,
      "insp": 5351,
      "inity": 5352,
      "insur": 5353,
      "inations": 5354,
      "infl": 5355,
      "incid": 5356,
      "incalcul": 5357,
      "infin": 5358,
      "inju": 5359,
      "inexpress": 5360,
      "invaluable": 5361,
      "rer": 5362,
      "reis": 5363,
      "rely": 5364,
      "remo": 5365,
      "retain": 5366,
      "remed": 5367,
      "revis": 5368,
      "rejo": 5369,
      "reliable": 5370,
      "rebuff": 5371,
      "recollect": 5372,
      "aning": 5373,
      "anes": 5374,
      "ante": 5375,
      "anite": 5376,
      "angled": 5377,
      "ona": 5378,
      "onic": 5379,
      "erated": 5380,
      "atic": 5381,
      "attain": 5382,
      "atos": 5383,
      "encounter": 5384,
      "enchant": 5385,
      "arid": 5386,
      "aries": 5387,
      "arago": 5388,
      "arrested": 5389,
      "edu": 5390,
      "sted": 5391,
      "stay": 5392,
      "staff": 5393,
      "stump": 5394,
      "ital": 5395,
      "itate": 5396,
      "itated": 5397,
      "orange": 5398,
      "tole": 5399,
      "topo": 5400,
      "toast": 5401,
      "tomor": 5402,
      "lease": 5403,
      "legal": 5404,
      "isher": 5405,
      "asper": 5406,
      "ascent": 5407,
      "aside": 5408,
      "assure": 5409,
      "assail": 5410,
      "assemb": 5411,
      "icked": 5412,
      "ications": 5413,
      "icism": 5414,
      "seated": 5415,
      "sealed": 5416,
      "befall": 5417,
      "escence": 5418,
      "roof": 5419,
      "rome": 5420,
      "rodu": 5421,
      "roaring": 5422,
      "roeter": 5423,
      "hair": 5424,
      "havent": 5425,
      "habits": 5426,
      "hazy": 5427,
      "hairs": 5428,
      "hammer": 5429,
      "ionate": 5430,
      "al_": 5431,
      "alas": 5432,
      "alumin": 5433,
      "alkal": 5434,
      "moist": 5435,
      "movable": 5436,
      "hearers": 5437,
      "entr": 5438,
      "entity": 5439,
      "entire": 5440,
      "metr": 5441,
      "metal": 5442,
      "idle": 5443,
      "idium_": 5444,
      "cease": 5445,
      "versa_": 5446,
      "suit": 5447,
      "suitable": 5448,
      "rily": 5449,
      "rius": 5450,
      "riously": 5451,
      "rigor": 5452,
      "rivance": 5453,
      "utonic": 5454,
      "ram": 5455,
      "ramid": 5456,
      "ravin": 5457,
      "raising": 5458,
      "chi": 5459,
      "cher": 5460,
      "chick": 5461,
      "chimed": 5462,
      "charts": 5463,
      "chasm": 5464,
      "christ": 5465,
      "lived": 5466,
      "lives": 5467,
      "limin": 5468,
      "lihood": 5469,
      "limits": 5470,
      "coated": 5471,
      "cosm": 5472,
      "allation": 5473,
      "irt": 5474,
      "irresist": 5475,
      "irrit": 5476,
      "iridium_": 5477,
      "wire": 5478,
      "wires": 5479,
      "wiping": 5480,
      "ainted": 5481,
      "unequ": 5482,
      "unru": 5483,
      "uneasy": 5484,
      "unsatisfactory": 5485,
      "unroll": 5486,
      "unearthly": 5487,
      "unassail": 5488,
      "forced": 5489,
      "soil": 5490,
      "soever": 5491,
      "decl": 5492,
      "decom": 5493,
      "decor": 5494,
      "dewy": 5495,
      "prolong": 5496,
      "proposition": 5497,
      "prodig": 5498,
      "improved": 5499,
      "imprison": 5500,
      "aband": 5501,
      "absent": 5502,
      "abys": 5503,
      "abrupt": 5504,
      "washed": 5505,
      "load": 5506,
      "local": 5507,
      "loom": 5508,
      "lovely": 5509,
      "contain": 5510,
      "conscience": 5511,
      "confirm": 5512,
      "convenient": 5513,
      "connected": 5514,
      "conviction": 5515,
      "termin": 5516,
      "apolis": 5517,
      "poet": 5518,
      "noted": 5519,
      "hove": 5520,
      "hote": 5521,
      "hosp": 5522,
      "homer": 5523,
      "exten": 5524,
      "exclu": 5525,
      "bye": 5526,
      "ladies": 5527,
      "diam": 5528,
      "divers": 5529,
      "nebul": 5530,
      "arency": 5531,
      "aye": 5532,
      "hissing": 5533,
      "user": 5534,
      "barren": 5535,
      "barking": 5536,
      "barometer": 5537,
      "quity": 5538,
      "quently": 5539,
      "key": 5540,
      "kest": 5541,
      "fathoms": 5542,
      "facility": 5543,
      "ulating": 5544,
      "ado": 5545,
      "advent": 5546,
      "addre": 5547,
      "adversary": 5548,
      "barbican_": 5549,
      "feast": 5550,
      "feather": 5551,
      "tear": 5552,
      "team": 5553,
      "outlined": 5554,
      "moonlight": 5555,
      "preced": 5556,
      "preserved": 5557,
      "prelimin": 5558,
      "frozen": 5559,
      "earlier": 5560,
      "redhot": 5561,
      "food": 5562,
      "save": 5563,
      "owed": 5564,
      "illa": 5565,
      "illusion": 5566,
      "astrop": 5567,
      "couldnt": 5568,
      "whatsoever": 5569,
      "boss": 5570,
      "caphand": 5571,
      "capric": 5572,
      "etu": 5573,
      "etenths": 5574,
      "menting": 5575,
      "shru": 5576,
      "shrink": 5577,
      "shiver": 5578,
      "trap": 5579,
      "tray": 5580,
      "articul": 5581,
      "upright": 5582,
      "veness": 5583,
      "mahome": 5584,
      "thereby": 5585,
      "bleeding": 5586,
      "obtaining": 5587,
      "obscur": 5588,
      "deriv": 5589,
      "mann": 5590,
      "forecastle": 5591,
      "pel": 5592,
      "pest": 5593,
      "peering": 5594,
      "acious": 5595,
      "accli": 5596,
      "accum": 5597,
      "compass": 5598,
      "complying": 5599,
      "compasses": 5600,
      "compell": 5601,
      "compels": 5602,
      "canine": 5603,
      "door": 5604,
      "dome": 5605,
      "dish": 5606,
      "discer": 5607,
      "disappearance": 5608,
      "disagreeable": 5609,
      "disgusted": 5610,
      "tiest": 5611,
      "series": 5612,
      "service": 5613,
      "services": 5614,
      "umns": 5615,
      "akes": 5616,
      "cries": 5617,
      "surpassed": 5618,
      "intill": 5619,
      "introdu": 5620,
      "agn": 5621,
      "aging": 5622,
      "agency": 5623,
      "agara": 5624,
      "likelihood": 5625,
      "lighting": 5626,
      "plu": 5627,
      "pled": 5628,
      "plutonic": 5629,
      "anybody": 5630,
      "whom": 5631,
      "amuse": 5632,
      "god": 5633,
      "goose": 5634,
      "acted": 5635,
      "troubled": 5636,
      "howl": 5637,
      "hows": 5638,
      "howling": 5639,
      "phur": 5640,
      "phleg": 5641,
      "selfish": 5642,
      "caut": 5643,
      "cavity": 5644,
      "marvell": 5645,
      "strat": 5646,
      "sigh": 5647,
      "sized": 5648,
      "sierr": 5649,
      "sirius": 5650,
      "vesuvi": 5651,
      "olite": 5652,
      "oppon": 5653,
      "tynd": 5654,
      "theses": 5655,
      "ffled": 5656,
      "partly": 5657,
      "parties": 5658,
      "partially": 5659,
      "mountable": 5660,
      "print": 5661,
      "sunken": 5662,
      "shouldnt": 5663,
      "clapping": 5664,
      "thenes_": 5665,
      "grap": 5666,
      "gravit": 5667,
      "shaken": 5668,
      "shaky": 5669,
      "resting": 5670,
      "restra": 5671,
      "mination": 5672,
      "sentence": 5673,
      "intersection": 5674,
      "intervals": 5675,
      "ister": 5676,
      "istarch": 5677,
      "istered": 5678,
      "istoric": 5679,
      "desires": 5680,
      "desperate": 5681,
      "beforehand": 5682,
      "offer": 5683,
      "contrivance": 5684,
      "centenn": 5685,
      "centigrade": 5686,
      "correspon": 5687,
      "norway": 5688,
      "useful": 5689,
      "crit": 5690,
      "grin": 5691,
      "grate": 5692,
      "grass": 5693,
      "granite": 5694,
      "roughly": 5695,
      "tenth": 5696,
      "regna": 5697,
      "newly": 5698,
      "eping": 5699,
      "apply": 5700,
      "appalling": 5701,
      "countless": 5702,
      "tamp": 5703,
      "fewer": 5704,
      "airs": 5705,
      "presents": 5706,
      "isel": 5707,
      "rows": 5708,
      "sheets": 5709,
      "donate": 5710,
      "brings": 5711,
      "steer": 5712,
      "stered": 5713,
      "angent": 5714,
      "angles": 5715,
      "denied": 5716,
      "ronizing": 5717,
      "impul": 5718,
      "impetu": 5719,
      "justice": 5720,
      "extends": 5721,
      "tempers": 5722,
      "tempered": 5723,
      "temporary": 5724,
      "gency": 5725,
      "darkest": 5726,
      "navy": 5727,
      "mative": 5728,
      "matically": 5729,
      "bition": 5730,
      "highlow": 5731,
      "kingdom": 5732,
      "faster": 5733,
      "fasten": 5734,
      "halt": 5735,
      "fiery": 5736,
      "fixed": 5737,
      "miss": 5738,
      "souls": 5739,
      "ification": 5740,
      "blaze": 5741,
      "subsidence": 5742,
      "subscri": 5743,
      "clea": 5744,
      "gian": 5745,
      "gibber": 5746,
      "speck": 5747,
      "_mille": 5748,
      "expand": 5749,
      "expedition": 5750,
      "carri": 5751,
      "join": 5752,
      "joke": 5753,
      "joined": 5754,
      "joining": 5755,
      "ieth": 5756,
      "watery": 5757,
      "downwards": 5758,
      "volumes": 5759,
      "copper": 5760,
      "darker": 5761,
      "columns": 5762,
      "streak": 5763,
      "streaked": 5764,
      "fury": 5765,
      "bravely": 5766,
      "cules": 5767,
      "tribut": 5768,
      "windlass": 5769,
      "finish": 5770,
      "mony": 5771,
      "monster": 5772,
      "gue": 5773,
      "guests": 5774,
      "passions": 5775,
      "worlds": 5776,
      "resound": 5777,
      "greece": 5778,
      "cheyen": 5779,
      "simpleton": 5780,
      "valve": 5781,
      "value": 5782,
      "ibnit": 5783,
      "attitudes": 5784,
      "depends": 5785,
      "mbert_": 5786,
      "engrossed": 5787,
      "instants": 5788,
      "mercury": 5789,
      "spectacles": 5790,
      "spectators": 5791,
      "interrupt": 5792,
      "wondering": 5793,
      "closer": 5794,
      "subjects": 5795,
      "powerless": 5796,
      "blu": 5797,
      "nals": 5798,
      "resuming": 5799,
      "exists": 5800,
      "generated": 5801,
      "gunpowder": 5802,
      "stored": 5803,
      "stomach": 5804,
      "stoicism": 5805,
      "furthermore": 5806,
      "voring": 5807,
      "champ": 5808,
      "chambers": 5809,
      "hel_": 5810,
      "soundless": 5811,
      "expressly": 5812,
      "expressions": 5813,
      "journeys": 5814,
      "graphical": 5815,
      "pleases": 5816,
      "walled": 5817,
      "choose": 5818,
      "arches": 5819,
      "heaving": 5820,
      "pretending": 5821,
      "signalling": 5822,
      "viewing": 5823,
      "crazy": 5824,
      "efful": 5825,
      "icians": 5826,
      "listens": 5827,
      "listened": 5828,
      "terribly": 5829,
      "animation": 5830,
      "movements": 5831,
      "colds": 5832,
      "production": 5833,
      "shortly": 5834,
      "glassy": 5835,
      "hearing": 5836,
      "hearty": 5837,
      "bottomless": 5838,
      "realize": 5839,
      "necessity": 5840,
      "necessarily": 5841,
      "grandly": 5842,
      "dreary": 5843,
      "warning": 5844,
      "warmest": 5845,
      "recovery": 5846,
      "recoil": 5847,
      "ushing": 5848,
      "books": 5849,
      "circuses": 5850,
      "ballast": 5851,
      "neutralize": 5852,
      "anticip": 5853,
      "glaci": 5854,
      "pening": 5855,
      "annapolis": 5856,
      "allowing": 5857,
      "fortune": 5858,
      "pathless": 5859,
      "scintill": 5860,
      "sorbon": 5861,
      "coolness": 5862,
      "hopeful": 5863,
      "dispense": 5864,
      "18000": 5865,
      "glimmer": 5866,
      "mainly": 5867,
      "strikes": 5868,
      "answering": 5869,
      "science_": 5870,
      "reflector": 5871,
      "attracted": 5872,
      "distinguisha": 5873,
      "nervous": 5874,
      "purity": 5875,
      "senseless": 5876,
      "wake": 5877,
      "waiting": 5878,
      "watched": 5879,
      "arguing": 5880,
      "escaping": 5881,
      "gentlemans": 5882,
      "purif": 5883,
      "sank": 5884,
      "varied": 5885,
      "helpless": 5886,
      "born": 5887,
      "instructive": 5888,
      "respectfully": 5889,
      "testably": 5890,
      "equality": 5891,
      "brilliancy": 5892,
      "15000": 5893,
      "influenced": 5894,
      "detach": 5895,
      "imagined": 5896,
      "gradual": 5897,
      "listeners": 5898,
      "drif": 5899,
      "dried": 5900,
      "driven": 5901,
      "france": 5902,
      "universe": 5903,
      "reminding": 5904,
      "sharply": 5905,
      "peculiarities": 5906,
      "wardly": 5907,
      "attempted": 5908,
      "attempting": 5909,
      "destined": 5910,
      "examining": 5911,
      "1e7": 5912,
      "1e9": 5913,
      "20th": 5914,
      "opera": 5915,
      "operating": 5916,
      "professors": 5917,
      "sensibly": 5918,
      "16000": 5919,
      "_vice": 5920,
      "bounded": 5921,
      "increase": 5922,
      "rails": 5923,
      "accomplish": 5924,
      "transmit": 5925,
      "transition": 5926,
      "bursting": 5927,
      "pulled": 5928,
      "treat": 5929,
      "treated": 5930,
      "combination": 5931,
      "flattened": 5932,
      "employing": 5933,
      "principal": 5934,
      "parallelism": 5935,
      "30th": 5936,
      "flakes": 5937,
      "german": 5938,
      "ography": 5939,
      "pyramid": 5940,
      "tablets": 5941,
      "enjoying": 5942,
      "deathlike": 5943,
      "powers": 5944,
      "drops": 5945,
      "freer": 5946,
      "frequently": 5947,
      "record": 5948,
      "admitted": 5949,
      "reported": 5950,
      "particles": 5951,
      "profoundly": 5952,
      "discovering": 5953,
      "diminishing": 5954,
      "petit": 5955,
      "petal": 5956,
      "purest": 5957,
      "purely": 5958,
      "coasts": 5959,
      "property": 5960,
      "concerning": 5961,
      "accessible": 5962,
      "calmly": 5963,
      "calmness": 5964,
      "steeped": 5965,
      "valleys": 5966,
      "inhabitable_": 5967,
      "comparative": 5968,
      "communicate": 5969,
      "growing": 5970,
      "mistak": 5971,
      "palace": 5972,
      "payments": 5973,
      "slang": 5974,
      "included": 5975,
      "fortytwo": 5976,
      "diego": 5977,
      "comfortably": 5978,
      "triumphal": 5979,
      "fleck": 5980,
      "fleet": 5981,
      "flesh": 5982,
      "futile": 5983,
      "function": 5984,
      "furnish": 5985,
      "phosp": 5986,
      "whirling": 5987,
      "whirled": 5988,
      "constantly": 5989,
      "spiring": 5990,
      "sailors": 5991,
      "obliged": 5992,
      "obliquity": 5993,
      "jumped": 5994,
      "variations": 5995,
      "arrangements": 5996,
      "contemplation": 5997,
      "paragraphs": 5998,
      "eleven": 5999,
      "elements": 6000,
      "sensation": 6001,
      "thouse": 6002,
      "enveloped": 6003,
      "separate": 6004,
      "separated": 6005,
      "noonday": 6006,
      "depressions": 6007,
      "diverging": 6008,
      "teeth": 6009,
      "savants": 6010,
      "cheerfully": 6011,
      "judging": 6012,
      "determination": 6013,
      "retarded": 6014,
      "mirror": 6015,
      "panes": 6016,
      "sandy": 6017,
      "stud": 6018,
      "melted": 6019,
      "limitation": 6020,
      "impressed": 6021,
      "impressions": 6022,
      "prisoners": 6023,
      "deserved": 6024,
      "gratify": 6025,
      "steamboat": 6026,
      "speculative": 6027,
      "cracked": 6028,
      "reliefs": 6029,
      "birth": 6030,
      "blown": 6031,
      "furious": 6032,
      "fugal": 6033,
      "snowy": 6034,
      "throat": 6035,
      "relation": 6036,
      "leading": 6037,
      "alarming": 6038,
      "vividly": 6039,
      "authority": 6040,
      "hypotheses": 6041,
      "sparkled": 6042,
      "_ptole": 6043,
      "credit": 6044,
      "painted": 6045,
      "schroeter": 6046,
      "tints": 6047,
      "alternative": 6048,
      "modification": 6049,
      "weighs": 6050,
      "defective": 6051,
      "devote": 6052,
      "prehistoric": 6053,
      "earnestly": 6054,
      "receives": 6055,
      "_arzac": 6056,
      "_aristarch": 6057,
      "eminent": 6058,
      "muttering": 6059,
      "music": 6060,
      "muscular": 6061,
      "yellow": 6062,
      "inexplicable": 6063,
      "organized": 6064,
      "ascertained": 6065,
      "bewildering": 6066,
      "sulphur": 6067,
      "superfic": 6068,
      "unanimous": 6069,
      "advised": 6070,
      "advisable": 6071,
      "previously": 6072,
      "preparing": 6073,
      "preparations": 6074,
      "astonished": 6075,
      "shouting": 6076,
      "estimated": 6077,
      "granted": 6078,
      "ignorance": 6079,
      "wondrous": 6080,
      "furrowed": 6081,
      "pursue": 6082,
      "contradic": 6083,
      "channels": 6084,
      "blasting": 6085,
      "eaten": 6086,
      "national": 6087,
      "swung": 6088,
      "sitting": 6089,
      "infernal": 6090,
      "eruption": 6091,
      "energy": 6092,
      "beholding": 6093,
      "molecules": 6094,
      "sustained": 6095,
      "sustaining": 6096,
      "abundance": 6097,
      "netic": 6098,
      "network": 6099,
      "fahr": 6100,
      "admiringly": 6101,
      "prevailed": 6102,
      "greedily": 6103,
      "astounded": 6104,
      "magnetic": 6105,
      "happiness": 6106,
      "stretched": 6107,
      "stretching": 6108,
      "saturns": 6109,
      "affirmative": 6110,
      "similarly": 6111,
      "10000": 6112,
      "catastrop": 6113,
      "girls": 6114,
      "ninetenths": 6115,
      "nitrogen": 6116,
      "nasmyth": 6117,
      "vicepresident": 6118,
      "yelled": 6119,
      "thrilled": 6120,
      "thrilling": 6121,
      "modern": 6122,
      "moderate": 6123,
      "folding": 6124,
      "perplexity": 6125,
      "designate": 6126,
      "corners": 6127,
      "refracted": 6128,
      "exceptional": 6129,
      "buffers": 6130,
      "heaviest": 6131,
      "warranties": 6132,
      "principles": 6133,
      "resemblance": 6134,
      "obliquely": 6135,
      "knocked": 6136,
      "endeavored": 6137,
      "endeavoring": 6138,
      "_leibnit": 6139,
      "aeron": 6140,
      "aerolite": 6141,
      "cabin": 6142,
      "daily": 6143,
      "equipment": 6144,
      "equivalent": 6145,
      "glowing": 6146,
      "patronizing": 6147,
      "thomson": 6148,
      "assistance": 6149,
      "betraying": 6150,
      "hauling": 6151,
      "improvement": 6152,
      "execution": 6153,
      "survey": 6154,
      "amidst": 6155,
      "vigorously": 6156,
      "centripetal": 6157,
      "centrifugal": 6158,
      "crisium_": 6159,
      "impatient": 6160,
      "substance": 6161,
      "substances": 6162,
      "monotony": 6163,
      "gesticulating": 6164,
      "transport": 6165,
      "transparency": 6166,
      "royalty": 6167,
      "royalties": 6168,
      "_lambert_": 6169,
      "average": 6170,
      "economy": 6171,
      "elliptical": 6172,
      "fissures": 6173,
      "reference": 6174,
      "nodding": 6175,
      "roasting": 6176,
      "congratulate": 6177,
      "consulted": 6178,
      "appreciable": 6179,
      "exterior": 6180,
      "negative": 6181,
      "articles": 6182,
      "acquainted": 6183,
      "academy": 6184,
      "planted": 6185,
      "cavernous": 6186,
      "afraid": 6187,
      "afford": 6188,
      "excessive": 6189,
      "density": 6190,
      "refreshment": 6191,
      "fiercely": 6192,
      "struggle": 6193,
      "exclaiming": 6194,
      "building": 6195,
      "draughts": 6196,
      "sympathy": 6197,
      "scenes": 6198,
      "mixture": 6199,
      "persisted": 6200,
      "accepted": 6201,
      "celebrated": 6202,
      "majestic": 6203,
      "disclaimer": 6204,
      "herschel": 6205,
      "inconceivable": 6206,
      "_g_": 6207,
      "_was_": 6208,
      "drunk": 6209,
      "everest": 6210,
      "events": 6211,
      "fourier": 6212,
      "frisby": 6213,
      "fancies": 6214,
      "gallant": 6215,
      "hibition": 6216,
      "honest": 6217,
      "links": 6218,
      "niagara": 6219,
      "pardon": 6220,
      "prayer": 6221,
      "rattling": 6222,
      "slopes": 6223,
      "sket": 6224,
      "slipped": 6225,
      "tender": 6226,
      "taste": 6227,
      "varying": 6228,
      "throng": 6229,
      "inert": 6230,
      "isolated": 6231,
      "selected": 6232,
      "healthy": 6233,
      "chlorate": 6234,
      "imparted": 6235,
      "connection": 6236,
      "exclus": 6237,
      "launch": 6238,
      "quiring": 6239,
      "shroud": 6240,
      "shrieked": 6241,
      "derrick": 6242,
      "cultivated": 6243,
      "crashing": 6244,
      "extremity": 6245,
      "navigation": 6246,
      "speech": 6247,
      "instantaneous": 6248,
      "integral": 6249,
      "indefinitely": 6250,
      "annihil": 6251,
      "perceptible": 6252,
      "_aposelen": 6253,
      "threatening": 6254,
      "picturesque": 6255,
      "performance": 6256,
      "_eratos": 6257,
      "_had_": 6258,
      "_were_": 6259,
      "_should_": 6260,
      "_did_": 6261,
      "_down_": 6262,
      "_eccentricity_": 6263,
      "_plato_": 6264,
      "_uranus_": 6265,
      "_perigee_": 6266,
      "_archimedes_": 6267,
      "avail": 6268,
      "aqueduct": 6269,
      "blistered": 6270,
      "cassin": 6271,
      "elastic": 6272,
      "flung": 6273,
      "ghastly": 6274,
      "jardin": 6275,
      "jagged": 6276,
      "mconnell": 6277,
      "mabille_": 6278,
      "sanguine": 6279,
      "uproar": 6280,
      "watkins": 6281,
      "inflated": 6282,
      "incidents": 6283,
      "incalculable": 6284,
      "injured": 6285,
      "inexpressibly": 6286,
      "reiset": 6287,
      "recollections": 6288,
      "topographical": 6289,
      "tomorrow": 6290,
      "asperity": 6291,
      "aluminium": 6292,
      "alkali": 6293,
      "moisture": 6294,
      "ravines": 6295,
      "chickens": 6296,
      "unequalled": 6297,
      "unruffled": 6298,
      "unassailable": 6299,
      "abysses": 6300,
      "looming": 6301,
      "extensive": 6302,
      "preliminary": 6303,
      "shrugging": 6304,
      "shrinkage": 6305,
      "mahomets": 6306,
      "obscurity": 6307,
      "derivative": 6308,
      "acclimat": 6309,
      "accumulated": 6310,
      "compelled": 6311,
      "marvellous": 6312,
      "sierras": 6313,
      "vesuvius": 6314,
      "tyndall": 6315,
      "centennial": 6316,
      "corresponding": 6317,
      "regnault": 6318,
      "cheyenne": 6319,
      "sorbonne": 6320,
      "_arzachel_": 6321,
      "_aristarchus_": 6322,
      "catastrophe": 6323,
      "_leibnitz_": 6324,
      "annihilated": 6325,
      "_eratosthenes_": 6326,
      "21": 6327,
      "2nd": 6328,
      "37": 6329,
      "44": 6330,
      "47": 6331,
      "48000": 6332,
      "54": 6333,
      "55": 6334,
      "57": 6335,
      "59": 6336,
      "62": 6337,
      "66": 6338,
      "750": 6339,
      "81": 6340,
      "875": 6341,
      "900": 6342,
      "9000": 6343,
      "_b": 6344,
      "_in": 6345,
      "_or": 6346,
      "_he": 6347,
      "_me": 6348,
      "_ce": 6349,
      "_de": 6350,
      "_pro": 6351,
      "_are": 6352,
      "_fe": 6353,
      "_if": 6354,
      "_sa": 6355,
      "_per": 6356,
      "_up": 6357,
      "_ven": 6358,
      "_more": 6359,
      "_man": 6360,
      "_can": 6361,
      "_earth": 6362,
      "_some": 6363,
      "_him": 6364,
      "_less": 6365,
      "_most": 6366,
      "_day": 6367,
      "_night": 6368,
      "_imp": 6369,
      "_cur": 6370,
      "_cant": 6371,
      "_old": 6372,
      "_hu": 6373,
      "_short": 6374,
      "_pretty": 6375,
      "_baltimore": 6376,
      "_pur": 6377,
      "_seas": 6378,
      "_movement": 6379,
      "_pal": 6380,
      "_mount": 6381,
      "_valley": 6382,
      "_fu": 6383,
      "_i_": 6384,
      "_terra": 6385,
      "_kepl": 6386,
      "_opposition": 6387,
      "_grooves": 6388,
      "aim": 6389,
      "aven": 6390,
      "aure": 6391,
      "avi": 6392,
      "avid": 6393,
      "aited": 6394,
      "aval": 6395,
      "ben": 6396,
      "bout": 6397,
      "bers": 6398,
      "bone": 6399,
      "bust": 6400,
      "bite": 6401,
      "bach": 6402,
      "bors": 6403,
      "bbed": 6404,
      "block": 6405,
      "bann": 6406,
      "banged": 6407,
      "borders": 6408,
      "based": 6409,
      "bdign": 6410,
      "cen": 6411,
      "cit": 6412,
      "cro": 6413,
      "card": 6414,
      "cim": 6415,
      "cation": 6416,
      "cout": 6417,
      "cate": 6418,
      "cust": 6419,
      "cca": 6420,
      "cide": 6421,
      "cub": 6422,
      "cund": 6423,
      "cendent": 6424,
      "dun": 6425,
      "dare": 6426,
      "dge": 6427,
      "dant": 6428,
      "dess": 6429,
      "dum": 6430,
      "dwell": 6431,
      "ddy": 6432,
      "daw": 6433,
      "dmans": 6434,
      "diction": 6435,
      "drogen": 6436,
      "ere": 6437,
      "ean": 6438,
      "ese": 6439,
      "elong": 6440,
      "eled": 6441,
      "eating": 6442,
      "emit": 6443,
      "etest": 6444,
      "egy": 6445,
      "ebull": 6446,
      "emotions": 6447,
      "fs": 6448,
      "fon": 6449,
      "fed": 6450,
      "foun": 6451,
      "fits": 6452,
      "fil": 6453,
      "fled": 6454,
      "fts": 6455,
      "fash": 6456,
      "flights": 6457,
      "ffered": 6458,
      "gly": 6459,
      "gard": 6460,
      "gim": 6461,
      "gant": 6462,
      "gil": 6463,
      "gans": 6464,
      "gna": 6465,
      "gics": 6466,
      "hr": 6467,
      "hus": 6468,
      "hue": 6469,
      "hush": 6470,
      "hire": 6471,
      "hanged": 6472,
      "honey": 6473,
      "io": 6474,
      "ike": 6475,
      "ipe": 6476,
      "iths": 6477,
      "ivity": 6478,
      "igled": 6479,
      "iveness": 6480,
      "jp": 6481,
      "jan": 6482,
      "jap": 6483,
      "jet": 6484,
      "job": 6485,
      "jac": 6486,
      "jose": 6487,
      "k_": 6488,
      "kent": 6489,
      "kay": 6490,
      "kanes": 6491,
      "las": 6492,
      "lins": 6493,
      "mmo": 6494,
      "mant": 6495,
      "mations": 6496,
      "mpos": 6497,
      "mbre": 6498,
      "mming": 6499,
      "mutter": 6500,
      "mwood": 6501,
      "mbered": 6502,
      "nut": 6503,
      "nian": 6504,
      "oy": 6505,
      "ola": 6506,
      "ote": 6507,
      "oven": 6508,
      "oph": 6509,
      "omed": 6510,
      "olog": 6511,
      "pg": 6512,
      "pin": 6513,
      "phe": 6514,
      "pant": 6515,
      "pill": 6516,
      "pine": 6517,
      "plied": 6518,
      "pang": 6519,
      "patch": 6520,
      "pins": 6521,
      "pments": 6522,
      "pave": 6523,
      "pian": 6524,
      "padded": 6525,
      "ps_": 6526,
      "picking": 6527,
      "rican": 6528,
      "rass": 6529,
      "rating": 6530,
      "range": 6531,
      "rates": 6532,
      "rhy": 6533,
      "rushed": 6534,
      "swi": 6535,
      "sby": 6536,
      "sation": 6537,
      "sad": 6538,
      "scan": 6539,
      "song": 6540,
      "sway": 6541,
      "swell": 6542,
      "smiles": 6543,
      "scr": 6544,
      "scu": 6545,
      "swar": 6546,
      "swa": 6547,
      "scot": 6548,
      "sons": 6549,
      "source": 6550,
      "slaught": 6551,
      "scaphand": 6552,
      "tin": 6553,
      "tar": 6554,
      "tic": 6555,
      "tro": 6556,
      "tall": 6557,
      "tex": 6558,
      "tur": 6559,
      "til": 6560,
      "tive": 6561,
      "tum": 6562,
      "ttle": 6563,
      "tting": 6564,
      "text": 6565,
      "tna": 6566,
      "tility": 6567,
      "tus_": 6568,
      "tures": 6569,
      "tides": 6570,
      "tune": 6571,
      "tangent": 6572,
      "uit": 6573,
      "uis": 6574,
      "uity": 6575,
      "uction": 6576,
      "uys": 6577,
      "uith": 6578,
      "urier": 6579,
      "vou": 6580,
      "vas": 6581,
      "vard": 6582,
      "vation": 6583,
      "vive": 6584,
      "vations": 6585,
      "vom": 6586,
      "vict": 6587,
      "wd": 6588,
      "wl": 6589,
      "ws": 6590,
      "wed": 6591,
      "wad": 6592,
      "wich": 6593,
      "wag": 6594,
      "wished": 6595,
      "wins": 6596,
      "wishing": 6597,
      "wadded": 6598,
      "waning": 6599,
      "wicked": 6600,
      "xi": 6601,
      "xv": 6602,
      "xy": 6603,
      "xii": 6604,
      "xiv": 6605,
      "xix": 6606,
      "xiii": 6607,
      "yb": 6608,
      "ygh": 6609,
      "yss": 6610,
      "yak": 6611,
      "ymous": 6612,
      "thom": 6613,
      "thest": 6614,
      "iny": 6615,
      "inve": 6616,
      "inver": 6617,
      "inction": 6618,
      "incor": 6619,
      "inating": 6620,
      "inqui": 6621,
      "indep": 6622,
      "insign": 6623,
      "india": 6624,
      "incorrect": 6625,
      "indirectly": 6626,
      "inability": 6627,
      "inopport": 6628,
      "invari": 6629,
      "inverse": 6630,
      "incand": 6631,
      "inhabits": 6632,
      "inhosp": 6633,
      "inaccessible": 6634,
      "inspiring": 6635,
      "incide": 6636,
      "re_": 6637,
      "rean": 6638,
      "rela": 6639,
      "ress": 6640,
      "reast": 6641,
      "reser": 6642,
      "revell": 6643,
      "recent": 6644,
      "reuse": 6645,
      "recourse": 6646,
      "recalled": 6647,
      "readi": 6648,
      "resign": 6649,
      "remove": 6650,
      "resolute": 6651,
      "reward": 6652,
      "reaction": 6653,
      "restrict": 6654,
      "respir": 6655,
      "reconstruct": 6656,
      "reverse": 6657,
      "redistributing": 6658,
      "redistribution": 6659,
      "recollection": 6660,
      "requisite": 6661,
      "rejected": 6662,
      "retired": 6663,
      "requiring": 6664,
      "rewd": 6665,
      "anic": 6666,
      "anche": 6667,
      "anks": 6668,
      "annals": 6669,
      "oni": 6670,
      "onse": 6671,
      "onte": 6672,
      "ongest": 6673,
      "erra": 6674,
      "erous": 6675,
      "erment": 6676,
      "eries": 6677,
      "erland": 6678,
      "erfur": 6679,
      "erran": 6680,
      "ercury": 6681,
      "ats": 6682,
      "atom": 6683,
      "atus_": 6684,
      "attested": 6685,
      "attribut": 6686,
      "ouvre": 6687,
      "enum": 6688,
      "envi": 6689,
      "engra": 6690,
      "enkind": 6691,
      "enlar": 6692,
      "enforce": 6693,
      "enched": 6694,
      "encou": 6695,
      "enrapt": 6696,
      "arf": 6697,
      "arm": 6698,
      "arct": 6699,
      "arab": 6700,
      "arte": 6701,
      "arist": 6702,
      "edless": 6703,
      "edding": 6704,
      "edged": 6705,
      "edward": 6706,
      "stat": 6707,
      "stic": 6708,
      "stro": 6709,
      "stim": 6710,
      "sters": 6711,
      "stup": 6712,
      "stately": 6713,
      "stamp": 6714,
      "sticks": 6715,
      "stagn": 6716,
      "itic": 6717,
      "itect": 6718,
      "itary": 6719,
      "iterran": 6720,
      "orn": 6721,
      "orth": 6722,
      "ordered": 6723,
      "organs": 6724,
      "tore": 6725,
      "tokay": 6726,
      "lex": 6727,
      "leis": 6728,
      "lever": 6729,
      "lege": 6730,
      "leman": 6731,
      "leag": 6732,
      "levity": 6733,
      "lecout": 6734,
      "isive": 6735,
      "island": 6736,
      "asci": 6737,
      "asped": 6738,
      "asia": 6739,
      "ascribed": 6740,
      "lling": 6741,
      "llation": 6742,
      "llable": 6743,
      "llip": 6744,
      "andum": 6745,
      "icing": 6746,
      "icable": 6747,
      "icating": 6748,
      "icably": 6749,
      "sex": 6750,
      "sees": 6751,
      "sets": 6752,
      "bee": 6753,
      "beast": 6754,
      "beet": 6755,
      "bets": 6756,
      "behalf": 6757,
      "belongs": 6758,
      "beheld": 6759,
      "befallen": 6760,
      "beaming": 6761,
      "esar": 6762,
      "no_": 6763,
      "nois": 6764,
      "nose": 6765,
      "ro_": 6766,
      "roth": 6767,
      "robe": 6768,
      "rosses": 6769,
      "rodmans": 6770,
      "rore_": 6771,
      "hamp": 6772,
      "haust": 6773,
      "cts": 6774,
      "ctant": 6775,
      "ion_": 6776,
      "ionth": 6777,
      "whim": 6778,
      "whither": 6779,
      "whining": 6780,
      "wharf": 6781,
      "ald": 6782,
      "als": 6783,
      "aldi": 6784,
      "alman": 6785,
      "alike": 6786,
      "moting": 6787,
      "veil": 6788,
      "vets": 6789,
      "ghost": 6790,
      "ghthouse": 6791,
      "hest": 6792,
      "heating": 6793,
      "heave": 6794,
      "heeding": 6795,
      "hello": 6796,
      "heedless": 6797,
      "entry": 6798,
      "entiously": 6799,
      "entangled": 6800,
      "me_": 6801,
      "mead": 6802,
      "member": 6803,
      "meggs": 6804,
      "meme_": 6805,
      "id_": 6806,
      "ider": 6807,
      "idable": 6808,
      "ceased": 6809,
      "verne": 6810,
      "verge": 6811,
      "verish": 6812,
      "verify": 6813,
      "veracious": 6814,
      "suffered": 6815,
      "rib": 6816,
      "ril": 6817,
      "riment": 6818,
      "rigged": 6819,
      "rified": 6820,
      "riek": 6821,
      "rimony": 6822,
      "rivets": 6823,
      "utted": 6824,
      "rare": 6825,
      "raise": 6826,
      "raref": 6827,
      "ragi": 6828,
      "rains": 6829,
      "raging": 6830,
      "rably": 6831,
      "chor": 6832,
      "chic": 6833,
      "chart": 6834,
      "chok": 6835,
      "chances": 6836,
      "chilled": 6837,
      "liber": 6838,
      "lize": 6839,
      "lified": 6840,
      "lillip": 6841,
      "lighthouse": 6842,
      "colo": 6843,
      "coeff": 6844,
      "collar": 6845,
      "costs": 6846,
      "coincide": 6847,
      "coleman": 6848,
      "alls": 6849,
      "irradiation": 6850,
      "irregularly": 6851,
      "wiped": 6852,
      "uncon": 6853,
      "unfore": 6854,
      "unted": 6855,
      "uneas": 6856,
      "unmit": 6857,
      "unquestion": 6858,
      "unaccount": 6859,
      "unnecessary": 6860,
      "une_": 6861,
      "undisturbed": 6862,
      "unavoid": 6863,
      "undivided": 6864,
      "unaided": 6865,
      "undefined": 6866,
      "unscrewed": 6867,
      "unpreced": 6868,
      "unselfish": 6869,
      "unbounded": 6870,
      "unmistak": 6871,
      "forwards": 6872,
      "sold": 6873,
      "solit": 6874,
      "socke": 6875,
      "somn": 6876,
      "devis": 6877,
      "decre": 6878,
      "deport": 6879,
      "deton": 6880,
      "defer": 6881,
      "demi": 6882,
      "proprojectile": 6883,
      "proves": 6884,
      "proceed": 6885,
      "propound": 6886,
      "promise": 6887,
      "promoting": 6888,
      "imperfect": 6889,
      "impossib": 6890,
      "imposed": 6891,
      "imming": 6892,
      "implic": 6893,
      "immut": 6894,
      "immers": 6895,
      "imitate": 6896,
      "imperceptible": 6897,
      "abrup": 6898,
      "abused": 6899,
      "abashed": 6900,
      "abyss": 6901,
      "withstand": 6902,
      "withdraw": 6903,
      "loqu": 6904,
      "lobo": 6905,
      "loves": 6906,
      "lohr": 6907,
      "conso": 6908,
      "conting": 6909,
      "conste": 6910,
      "conund": 6911,
      "conscient": 6912,
      "consolid": 6913,
      "console": 6914,
      "ters": 6915,
      "terror": 6916,
      "aph": 6917,
      "april": 6918,
      "pomp": 6919,
      "polit": 6920,
      "poles": 6921,
      "pocke": 6922,
      "pompos": 6923,
      "notion": 6924,
      "hop": 6925,
      "holy": 6926,
      "hook": 6927,
      "hoist": 6928,
      "hores": 6929,
      "hoping": 6930,
      "exemp": 6931,
      "exhilar": 6932,
      "exuber": 6933,
      "exhibition": 6934,
      "lause": 6935,
      "lady": 6936,
      "lakes": 6937,
      "dial": 6938,
      "digest": 6939,
      "division": 6940,
      "dividing": 6941,
      "necks": 6942,
      "negli": 6943,
      "nevad": 6944,
      "area": 6945,
      "butby": 6946,
      "buttre": 6947,
      "iless": 6948,
      "usions": 6949,
      "usible": 6950,
      "barre": 6951,
      "barby": 6952,
      "barrel": 6953,
      "barrass": 6954,
      "quad": 6955,
      "quits": 6956,
      "quack": 6957,
      "icance": 6958,
      "kered": 6959,
      "keener": 6960,
      "fade": 6961,
      "fading": 6962,
      "fami": 6963,
      "failed": 6964,
      "youth": 6965,
      "uler_": 6966,
      "ading": 6967,
      "ades": 6968,
      "adam": 6969,
      "adjour": 6970,
      "urated": 6971,
      "mps": 6972,
      "femin": 6973,
      "fevid": 6974,
      "feared": 6975,
      "fecund": 6976,
      "feverish": 6977,
      "te_": 6978,
      "tea": 6979,
      "tears": 6980,
      "gear": 6981,
      "gets": 6982,
      "ssion": 6983,
      "spare": 6984,
      "spend": 6985,
      "sprink": 6986,
      "spider": 6987,
      "theirs": 6988,
      "moon_": 6989,
      "ant_": 6990,
      "presu": 6991,
      "presto": 6992,
      "ificance": 6993,
      "froid_": 6994,
      "endure": 6995,
      "endura": 6996,
      "reduction": 6997,
      "fog": 6998,
      "fool": 6999,
      "fogs": 7000,
      "fools": 7001,
      "ate_": 7002,
      "saving": 7003,
      "sacra": 7004,
      "sages": 7005,
      "ills": 7006,
      "illery": 7007,
      "ilate": 7008,
      "ilus_": 7009,
      "ilities": 7010,
      "ustic": 7011,
      "astrous": 7012,
      "boston": 7013,
      "boiling": 7014,
      "bobbing": 7015,
      "bosom": 7016,
      "cape": 7017,
      "capped": 7018,
      "capital": 7019,
      "etary": 7020,
      "etna": 7021,
      "perform": 7022,
      "shone": 7023,
      "shutter": 7024,
      "shining": 7025,
      "shrewd": 7026,
      "shedding": 7027,
      "shriek": 7028,
      "selfevid": 7029,
      "trail": 7030,
      "traced": 7031,
      "trains": 7032,
      "trapho": 7033,
      "trails": 7034,
      "arted": 7035,
      "artes": 7036,
      "artillery": 7037,
      "upside": 7038,
      "updated": 7039,
      "maxim": 7040,
      "makers": 7041,
      "mammo": 7042,
      "wouldnt": 7043,
      "worn": 7044,
      "wormwood": 7045,
      "bleaching": 7046,
      "obstruction": 7047,
      "manship": 7048,
      "manager": 7049,
      "managing": 7050,
      "forest": 7051,
      "foremost": 7052,
      "forehead": 7053,
      "forethought": 7054,
      "peace": 7055,
      "peters": 7056,
      "acs": 7057,
      "acly": 7058,
      "ache": 7059,
      "acity": 7060,
      "accust": 7061,
      "complic": 7062,
      "compiled": 7063,
      "cane": 7064,
      "canus_": 7065,
      "canvas": 7066,
      "domain": 7067,
      "dispos": 7068,
      "dischar": 7069,
      "disrup": 7070,
      "disquiet": 7071,
      "disadvantage": 7072,
      "disappointed": 7073,
      "dismal": 7074,
      "dispel": 7075,
      "disastrous": 7076,
      "tire": 7077,
      "tial": 7078,
      "tible": 7079,
      "tius_": 7080,
      "earthshine": 7081,
      "induced": 7082,
      "umble": 7083,
      "umbr": 7084,
      "crims": 7085,
      "suring": 7086,
      "surfaces": 7087,
      "surpassing": 7088,
      "surpasses": 7089,
      "ite_": 7090,
      "item": 7091,
      "intently": 7092,
      "agne": 7093,
      "agglo": 7094,
      "agians": 7095,
      "likewise": 7096,
      "light_": 7097,
      "lightened": 7098,
      "pler": 7099,
      "pling": 7100,
      "plumb": 7101,
      "plication": 7102,
      "anyway": 7103,
      "wholly": 7104,
      "cies": 7105,
      "civi": 7106,
      "cigar": 7107,
      "govern": 7108,
      "godd": 7109,
      "nicety": 7110,
      "ullah": 7111,
      "rench": 7112,
      "rents": 7113,
      "lesson": 7114,
      "lessness": 7115,
      "repast": 7116,
      "replying": 7117,
      "actors": 7118,
      "activity": 7119,
      "vingly": 7120,
      "trust": 7121,
      "trump": 7122,
      "trusted": 7123,
      "tricably": 7124,
      "beration": 7125,
      "my_": 7126,
      "myths": 7127,
      "mystic": 7128,
      "everyone": 7129,
      "phic": 7130,
      "phase": 7131,
      "phases": 7132,
      "phonse": 7133,
      "selfpossessed": 7134,
      "cave": 7135,
      "caving": 7136,
      "caesar": 7137,
      "caustic": 7138,
      "mento": 7139,
      "mary": 7140,
      "marsh": 7141,
      "marrow": 7142,
      "marking": 7143,
      "distract": 7144,
      "strang": 7145,
      "strongest": 7146,
      "simo": 7147,
      "sibility": 7148,
      "sierra": 7149,
      "ine_": 7150,
      "friendship": 7151,
      "odd": 7152,
      "ody": 7153,
      "wheel": 7154,
      "wheels": 7155,
      "opt": 7156,
      "oppose": 7157,
      "opposed": 7158,
      "0000": 7159,
      "partake": 7160,
      "mediterran": 7161,
      "vii": 7162,
      "vians": 7163,
      "vibr": 7164,
      "viii": 7165,
      "readable": 7166,
      "pride": 7167,
      "sunset": 7168,
      "shoulder": 7169,
      "clid": 7170,
      "clenched": 7171,
      "comra": 7172,
      "commotion": 7173,
      "commer": 7174,
      "commenting": 7175,
      "travelled": 7176,
      "overhead": 7177,
      "overland": 7178,
      "overpower": 7179,
      "firing": 7180,
      "grain": 7181,
      "grains": 7182,
      "grapher": 7183,
      "shared": 7184,
      "shallow": 7185,
      "shapes": 7186,
      "glaring": 7187,
      "glancing": 7188,
      "tinge": 7189,
      "mountainsa": 7190,
      "minor": 7191,
      "minim": 7192,
      "sented": 7193,
      "sentences": 7194,
      "sententiously": 7195,
      "intoler": 7196,
      "wheres": 7197,
      "wherever": 7198,
      "fulness": 7199,
      "interferen": 7200,
      "interposition": 7201,
      "internally": 7202,
      "owns": 7203,
      "istics": 7204,
      "despa": 7205,
      "desult": 7206,
      "desired": 7207,
      "mud": 7208,
      "mured": 7209,
      "offering": 7210,
      "undertook": 7211,
      "undergoing": 7212,
      "underwent": 7213,
      "contro": 7214,
      "content": 7215,
      "contrived": 7216,
      "control": 7217,
      "cordi": 7218,
      "corpor": 7219,
      "cornell": 7220,
      "corpse": 7221,
      "culture": 7222,
      "culmination": 7223,
      "sidewalks": 7224,
      "crying": 7225,
      "grit": 7226,
      "gruith": 7227,
      "tension": 7228,
      "tenmillion": 7229,
      "regards": 7230,
      "regulating": 7231,
      "registered": 7232,
      "newton": 7233,
      "affright": 7234,
      "affair": 7235,
      "reel": 7236,
      "momentary": 7237,
      "igated": 7238,
      "applied": 7239,
      "applause": 7240,
      "count": 7241,
      "council": 7242,
      "tack": 7243,
      "taavi": 7244,
      "idead": 7245,
      "inkling": 7246,
      "conduct": 7247,
      "visited": 7248,
      "excused": 7249,
      "sheep": 7250,
      "turns": 7251,
      "nightfall": 7252,
      "formidable": 7253,
      "donkey": 7254,
      "brit": 7255,
      "brand": 7256,
      "brass": 7257,
      "cre_": 7258,
      "created": 7259,
      "creations": 7260,
      "stere": 7261,
      "steaks": 7262,
      "angular": 7263,
      "angrily": 7264,
      "denying": 7265,
      "denomin": 7266,
      "implied": 7267,
      "impalp": 7268,
      "iculous": 7269,
      "flutter": 7270,
      "flushed": 7271,
      "utensil": 7272,
      "mayor": 7273,
      "elk": 7274,
      "eland": 7275,
      "elapse": 7276,
      "elapsed": 7277,
      "lecture": 7278,
      "extinction": 7279,
      "tempests": 7280,
      "coursing": 7281,
      "darned": 7282,
      "nails": 7283,
      "ptive": 7284,
      "ptune_": 7285,
      "nearness": 7286,
      "mattresses": 7287,
      "parad": 7288,
      "bitter": 7289,
      "quiver": 7290,
      "cases": 7291,
      "highhigh": 7292,
      "fastening": 7293,
      "discou": 7294,
      "carelessness": 7295,
      "fix": 7296,
      "iceberg": 7297,
      "curving": 7298,
      "currents": 7299,
      "mischief": 7300,
      "missible": 7301,
      "southeast": 7302,
      "sourer": 7303,
      "mountains_": 7304,
      "blacke": 7305,
      "voirs": 7306,
      "institute": 7307,
      "installation": 7308,
      "calculus": 7309,
      "handy": 7310,
      "handing": 7311,
      "starts": 7312,
      "pressed": 7313,
      "pressing": 7314,
      "founded": 7315,
      "directors": 7316,
      "plausible": 7317,
      "clever": 7318,
      "cleus": 7319,
      "clefts": 7320,
      "gild": 7321,
      "headed": 7322,
      "heading": 7323,
      "headlong": 7324,
      "continuous": 7325,
      "ventilate": 7326,
      "specks": 7327,
      "_monte": 7328,
      "_mercury": 7329,
      "telling": 7330,
      "breaks": 7331,
      "expend": 7332,
      "perfection": 7333,
      "cars": 7334,
      "cargo": 7335,
      "frenzy": 7336,
      "joint": 7337,
      "jotting": 7338,
      "jovians": 7339,
      "angelo": 7340,
      "calling": 7341,
      "moral": 7342,
      "raps": 7343,
      "raphael": 7344,
      "questioning": 7345,
      "dynam": 7346,
      "lander": 7347,
      "ens_": 7348,
      "ension": 7349,
      "stands": 7350,
      "standard": 7351,
      "westwardly": 7352,
      "college": 7353,
      "exactness": 7354,
      "streamed": 7355,
      "asons": 7356,
      "furthest": 7357,
      "squall": 7358,
      "deduct": 7359,
      "lieu": 7360,
      "fortifications": 7361,
      "considers": 7362,
      "finished": 7363,
      "financi": 7364,
      "rapids": 7365,
      "guide": 7366,
      "ips": 7367,
      "passeng": 7368,
      "dearly": 7369,
      "rescu": 7370,
      "resource": 7371,
      "versat": 7372,
      "objected": 7373,
      "objection": 7374,
      "objections": 7375,
      "completed": 7376,
      "reasoning": 7377,
      "reasonably": 7378,
      "lifeless": 7379,
      "greek": 7380,
      "differential": 7381,
      "chest": 7382,
      "checks": 7383,
      "doubled": 7384,
      "doubtless": 7385,
      "simplified": 7386,
      "inscribed": 7387,
      "selenitic": 7388,
      "backed": 7389,
      "backwards": 7390,
      "pedest": 7391,
      "smiled": 7392,
      "smiths": 7393,
      "latin": 7394,
      "lative": 7395,
      "latitudes": 7396,
      "nature_": 7397,
      "shaded": 7398,
      "shading": 7399,
      "shades": 7400,
      "attending": 7401,
      "deputation": 7402,
      "regarded": 7403,
      "regardless": 7404,
      "richest": 7405,
      "spoiled": 7406,
      "habitable": 7407,
      "blackened": 7408,
      "merry": 7409,
      "merian": 7410,
      "merriment": 7411,
      "saturated": 7412,
      "spectre": 7413,
      "spective": 7414,
      "profile": 7415,
      "profund": 7416,
      "interrupting": 7417,
      "clothed": 7418,
      "clearness": 7419,
      "blers": 7420,
      "blank": 7421,
      "julius": 7422,
      "resusc": 7423,
      "settle": 7424,
      "generations": 7425,
      "shadowy": 7426,
      "cyrus": 7427,
      "cynian": 7428,
      "silently": 7429,
      "approaches": 7430,
      "guns": 7431,
      "ralia": 7432,
      "stooped": 7433,
      "numbers": 7434,
      "oftenest": 7435,
      "radiate": 7436,
      "radiance": 7437,
      "radiations": 7438,
      "clubmen": 7439,
      "skull": 7440,
      "skies": 7441,
      "skins": 7442,
      "skirt": 7443,
      "skimming": 7444,
      "thoughtful": 7445,
      "helm": 7446,
      "helena": 7447,
      "sixth": 7448,
      "sixty": 7449,
      "aud": 7450,
      "aug": 7451,
      "aught": 7452,
      "august": 7453,
      "hugo": 7454,
      "soundings": 7455,
      "remembered": 7456,
      "lockes": 7457,
      "expressing": 7458,
      "equation": 7459,
      "doubtful": 7460,
      "thirst": 7461,
      "appearing": 7462,
      "appearances": 7463,
      "temperament": 7464,
      "mornings": 7465,
      "brightest": 7466,
      "ene_": 7467,
      "archipe": 7468,
      "architect": 7469,
      "tomb": 7470,
      "signalled": 7471,
      "breakers": 7472,
      "crags": 7473,
      "crawling": 7474,
      "crawl": 7475,
      "effected": 7476,
      "icient": 7477,
      "listlessly": 7478,
      "southward": 7479,
      "balanced": 7480,
      "drag": 7481,
      "colder": 7482,
      "bolas": 7483,
      "satisfy": 7484,
      "synon": 7485,
      "syllable": 7486,
      "splendors": 7487,
      "realm": 7488,
      "realms": 7489,
      "realizing": 7490,
      "fireball": 7491,
      "interests": 7492,
      "awful": 7493,
      "awaited": 7494,
      "horn": 7495,
      "slower": 7496,
      "suffer": 7497,
      "surprising": 7498,
      "sister": 7499,
      "successfully": 7500,
      "dimly": 7501,
      "rules": 7502,
      "ruddy": 7503,
      "indemn": 7504,
      "dreams": 7505,
      "hank": 7506,
      "revels": 7507,
      "remarkably": 7508,
      "wilder": 7509,
      "openings": 7510,
      "cups": 7511,
      "hurled": 7512,
      "deaden": 7513,
      "deadlights": 7514,
      "advance": 7515,
      "advice": 7516,
      "advancing": 7517,
      "precinct": 7518,
      "precision": 7519,
      "remaining": 7520,
      "circus": 7521,
      "emphat": 7522,
      "hydrogen": 7523,
      "aboard": 7524,
      "effecting": 7525,
      "chapuis": 7526,
      "fifth": 7527,
      "allows": 7528,
      "strangest": 7529,
      "benefit": 7530,
      "paths": 7531,
      "sighted": 7532,
      "sighting": 7533,
      "zement": 7534,
      "sharpest": 7535,
      "twentyseven": 7536,
      "fluent": 7537,
      "fluid": 7538,
      "188": 7539,
      "189": 7540,
      "18th": 7541,
      "fertility": 7542,
      "maintaining": 7543,
      "stripes": 7544,
      "confused": 7545,
      "confusion": 7546,
      "reflections": 7547,
      "reflectors": 7548,
      "floorlight": 7549,
      "electronically": 7550,
      "distinguishing": 7551,
      "ckered": 7552,
      "nerves": 7553,
      "waited": 7554,
      "watchers": 7555,
      "argue": 7556,
      "bearings": 7557,
      "escapes": 7558,
      "ropes": 7559,
      "detailed": 7560,
      "detailing": 7561,
      "magnitude": 7562,
      "magnified": 7563,
      "occupies": 7564,
      "closest": 7565,
      "busily": 7566,
      "entertaining": 7567,
      "feeble": 7568,
      "community": 7569,
      "burns": 7570,
      "burner": 7571,
      "nonsens": 7572,
      "pamp": 7573,
      "pitous": 7574,
      "pitted": 7575,
      "pitiless": 7576,
      "scream": 7577,
      "screamed": 7578,
      "concept": 7579,
      "tests": 7580,
      "testing": 7581,
      "differencein": 7582,
      "reveals": 7583,
      "illustrated": 7584,
      "bullets": 7585,
      "1500": 7586,
      "strain": 7587,
      "alleged": 7588,
      "imaginations": 7589,
      "logic": 7590,
      "logist": 7591,
      "safest": 7592,
      "safety": 7593,
      "umbers": 7594,
      "umbling": 7595,
      "counteraction": 7596,
      "countryman": 7597,
      "drawling": 7598,
      "driver": 7599,
      "frank": 7600,
      "humors": 7601,
      "humming": 7602,
      "uniforms": 7603,
      "characters": 7604,
      "numberless": 7605,
      "hurrahs": 7606,
      "chiefly": 7607,
      "peculiarity": 7608,
      "eightieth": 7609,
      "harsh": 7610,
      "harbors": 7611,
      "attempts": 7612,
      "stops": 7613,
      "stopping": 7614,
      "seventh": 7615,
      "belief": 7616,
      "believed": 7617,
      "needless": 7618,
      "steady": 7619,
      "hesitating": 7620,
      "atives": 7621,
      "whitehot": 7622,
      "quarrel": 7623,
      "dispatched": 7624,
      "brobdign": 7625,
      "castiron": 7626,
      "swear": 7627,
      "swept": 7628,
      "sweeping": 7629,
      "sweetest": 7630,
      "asserted": 7631,
      "meets": 7632,
      "meetings": 7633,
      "prince": 7634,
      "solidified": 7635,
      "originator": 7636,
      "bloomsburys": 7637,
      "1600": 7638,
      "boundaries": 7639,
      "fainter": 7640,
      "faintly": 7641,
      "ridiculous": 7642,
      "rocket": 7643,
      "railway": 7644,
      "addle": 7645,
      "addresses": 7646,
      "boldly": 7647,
      "accomplishing": 7648,
      "transcri": 7649,
      "transfer": 7650,
      "transformed": 7651,
      "transcendent": 7652,
      "amazement": 7653,
      "crown": 7654,
      "crowned": 7655,
      "pullman": 7656,
      "roris_": 7657,
      "absorbs": 7658,
      "dianas": 7659,
      "plateglass": 7660,
      "plateaus": 7661,
      "combine": 7662,
      "flatter": 7663,
      "flattered": 7664,
      "comparisons": 7665,
      "employe": 7666,
      "quarters": 7667,
      "intelligible": 7668,
      "intelligently": 7669,
      "columbiads": 7670,
      "flamed": 7671,
      "murmured": 7672,
      "named": 7673,
      "smoked": 7674,
      "tableau": 7675,
      "research": 7676,
      "prevented": 7677,
      "occurs": 7678,
      "engineering": 7679,
      "thirtyeight": 7680,
      "thirtyseven": 7681,
      "brows": 7682,
      "freed": 7683,
      "tremor": 7684,
      "vainly": 7685,
      "protuber": 7686,
      "machines": 7687,
      "diminution": 7688,
      "groups": 7689,
      "17th": 7690,
      "1762": 7691,
      "claim": 7692,
      "loftiest": 7693,
      "petits": 7694,
      "petragi": 7695,
      "vapors": 7696,
      "reticul": 7697,
      "properly": 7698,
      "precipices": 7699,
      "precipitous": 7700,
      "thirdly": 7701,
      "splendidly": 7702,
      "grown": 7703,
      "honor": 7704,
      "honors": 7705,
      "lateral": 7706,
      "laterally": 7707,
      "mistake": 7708,
      "palp": 7709,
      "slumbers": 7710,
      "touched": 7711,
      "motto": 7712,
      "societies": 7713,
      "colorless": 7714,
      "colorado": 7715,
      "measurement": 7716,
      "telegraphed": 7717,
      "englishman": 7718,
      "gulfs": 7719,
      "bowed": 7720,
      "climb": 7721,
      "embarrass": 7722,
      "functions": 7723,
      "grief": 7724,
      "widest": 7725,
      "resisted": 7726,
      "resistless": 7727,
      "whirring": 7728,
      "constit": 7729,
      "spirit": 7730,
      "macnicholl": 7731,
      "vessels": 7732,
      "committed": 7733,
      "committing": 7734,
      "jumps": 7735,
      "electricity": 7736,
      "describes": 7737,
      "hyperbolas": 7738,
      "chronometers": 7739,
      "batter": 7740,
      "elevated": 7741,
      "elegant": 7742,
      "hung": 7743,
      "hunter": 7744,
      "simpler": 7745,
      "vanilla": 7746,
      "younger": 7747,
      "investigation": 7748,
      "investigate": 7749,
      "investigating": 7750,
      "rigid": 7751,
      "rigible": 7752,
      "rills": 7753,
      "unexpectedly": 7754,
      "divergent": 7755,
      "breathless": 7756,
      "cheerily": 7757,
      "retardation": 7758,
      "philosopher": 7759,
      "bays": 7760,
      "euclid": 7761,
      "frames": 7762,
      "ggy": 7763,
      "hinges": 7764,
      "pane": 7765,
      "panama": 7766,
      "indign": 7767,
      "studied": 7768,
      "orbs": 7769,
      "orbits": 7770,
      "ico_": 7771,
      "beauty": 7772,
      "whisper": 7773,
      "melting": 7774,
      "proofreading": 7775,
      "explanations": 7776,
      "nestling": 7777,
      "truly": 7778,
      "deserves": 7779,
      "despairing": 7780,
      "gratified": 7781,
      "willingly": 7782,
      "exploded": 7783,
      "businesslike": 7784,
      "courageous": 7785,
      "triumphant": 7786,
      "swallows": 7787,
      "swallowing": 7788,
      "25000": 7789,
      "blows": 7790,
      "fitting": 7791,
      "fitful": 7792,
      "longest": 7793,
      "rubber": 7794,
      "throttle": 7795,
      "respected": 7796,
      "respond": 7797,
      "anxious": 7798,
      "searching": 7799,
      "alarmed": 7800,
      "experiences": 7801,
      "admire": 7802,
      "admirable": 7803,
      "admirably": 7804,
      "greenish": 7805,
      "greenland": 7806,
      "plunge": 7807,
      "replaced": 7808,
      "vividest": 7809,
      "joyfully": 7810,
      "selenographers": 7811,
      "authoritat": 7812,
      "sweetly": 7813,
      "tranquil": 7814,
      "hyperbolic": 7815,
      "11th": 7816,
      "1197": 7817,
      "_pico_": 7818,
      "_alps_": 7819,
      "_alphonse": 7820,
      "_alpetragi": 7821,
      "adequ": 7822,
      "sleeping": 7823,
      "wander": 7824,
      "wandered": 7825,
      "xxi": 7826,
      "xxii": 7827,
      "xxiv": 7828,
      "xxiii": 7829,
      "repeat": 7830,
      "repeating": 7831,
      "issue": 7832,
      "issuing": 7833,
      "ascend": 7834,
      "noiseless": 7835,
      "modifications": 7836,
      "sugar": 7837,
      "chased": 7838,
      "defects": 7839,
      "preferred": 7840,
      "earnestness": 7841,
      "shift": 7842,
      "nicely": 7843,
      "gledy": 7844,
      "continental": 7845,
      "speedy": 7846,
      "private": 7847,
      "assertions": 7848,
      "14th": 7849,
      "duties": 7850,
      "gleamed": 7851,
      "gleaming": 7852,
      "henceforth": 7853,
      "henceforward": 7854,
      "mutually": 7855,
      "muscles": 7856,
      "madre": 7857,
      "madly": 7858,
      "madden": 7859,
      "madame": 7860,
      "inexorable": 7861,
      "inexhaust": 7862,
      "inextricably": 7863,
      "inclination": 7864,
      "invention": 7865,
      "renees_": 7866,
      "anese": 7867,
      "aneously": 7868,
      "enables": 7869,
      "ascertaining": 7870,
      "bewilderment": 7871,
      "adviser": 7872,
      "preparation": 7873,
      "astonishing": 7874,
      "phrases": 7875,
      "descending": 7876,
      "descartes": 7877,
      "ignoram": 7878,
      "specified": 7879,
      "guessed": 7880,
      "checked": 7881,
      "warmly": 7882,
      "pursuing": 7883,
      "laboring": 7884,
      "grimaldi": 7885,
      "masterpieces": 7886,
      "20000": 7887,
      "_sal": 7888,
      "_sang": 7889,
      "dryness": 7890,
      "eatables": 7891,
      "flowing": 7892,
      "flowers": 7893,
      "mater_": 7894,
      "pascal": 7895,
      "swing": 7896,
      "switch": 7897,
      "wasting": 7898,
      "thinner": 7899,
      "thundering": 7900,
      "representation": 7901,
      "representatives": 7902,
      "relative": 7903,
      "anchored": 7904,
      "stoutly": 7905,
      "ingenuity": 7906,
      "seventy": 7907,
      "molehill": 7908,
      "molecular": 7909,
      "suspend": 7910,
      "collapsed": 7911,
      "prompt": 7912,
      "conjectures": 7913,
      "potential": 7914,
      "lamps": 7915,
      "prevail": 7916,
      "prevailing": 7917,
      "esterhaz": 7918,
      "branches": 7919,
      "parabolas": 7920,
      "affirm": 7921,
      "battlefield": 7922,
      "savagely": 7923,
      "regretted": 7924,
      "avoiding": 7925,
      "catacly": 7926,
      "candor": 7927,
      "candidly": 7928,
      "finger": 7929,
      "flinging": 7930,
      "ninth": 7931,
      "nasmyths": 7932,
      "schools": 7933,
      "vitalizing": 7934,
      "walking": 7935,
      "yells": 7936,
      "involved": 7937,
      "analogy": 7938,
      "errors": 7939,
      "erratic": 7940,
      "stationed": 7941,
      "steps": 7942,
      "secchi": 7943,
      "serenity": 7944,
      "coals": 7945,
      "covering": 7946,
      "decide": 7947,
      "deliver": 7948,
      "delirious": 7949,
      "prominently": 7950,
      "locomotion": 7951,
      "exertion": 7952,
      "spreads": 7953,
      "folded": 7954,
      "perplex": 7955,
      "perplexed": 7956,
      "mentioned": 7957,
      "dogmatically": 7958,
      "disputed": 7959,
      "disputes": 7960,
      "platform": 7961,
      "restlessness": 7962,
      "designated": 7963,
      "densely": 7964,
      "refracting": 7965,
      "heavier": 7966,
      "heavily": 7967,
      "warranty": 7968,
      "universal": 7969,
      "contracted": 7970,
      "contracting": 7971,
      "protection": 7972,
      "photographs": 7973,
      "photography": 7974,
      "photographers": 7975,
      "crystall": 7976,
      "responsibility": 7977,
      "_eon_": 7978,
      "_euler_": 7979,
      "_theoph": 7980,
      "bathed": 7981,
      "game": 7982,
      "gaily": 7983,
      "histor": 7984,
      "lustily": 7985,
      "lustrous": 7986,
      "narrower": 7987,
      "oreography": 7988,
      "porte": 7989,
      "punct": 7990,
      "ptians": 7991,
      "softened": 7992,
      "softening": 7993,
      "vocal": 7994,
      "xvii": 7995,
      "xviii": 7996,
      "incontestably": 7997,
      "resplendent": 7998,
      "resplendescence": 7999,
      "stiff": 8000,
      "stifled": 8001,
      "asymp": 8002,
      "assistants": 8003,
      "seasons": 8004,
      "beats": 8005,
      "bells": 8006,
      "betrayed": 8007,
      "alps_": 8008,
      "librations": 8009,
      "delicate": 8010,
      "demanded": 8011,
      "apprehended": 8012,
      "apprehensions": 8013,
      "dignity": 8014,
      "spangled": 8015,
      "boxes": 8016,
      "mytholog": 8017,
      "distinctive": 8018,
      "vigorous": 8019,
      "proudly": 8020,
      "crises": 8021,
      "newspapers": 8022,
      "impatiently": 8023,
      "flourish": 8024,
      "expecting": 8025,
      "expectations": 8026,
      "collecting": 8027,
      "middleaged": 8028,
      "monotonous": 8029,
      "guarded": 8030,
      "gloomily": 8031,
      "1861": 8032,
      "1862": 8033,
      "gesticulated": 8034,
      "accelerated": 8035,
      "accelerating": 8036,
      "lucky": 8037,
      "woods": 8038,
      "grooved": 8039,
      "solemnly": 8040,
      "aspects": 8041,
      "_lacus": 8042,
      "billsby": 8043,
      "cades": 8044,
      "cadence": 8045,
      "cumbered": 8046,
      "econom": 8047,
      "elliptic": 8048,
      "kalju": 8049,
      "killing": 8050,
      "infused": 8051,
      "infallible": 8052,
      "infallibly": 8053,
      "resolved": 8054,
      "references": 8055,
      "stirred": 8056,
      "stunted": 8057,
      "stunned": 8058,
      "severely": 8059,
      "roasted": 8060,
      "hazard": 8061,
      "memorable": 8062,
      "memorandum": 8063,
      "cooked": 8064,
      "aintance": 8065,
      "convex": 8066,
      "convexity": 8067,
      "consisted": 8068,
      "consulting": 8069,
      "apoll": 8070,
      "externally": 8071,
      "keenly": 8072,
      "article": 8073,
      "acquaintance": 8074,
      "academ": 8075,
      "indulged": 8076,
      "ploughed": 8077,
      "hollows": 8078,
      "vivifying": 8079,
      "sentimental": 8080,
      "referred": 8081,
      "referring": 8082,
      "struggles": 8083,
      "suppressed": 8084,
      "suppressing": 8085,
      "perigee": 8086,
      "buildings": 8087,
      "audience": 8088,
      "audibly": 8089,
      "revelation": 8090,
      "scenery": 8091,
      "affectionate": 8092,
      "accepting": 8093,
      "whirlwinds": 8094,
      "alternating": 8095,
      "alternately": 8096,
      "majesty": 8097,
      "schoolboys": 8098,
      "herschels": 8099,
      "oscillating": 8100,
      "inconceivably": 8101,
      "_conjunction": 8102,
      "_camp": 8103,
      "auspices": 8104,
      "bands": 8105,
      "breeze": 8106,
      "crests": 8107,
      "emergency": 8108,
      "evaporate": 8109,
      "evaporated": 8110,
      "eggshell": 8111,
      "fascination": 8112,
      "fascinating": 8113,
      "hilarity": 8114,
      "messrs": 8115,
      "pulsation": 8116,
      "packed": 8117,
      "salute": 8118,
      "saluted": 8119,
      "sneer": 8120,
      "sneered": 8121,
      "scoria": 8122,
      "scarcely": 8123,
      "tapest": 8124,
      "tightly": 8125,
      "ucky": 8126,
      "virgil": 8127,
      "incredul": 8128,
      "incredulous": 8129,
      "reverie": 8130,
      "reigns": 8131,
      "enlightened": 8132,
      "tolerable": 8133,
      "tolerably": 8134,
      "semblance": 8135,
      "beefsteaks": 8136,
      "novelty": 8137,
      "models": 8138,
      "china": 8139,
      "chilly": 8140,
      "forcible": 8141,
      "forcibly": 8142,
      "debate": 8143,
      "declared": 8144,
      "propriety": 8145,
      "proprietary": 8146,
      "impelled": 8147,
      "consumption": 8148,
      "hostile": 8149,
      "exquisitely": 8150,
      "exploring": 8151,
      "explorations": 8152,
      "neatly": 8153,
      "faculties": 8154,
      "adopted": 8155,
      "shudder": 8156,
      "upheaval": 8157,
      "foreshortened": 8158,
      "peacocks": 8159,
      "acquire": 8160,
      "acquired": 8161,
      "computer": 8162,
      "computers": 8163,
      "industry": 8164,
      "industriously": 8165,
      "lunatics": 8166,
      "clustered": 8167,
      "overwhelming": 8168,
      "gracefully": 8169,
      "intoxication": 8170,
      "intoxicated": 8171,
      "desolation": 8172,
      "desolate": 8173,
      "contributed": 8174,
      "contributions": 8175,
      "coruscating": 8176,
      "condensed": 8177,
      "solicit": 8178,
      "trillions": 8179,
      "flooded": 8180,
      "circulation": 8181,
      "circulating": 8182,
      "micrometer": 8183,
      "microcosm": 8184,
      "symbol": 8185,
      "laughter": 8186,
      "drearier": 8187,
      "dreariest": 8188,
      "penetrate": 8189,
      "confessed": 8190,
      "commencement": 8191,
      "disturbance": 8192,
      "rainbows": 8193,
      "majority": 8194,
      "resembles": 8195,
      "multiplied": 8196,
      "_neptune_": 8197,
      "_quand": 8198,
      "_hercynian": 8199,
      "_mars_": 8200,
      "_pyrenees_": 8201,
      "_jupiter_": 8202,
      "_saturn_": 8203,
      "australia": 8204,
      "babies": 8205,
      "blunder": 8206,
      "dusky": 8207,
      "duration": 8208,
      "emanate": 8209,
      "fringe": 8210,
      "jokes": 8211,
      "knots": 8212,
      "lurid": 8213,
      "lonely": 8214,
      "nucleus": 8215,
      "naples": 8216,
      "obeyed": 8217,
      "prai": 8218,
      "pallor": 8219,
      "pupil": 8220,
      "piercing": 8221,
      "rattle": 8222,
      "rueful": 8223,
      "slept": 8224,
      "snicker": 8225,
      "tantalizing": 8226,
      "vicinity": 8227,
      "village": 8228,
      "vague": 8229,
      "vineyards": 8230,
      "wiser": 8231,
      "yonder": 8232,
      "theatre": 8233,
      "inspected": 8234,
      "insurmountable": 8235,
      "infinity": 8236,
      "remote": 8237,
      "revised": 8238,
      "rejoicing": 8239,
      "enchanting": 8240,
      "education": 8241,
      "toasts": 8242,
      "assembled": 8243,
      "entrance": 8244,
      "entirely": 8245,
      "metrical": 8246,
      "rigorously": 8247,
      "christmas": 8248,
      "irresistible": 8249,
      "irritated": 8250,
      "unrolling": 8251,
      "decomposing": 8252,
      "decorated": 8253,
      "prolongation": 8254,
      "prodigious": 8255,
      "imprisonment": 8256,
      "abandoned": 8257,
      "locality": 8258,
      "terminating": 8259,
      "hotel": 8260,
      "excluded": 8261,
      "diamond": 8262,
      "nebulous": 8263,
      "adventures": 8264,
      "addressing": 8265,
      "capricious": 8266,
      "shivering": 8267,
      "articulate": 8268,
      "manners": 8269,
      "discern": 8270,
      "plugs": 8271,
      "phlegmatic": 8272,
      "cautious": 8273,
      "opponents": 8274,
      "printed": 8275,
      "grappling": 8276,
      "restraint": 8277,
      "grateful": 8278,
      "tampa": 8279,
      "iselene_": 8280,
      "cleaved": 8281,
      "gibbering": 8282,
      "expanding": 8283,
      "carriage": 8284,
      "resounding": 8285,
      "bluish": 8286,
      "stomachs": 8287,
      "champagne": 8288,
      "effulgence": 8289,
      "anticipation": 8290,
      "glaciers": 8291,
      "distinguishable": 8292,
      "purifying": 8293,
      "drifting": 8294,
      "pyramidal": 8295,
      "fleeting": 8296,
      "phosphores": 8297,
      "_ptolemy_": 8298,
      "superficial": 8299,
      "contradicting": 8300,
      "aeronaut": 8301,
      "draughtsman": 8302,
      "sketch": 8303,
      "exclusively": 8304,
      "_aposelene_": 8305,
      "available": 8306,
      "cassini": 8307,
      "elasticity": 8308,
      "acclimatization": 8309,
      "_memo": 8310,
      "_are_": 8311,
      "_sacre_": 8312,
      "_periselene_": 8313,
      "_up_": 8314,
      "_venus_": 8315,
      "_moretus_": 8316,
      "_some_": 8317,
      "_him_": 8318,
      "_less_": 8319,
      "_day_": 8320,
      "_night_": 8321,
      "_curtius_": 8322,
      "_cant_": 8323,
      "_huygh": 8324,
      "_short_": 8325,
      "_purbach": 8326,
      "_seas_": 8327,
      "_movement_": 8328,
      "_palus": 8329,
      "_furore_": 8330,
      "_kepler_": 8331,
      "_opposition_": 8332,
      "_grooves_": 8333,
      "avidity": 8334,
      "avalanche": 8335,
      "boneta": 8336,
      "bustling": 8337,
      "banners": 8338,
      "cimmerian": 8339,
      "cubic": 8340,
      "elongated": 8341,
      "egyptians": 8342,
      "federal": 8343,
      "fountain": 8344,
      "fashion": 8345,
      "garden": 8346,
      "gimcracks": 8347,
      "japanese": 8348,
      "joseph": 8349,
      "kentucky": 8350,
      "lasso": 8351,
      "oysters": 8352,
      "panting": 8353,
      "pillars": 8354,
      "rhyth": 8355,
      "scanned": 8356,
      "swaying": 8357,
      "scratch": 8358,
      "swamp": 8359,
      "scotch": 8360,
      "slaughtered": 8361,
      "scaphander": 8362,
      "target": 8363,
      "inveigled": 8364,
      "inverted": 8365,
      "incorrigible": 8366,
      "inquiries": 8367,
      "insignificance": 8368,
      "inopportune": 8369,
      "inhospitable": 8370,
      "reservoirs": 8371,
      "resignation": 8372,
      "rewarded": 8373,
      "restrictions": 8374,
      "respiration": 8375,
      "erfurt": 8376,
      "ouvrez": 8377,
      "enumerated": 8378,
      "enkindled": 8379,
      "encouraged": 8380,
      "arctic": 8381,
      "stagnant": 8382,
      "leisure": 8383,
      "leagues": 8384,
      "lecouturier": 8385,
      "ascii": 8386,
      "beetling": 8387,
      "hampered": 8388,
      "almanacs": 8389,
      "meadow": 8390,
      "rarefied": 8391,
      "lilliput": 8392,
      "coefficient": 8393,
      "unforeseen": 8394,
      "uneasiness": 8395,
      "unmitigated": 8396,
      "unquestionably": 8397,
      "unavoidable": 8398,
      "unprecedented": 8399,
      "sockets": 8400,
      "deportment": 8401,
      "demigods": 8402,
      "impossibilities": 8403,
      "implicit": 8404,
      "immutable": 8405,
      "abruptly": 8406,
      "lobos": 8407,
      "conundrum": 8408,
      "consolidated": 8409,
      "pocket": 8410,
      "pomposity": 8411,
      "exempt": 8412,
      "exuberant": 8413,
      "negligence": 8414,
      "nevada": 8415,
      "familiar": 8416,
      "feminine": 8417,
      "fecunditatis_": 8418,
      "sprinkled": 8419,
      "endurable": 8420,
      "sacramento": 8421,
      "selfevident": 8422,
      "traphole": 8423,
      "maximum": 8424,
      "mammoth": 8425,
      "accustomed": 8426,
      "complicated": 8427,
      "disposal": 8428,
      "disruption": 8429,
      "crimson": 8430,
      "agglomer": 8431,
      "goddess": 8432,
      "distracting": 8433,
      "mediterranean": 8434,
      "overpowering": 8435,
      "intolerable": 8436,
      "interference": 8437,
      "despaired": 8438,
      "desultory": 8439,
      "gruithuys": 8440,
      "impalpable": 8441,
      "blackest": 8442,
      "_mercury_": 8443,
      "financial": 8444,
      "passengers": 8445,
      "archipela": 8446,
      "synonymous": 8447,
      "precincts": 8448,
      "emphatically": 8449,
      "nonsensical": 8450,
      "franklins": 8451,
      "brobdignagians": 8452,
      "throttlevalve": 8453,
      "11972": 8454,
      "_alphonse_": 8455,
      "_alpetragius_": 8456,
      "inexhaustible": 8457,
      "esterhazys": 8458,
      "_theophilus_": 8459,
      "_conjunction_": 8460,
      "_huyghens_": 8461,
      "_purbach_": 8462,
      "1a": 8463,
      "1b": 8464,
      "1d": 8465,
      "1000": 8466,
      "112": 8467,
      "118": 8468,
      "115": 8469,
      "26": 8470,
      "2v": 8471,
      "2gr": 8472,
      "2000": 8473,
      "214": 8474,
      "28000": 8475,
      "21st": 8476,
      "219": 8477,
      "26th": 8478,
      "26000": 8479,
      "216000": 8480,
      "21762": 8481,
      "34": 8482,
      "39": 8483,
      "3d": 8484,
      "3r": 8485,
      "312": 8486,
      "320": 8487,
      "3400": 8488,
      "31st": 8489,
      "375": 8490,
      "3214": 8491,
      "43": 8492,
      "48": 8493,
      "4th": 8494,
      "410": 8495,
      "430": 8496,
      "425": 8497,
      "45th": 8498,
      "480": 8499,
      "51": 8500,
      "52": 8501,
      "58": 8502,
      "5500": 8503,
      "61": 8504,
      "65": 8505,
      "650": 8506,
      "625": 8507,
      "646": 8508,
      "65th": 8509,
      "6300": 8510,
      "6188": 8511,
      "71": 8512,
      "76": 8513,
      "7th": 8514,
      "7000": 8515,
      "712": 8516,
      "88": 8517,
      "89": 8518,
      "8th": 8519,
      "816": 8520,
      "8500": 8521,
      "841": 8522,
      "84th": 8523,
      "910": 8524,
      "958": 8525,
      "9816": 8526,
      "_k": 8527,
      "_l": 8528,
      "_of": 8529,
      "_it": 8530,
      "_is": 8531,
      "_as": 8532,
      "_and": 8533,
      "_no": 8534,
      "_ro": 8535,
      "_ha": 8536,
      "_we": 8537,
      "_ve": 8538,
      "_that": 8539,
      "_so": 8540,
      "_im": 8541,
      "_ab": 8542,
      "_po": 8543,
      "_pre": 8544,
      "_end": 8545,
      "_very": 8546,
      "_from": 8547,
      "_fo": 8548,
      "_have": 8549,
      "_et": 8550,
      "_pe": 8551,
      "_captain": 8552,
      "_ess": 8553,
      "_ti": 8554,
      "_pl": 8555,
      "_nic": 8556,
      "_time": 8557,
      "_here": 8558,
      "_how": 8559,
      "_every": 8560,
      "_self": 8561,
      "_little": 8562,
      "_ves": 8563,
      "_full": 8564,
      "_know": 8565,
      "_well": 8566,
      "_right": 8567,
      "_sun": 8568,
      "_oc": 8569,
      "_gr": 8570,
      "_will": 8571,
      "_ta": 8572,
      "_though": 8573,
      "_cond": 8574,
      "_air": 8575,
      "_sol": 8576,
      "_two": 8577,
      "_far": 8578,
      "_don": 8579,
      "_den": 8580,
      "_na": 8581,
      "_par": 8582,
      "_wer": 8583,
      "_direct": 8584,
      "_port": 8585,
      "_quite": 8586,
      "_french": 8587,
      "_ple": 8588,
      "_fur": 8589,
      "_motion": 8590,
      "_heat": 8591,
      "_lie": 8592,
      "_gu": 8593,
      "_space": 8594,
      "_astron": 8595,
      "_star": 8596,
      "_bl": 8597,
      "_ju": 8598,
      "_gener": 8599,
      "_shadow": 8600,
      "_astronom": 8601,
      "_sound": 8602,
      "_wall": 8603,
      "_crater": 8604,
      "_journey": 8605,
      "_real": 8606,
      "_open": 8607,
      "_war": 8608,
      "_height": 8609,
      "_laugh": 8610,
      "_degrees": 8611,
      "_disting": 8612,
      "_president": 8613,
      "_enter": 8614,
      "_pit": 8615,
      "_equal": 8616,
      "_observation": 8617,
      "_pacific": 8618,
      "_har": 8619,
      "_convin": 8620,
      "_name": 8621,
      "_southern": 8622,
      "_american": 8623,
      "_a_": 8624,
      "_sen": 8625,
      "_vest": 8626,
      "_trans": 8627,
      "_northern": 8628,
      "_theory": 8629,
      "_ax": 8630,
      "_above": 8631,
      "_pet": 8632,
      "_nautil": 8633,
      "_mot": 8634,
      "_cracks": 8635,
      "_philo": 8636,
      "_laughed": 8637,
      "_flying": 8638,
      "_gro": 8639,
      "_mac": 8640,
      "_crust": 8641,
      "_fat": 8642,
      "_fair": 8643,
      "_radiating": 8644,
      "_house": 8645,
      "_bay": 8646,
      "_double": 8647,
      "_doing": 8648,
      "_somewhere": 8649,
      "_party": 8650,
      "_selenograph": 8651,
      "_rain": 8652,
      "_unknown": 8653,
      "_continent": 8654,
      "_scene": 8655,
      "_hyperbola": 8656,
      "_chasms": 8657,
      "_genial": 8658,
      "_ellipse": 8659,
      "_bull": 8660,
      "_progress": 8661,
      "_chamber": 8662,
      "_luck": 8663,
      "_yankee": 8664,
      "_parabola": 8665,
      "_fissu": 8666,
      "_z_": 8667,
      "_looks": 8668,
      "_circle": 8669,
      "_iner": 8670,
      "_enlight": 8671,
      "_rip": 8672,
      "_imper": 8673,
      "_certain_": 8674,
      "_perihelion": 8675,
      "_sym": 8676,
      "_riccioli": 8677,
      "_ante": 8678,
      "_chi": 8679,
      "_unearthly": 8680,
      "_moonlight": 8681,
      "_closer": 8682,
      "_science_": 8683,
      "_opera": 8684,
      "_elements": 8685,
      "_credit": 8686,
      "_reiset": 8687,
      "_regnault": 8688,
      "_dum": 8689,
      "_fon": 8690,
      "_xy": 8691,
      "_tokay": 8692,
      "_boston": 8693,
      "_light_": 8694,
      "_overland": 8695,
      "_minim": 8696,
      "_cordi": 8697,
      "_clefts": 8698,
      "_dynam": 8699,
      "_college": 8700,
      "_nature_": 8701,
      "_tableau": 8702,
      "_grimaldi": 8703,
      "_potential": 8704,
      "_incontestably": 8705,
      "_asymp": 8706,
      "_academ": 8707,
      "_entirely": 8708,
      "_mediterranean": 8709,
      "ai": 8710,
      "athe": 8711,
      "aly": 8712,
      "ahe": 8713,
      "aco": 8714,
      "apro": 8715,
      "aur": 8716,
      "athan": 8717,
      "afore": 8718,
      "aest": 8719,
      "aute": 8720,
      "agrees": 8721,
      "aero": 8722,
      "aquar": 8723,
      "aque": 8724,
      "adel": 8725,
      "ai_": 8726,
      "ails": 8727,
      "ale_": 8728,
      "ailes": 8729,
      "aired": 8730,
      "avius_": 8731,
      "alex": 8732,
      "bin": 8733,
      "bis": 8734,
      "bun": 8735,
      "bile": 8736,
      "bend": 8737,
      "bast": 8738,
      "bable": 8739,
      "bac": 8740,
      "bible": 8741,
      "bub": 8742,
      "bund": 8743,
      "bath": 8744,
      "bage": 8745,
      "bought": 8746,
      "bland": 8747,
      "bins": 8748,
      "beng": 8749,
      "blist": 8750,
      "bond": 8751,
      "bounds": 8752,
      "baff": 8753,
      "bah": 8754,
      "bask": 8755,
      "bstruct": 8756,
      "bade": 8757,
      "bouncing": 8758,
      "bake": 8759,
      "biding": 8760,
      "baked": 8761,
      "c_": 8762,
      "cis": 8763,
      "cif": 8764,
      "cill": 8765,
      "cind": 8766,
      "cations": 8767,
      "cards": 8768,
      "cree": 8769,
      "cise": 8770,
      "cush": 8771,
      "crop": 8772,
      "ciled": 8773,
      "cages": 8774,
      "cences": 8775,
      "citing": 8776,
      "ciful": 8777,
      "cency": 8778,
      "cumber": 8779,
      "cables": 8780,
      "carted": 8781,
      "cache": 8782,
      "dthe": 8783,
      "dat": 8784,
      "dse": 8785,
      "dal": 8786,
      "dent": 8787,
      "dir": 8788,
      "dity": 8789,
      "dup": 8790,
      "dure": 8791,
      "dled": 8792,
      "dys": 8793,
      "dared": 8794,
      "dub": 8795,
      "dical": 8796,
      "drap": 8797,
      "dding": 8798,
      "dwind": 8799,
      "dged": 8800,
      "dres": 8801,
      "dition": 8802,
      "dus_": 8803,
      "dined": 8804,
      "damp": 8805,
      "droll": 8806,
      "ddered": 8807,
      "danced": 8808,
      "dabs": 8809,
      "dicate": 8810,
      "dented": 8811,
      "drum": 8812,
      "dante": 8813,
      "dheaded": 8814,
      "daught": 8815,
      "ee": 8816,
      "eth": 8817,
      "ein": 8818,
      "ely": 8819,
      "ebe": 8820,
      "eup": 8821,
      "ethere": 8822,
      "eag": 8823,
      "eving": 8824,
      "eph": 8825,
      "erect": 8826,
      "eel": 8827,
      "ebeg": 8828,
      "emon": 8829,
      "eus_": 8830,
      "evie": 8831,
      "emb": 8832,
      "eii": 8833,
      "ebon": 8834,
      "eboard": 8835,
      "ezed": 8836,
      "ei_": 8837,
      "egress": 8838,
      "eons": 8839,
      "ebb": 8840,
      "eggs": 8841,
      "ejac": 8842,
      "ewed": 8843,
      "eloqu": 8844,
      "fth": 8845,
      "fan": 8846,
      "fen": 8847,
      "fes": 8848,
      "file": 8849,
      "fus": 8850,
      "ffe": 8851,
      "fill": 8852,
      "flit": 8853,
      "flight": 8854,
      "fist": 8855,
      "fying": 8856,
      "fished": 8857,
      "fick": 8858,
      "fought": 8859,
      "flaw": 8860,
      "flip": 8861,
      "fru": 8862,
      "fists": 8863,
      "flies": 8864,
      "fume": 8865,
      "fers_": 8866,
      "files": 8867,
      "fillet": 8868,
      "fumes": 8869,
      "ffolding": 8870,
      "gm": 8871,
      "gin": 8872,
      "gon": 8873,
      "gis": 8874,
      "gic": 8875,
      "gap": 8876,
      "gus": 8877,
      "gif": 8878,
      "gow": 8879,
      "gment": 8880,
      "gull": 8881,
      "gist": 8882,
      "gnor": 8883,
      "gshe": 8884,
      "gious": 8885,
      "gared": 8886,
      "gies": 8887,
      "gory": 8888,
      "gates": 8889,
      "gau": 8890,
      "glist": 8891,
      "grop": 8892,
      "ga_": 8893,
      "gah": 8894,
      "gross": 8895,
      "glistens": 8896,
      "gushing": 8897,
      "hm": 8898,
      "hs": 8899,
      "hin": 8900,
      "hen": 8901,
      "hid": 8902,
      "hart": 8903,
      "hint": 8904,
      "hig": 8905,
      "hys": 8906,
      "hub": 8907,
      "hip": 8908,
      "haters": 8909,
      "houd": 8910,
      "hounds": 8911,
      "hiron": 8912,
      "hushed": 8913,
      "hired": 8914,
      "hlets": 8915,
      "hinder": 8916,
      "ithe": 8917,
      "iat": 8918,
      "ias": 8919,
      "iard": 8920,
      "ipo": 8921,
      "iqu": 8922,
      "ife": 8923,
      "iers": 8924,
      "iable": 8925,
      "iving": 8926,
      "ives": 8927,
      "iod": 8928,
      "iwork": 8929,
      "ivis": 8930,
      "iel": 8931,
      "iom": 8932,
      "iably": 8933,
      "ivers": 8934,
      "iams": 8935,
      "iatory": 8936,
      "ivals": 8937,
      "ilize": 8938,
      "jer": 8939,
      "jes": 8940,
      "jif": 8941,
      "jure": 8942,
      "jub": 8943,
      "jord": 8944,
      "jaw": 8945,
      "ja_": 8946,
      "jah": 8947,
      "jell": 8948,
      "jester": 8949,
      "jutted": 8950,
      "jasons": 8951,
      "jaco": 8952,
      "kant": 8953,
      "kans": 8954,
      "kink": 8955,
      "kily": 8956,
      "kspe": 8957,
      "kush": 8958,
      "ka_": 8959,
      "ksurrounded": 8960,
      "kicked": 8961,
      "kwardly": 8962,
      "lp": 8963,
      "lin": 8964,
      "lion": 8965,
      "lid": 8966,
      "lter": 8967,
      "lap": 8968,
      "lus": 8969,
      "lican": 8970,
      "lfa": 8971,
      "lite": 8972,
      "lide": 8973,
      "lice": 8974,
      "ltry": 8975,
      "lanc": 8976,
      "labo": 8977,
      "lump": 8978,
      "lvan": 8979,
      "lining": 8980,
      "lency": 8981,
      "lbs": 8982,
      "lumber": 8983,
      "linder": 8984,
      "lenses": 8985,
      "leness": 8986,
      "las_": 8987,
      "luted": 8988,
      "lisher": 8989,
      "m_": 8990,
      "md": 8991,
      "mould": 8992,
      "mour": 8993,
      "mone": 8994,
      "mck": 8995,
      "mity": 8996,
      "mbo": 8997,
      "mite": 8998,
      "mish": 8999,
      "mmed": 9000,
      "mature": 9001,
      "mily": 9002,
      "mies": 9003,
      "mute": 9004,
      "mbed": 9005,
      "muring": 9006,
      "mused": 9007,
      "mutil": 9008,
      "mult": 9009,
      "mashed": 9010,
      "maled": 9011,
      "mmers": 9012,
      "mapped": 9013,
      "mion_": 9014,
      "masons": 9015,
      "mgow": 9016,
      "nard": 9017,
      "nim": 9018,
      "nile": 9019,
      "nad": 9020,
      "nur": 9021,
      "nity": 9022,
      "null": 9023,
      "nance": 9024,
      "nful": 9025,
      "nib": 9026,
      "nsy": 9027,
      "nists": 9028,
      "nassu": 9029,
      "nacles": 9030,
      "naked": 9031,
      "oo": 9032,
      "oer": 9033,
      "ole": 9034,
      "owe": 9035,
      "olo": 9036,
      "oke": 9037,
      "oma": 9038,
      "ope": 9039,
      "odo": 9040,
      "otle": 9041,
      "oty": 9042,
      "ocer": 9043,
      "oise": 9044,
      "ots": 9045,
      "oles": 9046,
      "oath": 9047,
      "ovo": 9048,
      "oiled": 9049,
      "oos": 9050,
      "oque": 9051,
      "oeu": 9052,
      "ogy": 9053,
      "oi_": 9054,
      "ole_": 9055,
      "othed": 9056,
      "ometr": 9057,
      "opled": 9058,
      "oese": 9059,
      "ovations": 9060,
      "octant": 9061,
      "oja_": 9062,
      "pp": 9063,
      "pis": 9064,
      "pand": 9065,
      "pent": 9066,
      "pid": 9067,
      "pour": 9068,
      "pile": 9069,
      "pout": 9070,
      "pear": 9071,
      "pits": 9072,
      "pite": 9073,
      "pag": 9074,
      "psome": 9075,
      "pach": 9076,
      "psha": 9077,
      "pted": 9078,
      "pses": 9079,
      "pick": 9080,
      "pors": 9081,
      "pens": 9082,
      "plying": 9083,
      "pined": 9084,
      "psy": 9085,
      "pgla": 9086,
      "pents": 9087,
      "pages": 9088,
      "padd": 9089,
      "pping": 9090,
      "pantly": 9091,
      "picks": 9092,
      "q_": 9093,
      "rr": 9094,
      "rand": 9095,
      "rut": 9096,
      "rho": 9097,
      "ration": 9098,
      "rity": 9099,
      "rature": 9100,
      "rys": 9101,
      "ricul": 9102,
      "rhap": 9103,
      "rumin": 9104,
      "ranged": 9105,
      "rara": 9106,
      "rhin": 9107,
      "sar": 9108,
      "sic": 9109,
      "sme": 9110,
      "sour": 9111,
      "sap": 9112,
      "sla": 9113,
      "shis": 9114,
      "sant": 9115,
      "sity": 9116,
      "sions": 9117,
      "site": 9118,
      "sort": 9119,
      "sms": 9120,
      "scal": 9121,
      "sna": 9122,
      "swer": 9123,
      "sick": 9124,
      "scant": 9125,
      "sfurther": 9126,
      "sites": 9127,
      "sively": 9128,
      "sworth": 9129,
      "sword": 9130,
      "scrib": 9131,
      "scorn": 9132,
      "ssom": 9133,
[...]
