{
  "version": "1.0",
  "truncation": null,
  "padding": null,
  "added_tokens": [
    {
      "id": 0,
      "content": "[UNK]",
      "single_word": false,
      "lstrip": false,
      "rstrip": false,
      "normalized": false,
      "special": true
    },
    {
      "id": 1,
      "content": "[CLS]",
      "single_word": false,
      "lstrip": false,
      "rstrip": false,
      "normalized": false,
      "special": true
    },
    {
      "id": 2,
      "content": "[SEP]",
      "single_word": false,
      "lstrip": false,
      "rstrip": false,
      "normalized": false,
      "special": true
    },
    {
      "id": 3,
      "content": "[PAD]",
      "single_word": false,
      "lstrip": false,
      "rstrip": false,
      "normalized": false,
      "special": true
    },
    {
      "id": 4,
      "content": "[MASK]",
      "single_word": false,
      "lstrip": false,
      "rstrip": false,
      "normalized": false,
      "special": true
    }
  ],
  "normalizer": {
    "type": "Sequence",
    "normalizers": [
      {
        "type": "Lowercase"
      },
      {
        "type": "StripAccents"
      },
      {
        "type": "NFD"
      }
    ]
  },
  "pre_tokenizer": {
    "type": "Whitespace"
  },
  "post_processor": null,
  "decoder": null,
  "model": {
    "type": "BPE",
    "dropout": null,
    "unk_token": "[UNK]",
    "continuing_subword_prefix": null,
    "end_of_word_suffix": null,
    "fuse_unk": false,
    "vocab": {
      "[UNK]": 0,
      "[CLS]": 1,
      "[SEP]": 2,
      "[PAD]": 3,
      "[MASK]": 4,
      "!": 5,
      "\"": 6,
      "#": 7,
      "$": 8,
      "%": 9,
      "'": 10,
      "(": 11,
      ")": 12,
      "*": 13,
      "+": 14,
      ",": 15,
      "-": 16,
      ".": 17,
      "/": 18,
      "0": 19,
      "1": 20,
      "2": 21,
      "3": 22,
      "4": 23,
      "5": 24,
      "6": 25,
      "7": 26,
      "8": 27,
      "9": 28,
      ":": 29,
      ";": 30,
      "=": 31,
      "?": 32,
      "[": 33,
      "]": 34,
      "_": 35,
      "a": 36,
      "b": 37,
      "c": 38,
      "d": 39,
      "e": 40,
      "f": 41,
      "g": 42,
      "h": 43,
      "i": 44,
      "j": 45,
      "k": 46,
      "l": 47,
      "m": 48,
      "n": 49,
      "o": 50,
      "p": 51,
      "q": 52,
      "r": 53,
      "s": 54,
      "t": 55,
      "u": 56,
      "v": 57,
      "w": 58,
      "x": 59,
      "y": 60,
      "z": 61,
      "{": 62,
      "}": 63,
      "°": 64,
      "æ": 65,
      "̀": 66,
      "́": 67,
      "̂": 68,
      "̈": 69,
      "—": 70,
      "‘": 71,
      "’": 72,
      "“": 73,
      "”": 74,
      "•": 75,
      "™": 76,
      "﻿": 77,
      "th": 78,
      "the": 79,
      "in": 80,
      "re": 81,
      "an": 82,
      "on": 83,
      "er": 84,
      "at": 85,
      "ou": 86,
      "en": 87,
      "ar": 88,
      "ed": 89,
      "st": 90,
      "of": 91,
      "ing": 92,
      "it": 93,
      "or": 94,
      "to": 95,
      "le": 96,
      "is": 97,
      "as": 98,
      "ll": 99,
      "and": 100,
      "ic": 101,
      "se": 102,
      "ly": 103,
      "be": 104,
      "es": 105,
      "no": 106,
      "ro": 107,
      "ha": 108,
      "ct": 109,
      "ion": 110,
      "he": 111,
      "al": 112,
      "mo": 113,
      "we": 114,
      "ve": 115,
      "gh": 116,
      "wh": 117,
      "ent": 118,
      "me": 119,
      "id": 120,
      "ce": 121,
      "ver": 122,
      "su": 123,
      "ld": 124,
      "ri": 125,
      "ut": 126,
      "ra": 127,
      "ch": 128,
      "that": 129,
      "li": 130,
      "co": 131,
      "all": 132,
      "ir": 133,
      "wi": 134,
      "ain": 135,
      "un": 136,
      "for": 137,
      "so": 138,
      "de": 139,
      "ard": 140,
      "ght": 141,
      "pro": 142,
      "ould": 143,
      "ab": 144,
      "ect": 145,
      "our": 146,
      "was": 147,
      "with": 148,
      "lo": 149,
      "con": 150,
      "im": 151,
      "ter": 152,
      "ap": 153,
      "po": 154,
      "not": 155,
      "ho": 156,
      "ex": 157,
      "by": 158,
      "la": 159,
      "di": 160,
      "oun": 161,
      "ne": 162,
      "had": 163,
      "tain": 164,
      "are": 165,
      "!\"": 166,
      "ay": 167,
      "they": 168,
      "but": 169,
      "his": 170,
      "ile": 171,
      "ther": 172,
      "bar": 173,
      "qu": 174,
      "ican": 175,
      "ke": 176,
      "us": 177,
      "you": 178,
      "fa": 179,
      "ul": 180,
      "ation": 181,
      "ject": 182,
      "ur": 183,
      "ad": 184,
      "bican": 185,
      "barbican": 186,
      "mp": 187,
      "te": 188,
      "fe": 189,
      "ge": 190,
      "ss": 191,
      "out": 192,
      ",\"": 193,
      "sp": 194,
      "ardan": 195,
      "now": 196,
      "their": 197,
      "moon": 198,
      "this": 199,
      "pre": 200,
      "if": 201,
      "ous": 202,
      "fro": 203,
      "project": 204,
      "ear": 205,
      "end": 206,
      "very": 207,
      "from": 208,
      "red": 209,
      "fo": 210,
      "ate": 211,
      "have": 212,
      "ers": 213,
      "sa": 214,
      "one": 215,
      "them": 216,
      "do": 217,
      "gre": 218,
      "ant": 219,
      "ck": 220,
      "ity": 221,
      ".\"": 222,
      "il": 223,
      "bo": 224,
      "ill": 225,
      "--": 226,
      "ust": 227,
      "ast": 228,
      "could": 229,
      "what": 230,
      "cap": 231,
      "ough": 232,
      "its": 233,
      "et": 234,
      "per": 235,
      "ment": 236,
      "can": 237,
      "sh": 238,
      "tra": 239,
      "sel": 240,
      "ven": 241,
      "art": 242,
      "up": 243,
      "here": 244,
      "ound": 245,
      "able": 246,
      "were": 247,
      "ich": 248,
      "more": 249,
      "ight": 250,
      "ma": 251,
      "which": 252,
      "projectile": 253,
      "would": 254,
      "wor": 255,
      "there": 256,
      "ble": 257,
      "than": 258,
      "?\"": 259,
      "ob": 260,
      "der": 261,
      "her": 262,
      "man": 263,
      "fore": 264,
      "pe": 265,
      "thing": 266,
      "captain": 267,
      "ure": 268,
      "ti": 269,
      "ess": 270,
      "ac": 271,
      "comp": 272,
      "ions": 273,
      "ong": 274,
      "dis": 275,
      "earth": 276,
      "ive": 277,
      "ser": 278,
      "ow": 279,
      "been": 280,
      "sid": 281,
      "um": 282,
      "ak": 283,
      "other": 284,
      "ite": 285,
      "cri": 286,
      "sur": 287,
      "int": 288,
      "see": 289,
      "ag": 290,
      "some": 291,
      "lit": 292,
      "like": 293,
      "light": 294,
      "even": 295,
      "pl": 296,
      "any": 297,
      "who": 298,
      "am": 299,
      "great": 300,
      "ind": 301,
      "est": 302,
      "ally": 303,
      "only": 304,
      "ved": 305,
      "tle": 306,
      "ence": 307,
      "ci": 308,
      "go": 309,
      "him": 310,
      "ach": 311,
      "ans": 312,
      "nic": 313,
      "ull": 314,
      "said": 315,
      "ance": 316,
      "ren": 317,
      "less": 318,
      "most": 319,
      "ked": 320,
      "rep": 321,
      "ber": 322,
      "fri": 323,
      "act": 324,
      "time": 325,
      "face": 326,
      "ated": 327,
      "obser": 328,
      "cried": 329,
      "lun": 330,
      "ving": 331,
      "tr": 332,
      "how": 333,
      "long": 334,
      "my": 335,
      "every": 336,
      "self": 337,
      "ig": 338,
      "mile": 339,
      "about": 340,
      "ph": 341,
      "little": 342,
      "ca": 343,
      "men": 344,
      "way": 345,
      "ish": 346,
      "mar": 347,
      "holl": 348,
      "dist": 349,
      "ine": 350,
      "str": 351,
      "point": 352,
      "must": 353,
      "such": 354,
      "ort": 355,
      "loo": 356,
      "nicholl": 357,
      "friend": 358,
      "ible": 359,
      "ves": 360,
      "when": 361,
      "full": 362,
      "ist": 363,
      "still": 364,
      "lunar": 365,
      "op": 366,
      "ol": 367,
      "ty": 368,
      "day": 369,
      "these": 370,
      "od": 371,
      "ff": 372,
      "surface": 373,
      "know": 374,
      "part": 375,
      "00": 376,
      "ction": 377,
      "well": 378,
      "moun": 379,
      "cer": 380,
      "ary": 381,
      "right": 382,
      "med": 383,
      "tw": 384,
      "your": 385,
      "urn": 386,
      "read": 387,
      "miles": 388,
      "king": 389,
      "pr": 390,
      "vell": 391,
      "ey": 392,
      "sun": 393,
      "ations": 394,
      "should": 395,
      "cl": 396,
      "vi": 397,
      "over": 398,
      "then": 399,
      "com": 400,
      "travell": 401,
      "sha": 402,
      "ass": 403,
      "fir": 404,
      "ted": 405,
      "ting": 406,
      "rest": 407,
      "ever": 408,
      "mountain": 409,
      "gl": 410,
      "gra": 411,
      "min": 412,
      "into": 413,
      "pos": 414,
      "sent": 415,
      "wn": 416,
      "ful": 417,
      "inter": 418,
      "too": 419,
      "travellers": 420,
      "des": 421,
      "where": 422,
      "certain": 423,
      "mu": 424,
      "never": 425,
      "before": 426,
      "off": 427,
      "cont": 428,
      "ater": 429,
      "under": 430,
      "ards": 431,
      "last": 432,
      "cent": 433,
      "nor": 434,
      "come": 435,
      "cor": 436,
      "ling": 437,
      "cul": 438,
      "ten": 439,
      "tion": 440,
      "use": 441,
      "side": 442,
      "cr": 443,
      "gr": 444,
      "rough": 445,
      "let": 446,
      "will": 447,
      "work": 448,
      "led": 449,
      "say": 450,
      "reg": 451,
      "new": 452,
      "af": 453,
      "ep": 454,
      "ms": 455,
      "being": 456,
      "moment": 457,
      "therefore": 458,
      "cal": 459,
      "has": 460,
      "ree": 461,
      "ature": 462,
      "app": 463,
      "velo": 464,
      "ide": 465,
      "first": 466,
      "much": 467,
      "low": 468,
      "coun": 469,
      "ta": 470,
      "through": 471,
      "few": 472,
      "cc": 473,
      "though": 474,
      "cond": 475,
      "air": 476,
      "poss": 477,
      "vis": 478,
      "present": 479,
      "rect": 480,
      "ise": 481,
      "sol": 482,
      "two": 483,
      "far": 484,
      "night": 485,
      "asked": 486,
      "enough": 487,
      "exc": 488,
      "ness": 489,
      "wards": 490,
      "lied": 491,
      "don": 492,
      "turn": 493,
      "get": 494,
      "city": 495,
      "she": 496,
      "ating": 497,
      "les": 498,
      "form": 499,
      "fact": 500,
      "vid": 501,
      "uten": 502,
      "br": 503,
      "cre": 504,
      "ste": 505,
      "ently": 506,
      "ced": 507,
      "ces": 508,
      "hour": 509,
      "ily": 510,
      "ious": 511,
      "ang": 512,
      "ared": 513,
      "fully": 514,
      "after": 515,
      "sci": 516,
      "ub": 517,
      "soon": 518,
      "nothing": 519,
      "hard": 520,
      "igh": 521,
      "ron": 522,
      "tho": 523,
      "den": 524,
      "ts": 525,
      "imp": 526,
      "contin": 527,
      "ys": 528,
      "icul": 529,
      "ses": 530,
      "und": 531,
      "replied": 532,
      "fl": 533,
      "fall": 534,
      "iz": 535,
      "ical": 536,
      "just": 537,
      "may": 538,
      "berg": 539,
      "selves": 540,
      "cid": 541,
      "ink": 542,
      "ston": 543,
      "lect": 544,
      "ext": 545,
      "temp": 546,
      "el": 547,
      "gen": 548,
      "ning": 549,
      "cour": 550,
      "dar": 551,
      "guten": 552,
      "bet": 553,
      "observed": 554,
      "gutenberg": 555,
      "na": 556,
      "llow": 557,
      "quest": 558,
      "ref": 559,
      "second": 560,
      "near": 561,
      "again": 562,
      "eas": 563,
      "mat": 564,
      "par": 565,
      "vo": 566,
      "sphere": 567,
      "friends": 568,
      "velocity": 569,
      "course": 570,
      "ath": 571,
      "bit": 572,
      "did": 573,
      "pt": 574,
      "ably": 575,
      "qui": 576,
      "clo": 577,
      "once": 578,
      "fast": 579,
      "disc": 580,
      "those": 581,
      "mit": 582,
      "hal": 583,
      "why": 584,
      "mountains": 585,
      "hardly": 586,
      "care": 587,
      "around": 588,
      "ice": 589,
      "beg": 590,
      "fi": 591,
      "mis": 592,
      "sou": 593,
      "wever": 594,
      "however": 595,
      "stru": 596,
      "ies": 597,
      "itu": 598,
      "ific": 599,
      "plain": 600,
      "bla": 601,
      "fect": 602,
      "reach": 603,
      "atmo": 604,
      "ase": 605,
      "hap": 606,
      "without": 607,
      "himself": 608,
      "eyes": 609,
      "du": 610,
      "ying": 611,
      "calcul": 612,
      "ack": 613,
      "hand": 614,
      "occ": 615,
      "tak": 616,
      "wer": 617,
      "inst": 618,
      "atch": 619,
      "ens": 620,
      "start": 621,
      "press": 622,
      "ready": 623,
      "found": 624,
      "--\"": 625,
      "made": 626,
      "towards": 627,
      "sub": 628,
      "direct": 629,
      "compan": 630,
      "shall": 631,
      "half": 632,
      "high": 633,
      "pla": 634,
      "port": 635,
      "attra": 636,
      "quite": 637,
      "possible": 638,
      "atmosphere": 639,
      "cle": 640,
      "gi": 641,
      "ory": 642,
      "head": 643,
      "good": 644,
      "marston": 645,
      "continu": 646,
      "om": 647,
      "ense": 648,
      "spe": 649,
      "_m": 650,
      "az": 651,
      "rem": 652,
      "tell": 653,
      "bre": 654,
      "jo": 655,
      "feet": 656,
      "ished": 657,
      "oub": 658,
      "sup": 659,
      "distance": 660,
      "vent": 661,
      "res": 662,
      "row": 663,
      "exp": 664,
      "perfect": 665,
      "ace": 666,
      "car": 667,
      "fren": 668,
      "three": 669,
      "ick": 670,
      "minut": 671,
      "old": 672,
      "sho": 673,
      "exce": 674,
      "themselves": 675,
      "observ": 676,
      "certainly": 677,
      "age": 678,
      "slight": 679,
      "ange": 680,
      "ought": 681,
      "french": 682,
      "call": 683,
      "dy": 684,
      "ie": 685,
      "mor": 686,
      "might": 687,
      "water": 688,
      "least": 689,
      "having": 690,
      "down": 691,
      "own": 692,
      "question": 693,
      "cur": 694,
      "cess": 695,
      "ither": 696,
      "land": 697,
      "vol": 698,
      "rap": 699,
      "cop": 700,
      "decid": 701,
      "same": 702,
      "dark": 703,
      "tim": 704,
      "won": 705,
      "ors": 706,
      "seen": 707,
      "companions": 708,
      "thous": 709,
      "stand": 710,
      "west": 711,
      "col": 712,
      "dif": 713,
      "decided": 714,
      "times": 715,
      "thousand": 716,
      "ding": 717,
      "mid": 718,
      "mous": 719,
      "ple": 720,
      "stre": 721,
      "exact": 722,
      "eye": 723,
      "ded": 724,
      "yet": 725,
      "ins": 726,
      "ason": 727,
      "char": 728,
      "ately": 729,
      "minutes": 730,
      "dden": 731,
      "fur": 732,
      "ip": 733,
      "rup": 734,
      "squ": 735,
      "heat": 736,
      "imed": 737,
      "feren": 738,
      "take": 739,
      "bra": 740,
      "cu": 741,
      "ft": 742,
      "motion": 743,
      "lie": 744,
      "prob": 745,
      "ected": 746,
      "ring": 747,
      "tri": 748,
      "beca": 749,
      "sudden": 750,
      "follow": 751,
      "matter": 752,
      "ged": 753,
      "sate": 754,
      "another": 755,
      "meter": 756,
      "fort": 757,
      "consid": 758,
      "ears": 759,
      "visible": 760,
      "satell": 761,
      "fin": 762,
      "ib": 763,
      "lt": 764,
      "mon": 765,
      "think": 766,
      "make": 767,
      "easily": 768,
      "rapid": 769,
      "gu": 770,
      "nal": 771,
      "pass": 772,
      "sing": 773,
      "show": 774,
      "dear": 775,
      "space": 776,
      "word": 777,
      "world": 778,
      "consider": 779,
      "vers": 780,
      "object": 781,
      "comple": 782,
      "000": 783,
      "hours": 784,
      "continued": 785,
      "each": 786,
      "kind": 787,
      "si": 788,
      "reason": 789,
      "life": 790,
      "gree": 791,
      "ility": 792,
      "whole": 793,
      "ways": 794,
      "differen": 795,
      "che": 796,
      "doub": 797,
      "ped": 798,
      "simp": 799,
      "ition": 800,
      "lying": 801,
      "also": 802,
      "always": 803,
      "ween": 804,
      "wered": 805,
      "north": 806,
      "between": 807,
      "itude": 808,
      "back": 809,
      "sm": 810,
      "val": 811,
      "ited": 812,
      "pose": 813,
      "selen": 814,
      "mark": 815,
      "excla": 816,
      "scient": 817,
      "satellite": 818,
      "away": 819,
      "cir": 820,
      "evid": 821,
      "hund": 822,
      "lat": 823,
      "lic": 824,
      "nature": 825,
      "shad": 826,
      "att": 827,
      "already": 828,
      "means": 829,
      "dep": 830,
      "peri": 831,
      "ments": 832,
      "regard": 833,
      "idea": 834,
      "complete": 835,
      "hundred": 836,
      "flo": 837,
      "mber": 838,
      "ric": 839,
      "order": 840,
      "left": 841,
      "ash": 842,
      "mean": 843,
      "appro": 844,
      "ular": 845,
      "many": 846,
      "bur": 847,
      "ial": 848,
      "spo": 849,
      "vast": 850,
      "eng": 851,
      "habit": 852,
      "almost": 853,
      "body": 854,
      "aks": 855,
      "answered": 856,
      "black": 857,
      "instant": 858,
      "four": 859,
      "line": 860,
      "mer": 861,
      "ry": 862,
      "sat": 863,
      "tal": 864,
      "zling": 865,
      "become": 866,
      "ute": 867,
      "spect": 868,
      "astron": 869,
      "medi": 870,
      "prof": 871,
      "interrup": 872,
      "quiet": 873,
      "attraction": 874,
      "wonder": 875,
      "suddenly": 876,
      "star": 877,
      "toge": 878,
      "appe": 879,
      "reply": 880,
      "subject": 881,
      "clear": 882,
      "together": 883,
      "bed": 884,
      "gn": 885,
      "ton": 886,
      "yes": 887,
      "inhabit": 888,
      "ord": 889,
      "power": 890,
      "plan": 891,
      "_mare": 892,
      "called": 893,
      "bl": 894,
      "done": 895,
      "give": 896,
      "ju": 897,
      "map": 898,
      "inte": 899,
      "resu": 900,
      "itself": 901,
      "set": 902,
      "hel": 903,
      "exist": 904,
      "diff": 905,
      "us_": 906,
      "cks": 907,
      "bot": 908,
      "looked": 909,
      "gener": 910,
      "carefully": 911,
      "began": 912,
      "frenchman": 913,
      "probably": 914,
      "shadow": 915,
      "appeared": 916,
      "adi": 917,
      "cy": 918,
      "jour": 919,
      "sil": 920,
      "ue": 921,
      "ened": 922,
      "sea": 923,
      "terrest": 924,
      "teles": 925,
      "days": 926,
      "approach": 927,
      "terrestri": 928,
      "gun": 929,
      "ral": 930,
      "sto": 931,
      "sure": 932,
      "keep": 933,
      "further": 934,
      "six": 935,
      "num": 936,
      "put": 937,
      "vor": 938,
      "win": 939,
      "often": 940,
      "bel": 941,
      "radi": 942,
      "rays": 943,
      "sides": 944,
      "club": 945,
      "nearly": 946,
      "exactly": 947,
      "exclaimed": 948,
      "astronom": 949,
      "terrestrial": 950,
      "ave": 951,
      "cha": 952,
      "oce": 953,
      "sk": 954,
      "sion": 955,
      "thought": 956,
      "ates": 957,
      "look": 958,
      "works": 959,
      "taken": 960,
      "slightest": 961,
      "rapidly": 962,
      "difficul": 963,
      "au": 964,
      "elect": 965,
      "hu": 966,
      "sound": 967,
      "reme": 968,
      "aters": 969,
      "sum": 970,
      "cho": 971,
      "express": 972,
      "law": 973,
      "ney": 974,
      "everything": 975,
      "ign": 976,
      "bu": 977,
      "ec": 978,
      "equ": 979,
      "gas": 980,
      "tly": 981,
      "ths": 982,
      "ined": 983,
      "oud": 984,
      "asses": 985,
      "sequ": 986,
      "consequ": 987,
      "greater": 988,
      "vie": 989,
      "graph": 990,
      "icular": 991,
      "doubt": 992,
      "completely": 993,
      "journey": 994,
      "east": 995,
      "wr": 996,
      "wall": 997,
      "thir": 998,
      "lay": 999,
      "thern": 1000,
      "favor": 1001,
      "spl": 1002,
      "dow": 1003,
      "both": 1004,
      "crater": 1005,
      "appear": 1006,
      "temper": 1007,
      "morning": 1008,
      "regarding": 1009,
      "window": 1010,
      "belfast": 1011,
      "bright": 1012,
      "case": 1013,
      "either": 1014,
      "find": 1015,
      "ied": 1016,
      "thus": 1017,
      "ene": 1018,
      "arch": 1019,
      "tom": 1020,
      "hea": 1021,
      "altogether": 1022,
      "rather": 1023,
      "pret": 1024,
      "anything": 1025,
      "known": 1026,
      "break": 1027,
      "because": 1028,
      "adily": 1029,
      "view": 1030,
      "bri": 1031,
      "cra": 1032,
      "dra": 1033,
      "eff": 1034,
      "ering": 1035,
      "list": 1036,
      "immedi": 1037,
      "terri": 1038,
      "tered": 1039,
      "disco": 1040,
      "ively": 1041,
      "um_": 1042,
      "umin": 1043,
      "actu": 1044,
      "centre": 1045,
      "clock": 1046,
      "south": 1047,
      "evidently": 1048,
      "quietly": 1049,
      "bal": 1050,
      "daz": 1051,
      "want": 1052,
      "anim": 1053,
      "ites": 1054,
      "ici": 1055,
      "move": 1056,
      "while": 1057,
      "cold": 1058,
      "produ": 1059,
      "uring": 1060,
      "short": 1061,
      "glass": 1062,
      "small": 1063,
      "agree": 1064,
      "bro": 1065,
      "ok": 1066,
      "usu": 1067,
      "rece": 1068,
      "ouble": 1069,
      "hear": 1070,
      "enty": 1071,
      "ssed": 1072,
      "bol": 1073,
      "whose": 1074,
      "try": 1075,
      "longer": 1076,
      "solute": 1077,
      "plains": 1078,
      "satis": 1079,
      "interrupted": 1080,
      "ocean": 1081,
      "dazzling": 1082,
      "gaz": 1083,
      "hor": 1084,
      "mic": 1085,
      "round": 1086,
      "sy": 1087,
      "heart": 1088,
      "weight": 1089,
      "whate": 1090,
      "ribut": 1091,
      "lip": 1092,
      "within": 1093,
      "accor": 1094,
      "amer": 1095,
      "took": 1096,
      "descri": 1097,
      "possib": 1098,
      "occas": 1099,
      "bottom": 1100,
      "human": 1101,
      "splend": 1102,
      "whatever": 1103,
      "five": 1104,
      "sed": 1105,
      "real": 1106,
      "ings": 1107,
      "asure": 1108,
      "heard": 1109,
      "absolute": 1110,
      "lau": 1111,
      "necess": 1112,
      "used": 1113,
      "accoun": 1114,
      "compar": 1115,
      "fire": 1116,
      "expected": 1117,
      "perfectly": 1118,
      "ordin": 1119,
      "interest": 1120,
      "temperature": 1121,
      "free": 1122,
      "gent": 1123,
      "mb": 1124,
      "slow": 1125,
      "ern": 1126,
      "state": 1127,
      "ically": 1128,
      "suff": 1129,
      "succ": 1130,
      "poor": 1131,
      "famous": 1132,
      "felt": 1133,
      "ended": 1134,
      "does": 1135,
      "surpr": 1136,
      "posed": 1137,
      "grand": 1138,
      "better": 1139,
      "place": 1140,
      "portion": 1141,
      "observations": 1142,
      "decidedly": 1143,
      "success": 1144,
      "dim": 1145,
      "lar": 1146,
      "oh": 1147,
      "omen": 1148,
      "ris": 1149,
      "inde": 1150,
      "return": 1151,
      "readily": 1152,
      "anc": 1153,
      "eding": 1154,
      "moving": 1155,
      "lost": 1156,
      "ants": 1157,
      "going": 1158,
      "understand": 1159,
      "craters": 1160,
      "actually": 1161,
      "account": 1162,
      "ordinary": 1163,
      "during": 1164,
      "ered": 1165,
      "han": 1166,
      "next": 1167,
      "ru": 1168,
      "yed": 1169,
      "reve": 1170,
      "remark": 1171,
      "sever": 1172,
      "best": 1173,
      "hael": 1174,
      "wild": 1175,
      "immen": 1176,
      "illust": 1177,
      "ship": 1178,
      "worth": 1179,
      "phi": 1180,
      "distribut": 1181,
      "open": 1182,
      "clu": 1183,
      "tail": 1184,
      "pretty": 1185,
      "terrible": 1186,
      "dre": 1187,
      "hur": 1188,
      "phere": 1189,
      "war": 1190,
      "reco": 1191,
      "ann": 1192,
      "height": 1193,
      "hemis": 1194,
      "dead": 1195,
      "dia": 1196,
      "dire": 1197,
      "neare": 1198,
      "tained": 1199,
      "ush": 1200,
      "adv": 1201,
      "prec": 1202,
      "saw": 1203,
      "book": 1204,
      "something": 1205,
      "particular": 1206,
      "viol": 1207,
      "regular": 1208,
      "turned": 1209,
      "against": 1210,
      "taking": 1211,
      "remain": 1212,
      "sque": 1213,
      "passed": 1214,
      "circ": 1215,
      "suffici": 1216,
      "immense": 1217,
      "hemisphere": 1218,
      "ball": 1219,
      "bul": 1220,
      "emp": 1221,
      "hy": 1222,
      "pair": 1223,
      "va": 1224,
      "vity": 1225,
      "years": 1226,
      "invisible": 1227,
      "is_": 1228,
      "lli": 1229,
      "utral": 1230,
      "cope": 1231,
      "abo": 1232,
      "neutral": 1233,
      "quick": 1234,
      "perhap": 1235,
      "somewhat": 1236,
      "got": 1237,
      "looking": 1238,
      "correct": 1239,
      "solar": 1240,
      "copy": 1241,
      "planet": 1242,
      "telescope": 1243,
      "effect": 1244,
      "michael": 1245,
      "laugh": 1246,
      "several": 1247,
      "direction": 1248,
      "perhaps": 1249,
      "chap": 1250,
      "fif": 1251,
      "gla": 1252,
      "ming": 1253,
      "nat": 1254,
      "ox": 1255,
      "pen": 1256,
      "sc": 1257,
      "sin": 1258,
      "wa": 1259,
      "ison": 1260,
      "allow": 1261,
      "dece": 1262,
      "tering": 1263,
      "grees": 1264,
      "antic": 1265,
      "others": 1266,
      "seemed": 1267,
      "strong": 1268,
      "strange": 1269,
      "voice": 1270,
      "fortun": 1271,
      "different": 1272,
      "scientific": 1273,
      "astronomers": 1274,
      "immediately": 1275,
      "usual": 1276,
      "according": 1277,
      "diameter": 1278,
      "bene": 1279,
      "cke": 1280,
      "catch": 1281,
      "ned": 1282,
      "sor": 1283,
      "sight": 1284,
      "really": 1285,
      "ond": 1286,
      "enor": 1287,
      "enomen": 1288,
      "states": 1289,
      "vered": 1290,
      "cool": 1291,
      "deep": 1292,
      "degrees": 1293,
      "hope": 1294,
      "dies": 1295,
      "kept": 1296,
      "teen": 1297,
      "presid": 1298,
      "ously": 1299,
      "shar": 1300,
      "timore": 1301,
      "disp": 1302,
      "phenomen": 1303,
      "disting": 1304,
      "twenty": 1305,
      "presented": 1306,
      "flu": 1307,
      "ize": 1308,
      "directly": 1309,
      "volcan": 1310,
      "wonderful": 1311,
      "baltimore": 1312,
      "occasion": 1313,
      "enormous": 1314,
      "bloo": 1315,
      "fer": 1316,
      "gli": 1317,
      "glit": 1318,
      "lished": 1319,
      "main": 1320,
      "mind": 1321,
      "path": 1322,
      "ured": 1323,
      "vin": 1324,
      "stri": 1325,
      "ities": 1326,
      "llar": 1327,
      "idge": 1328,
      "susque": 1329,
      "unt": 1330,
      "conf": 1331,
      "peak": 1332,
      "answer": 1333,
      "posse": 1334,
      "science": 1335,
      "reflect": 1336,
      "attract": 1337,
      "speak": 1338,
      "suppose": 1339,
      "shock": 1340,
      "words": 1341,
      "floor": 1342,
      "existence": 1343,
      "electron": 1344,
      "necessary": 1345,
      "hanna": 1346,
      "precise": 1347,
      "chapter": 1348,
      "president": 1349,
      "distingu": 1350,
      "susquehanna": 1351,
      "_susquehanna": 1352,
      "ior": 1353,
      "mi": 1354,
      "pur": 1355,
      "sense": 1356,
      "watch": 1357,
      "ances": 1358,
      "arri": 1359,
      "argu": 1360,
      "bear": 1361,
      "besides": 1362,
      "escap": 1363,
      "rop": 1364,
      "alt": 1365,
      "enter": 1366,
      "detail": 1367,
      "ternal": 1368,
      "hold": 1369,
      "making": 1370,
      "magn": 1371,
      "ople": 1372,
      "vided": 1373,
      "falling": 1374,
      "close": 1375,
      "begin": 1376,
      "calculated": 1377,
      "occup": 1378,
      "given": 1379,
      "selenites": 1380,
      "depths": 1381,
      "sky": 1382,
      "gentle": 1383,
      "bus": 1384,
      "dang": 1385,
      "gs": 1386,
      "hill": 1387,
      "ner": 1388,
      "pa": 1389,
      "pu": 1390,
      "pri": 1391,
      "san": 1392,
      "var": 1393,
      "whe": 1394,
      "went": 1395,
      "seas": 1396,
      "ents": 1397,
      "formed": 1398,
      "ago": 1399,
      "true": 1400,
      "trouble": 1401,
      "came": 1402,
      "ists": 1403,
      "comm": 1404,
      "formation": 1405,
      "seconds": 1406,
      "simple": 1407,
      "help": 1408,
      "general": 1409,
      "slowly": 1410,
      "indeed": 1411,
      "electronic": 1412,
      "_susquehanna_": 1413,
      "18": 1414,
      "bor": 1415,
      "burn": 1416,
      "cing": 1417,
      "glo": 1418,
      "gave": 1419,
      "ks": 1420,
      "kes": 1421,
      "ler": 1422,
      "mill": 1423,
      "pit": 1424,
      "pac": 1425,
      "scre": 1426,
      "ygen": 1427,
      "instru": 1428,
      "requi": 1429,
      "respect": 1430,
      "ict": 1431,
      "road": 1432,
      "liar": 1433,
      "united": 1434,
      "conce": 1435,
      "terms": 1436,
      "neither": 1437,
      "aren": 1438,
      "test": 1439,
      "fee": 1440,
      "ending": 1441,
      "atest": 1442,
      "bodies": 1443,
      "people": 1444,
      "things": 1445,
      "country": 1446,
      "reached": 1447,
      "hands": 1448,
      "venture": 1449,
      "darkness": 1450,
      "difference": 1451,
      "simply": 1452,
      "period": 1453,
      "stars": 1454,
      "equal": 1455,
      "favorable": 1456,
      "brilli": 1457,
      "reveal": 1458,
      "illustr": 1459,
      "sufficient": 1460,
      "bullet": 1461,
      "oxygen": 1462,
      "beneath": 1463,
      "10": 1464,
      "20": 1465,
      "50": 1466,
      "bing": 1467,
      "cut": 1468,
      "ef": 1469,
      "non": 1470,
      "s_": 1471,
      "sign": 1472,
      "influ": 1473,
      "stra": 1474,
      "alle": 1475,
      "ceed": 1476,
      "det": 1477,
      "ability": 1478,
      "log": 1479,
      "imag": 1480,
      "safe": 1481,
      "umb": 1482,
      "intense": 1483,
      "seeing": 1484,
      "gradu": 1485,
      "gravity": 1486,
      "posit": 1487,
      "counter": 1488,
      "getting": 1489,
      "ublic": 1490,
      "extreme": 1491,
      "easy": 1492,
      "foundation": 1493,
      "observation": 1494,
      "streaks": 1495,
      "motionless": 1496,
      "spot": 1497,
      "approaching": 1498,
      "listen": 1499,
      "december": 1500,
      "sharp": 1501,
      "until": 1502,
      "pacific": 1503,
      ".]": 1504,
      "dri": 1505,
      "fr": 1506,
      "hum": 1507,
      "ii": 1508,
      "ian": 1509,
      "ived": 1510,
      "ken": 1511,
      "pie": 1512,
      "run": 1513,
      "ines": 1514,
      "ero": 1515,
      "enthus": 1516,
      "assu": 1517,
      "seven": 1518,
      "below": 1519,
      "met": 1520,
      "rah": 1521,
      "ract": 1522,
      "chie": 1523,
      "uni": 1524,
      "unity": 1525,
      "contra": 1526,
      "hot": 1527,
      "fellow": 1528,
      "pres": 1529,
      "illed": 1530,
      "ounds": 1531,
      "pecu": 1532,
      "peaks": 1533,
      "ishing": 1534,
      "shape": 1535,
      "brought": 1536,
      "flash": 1537,
      "blaz": 1538,
      "remind": 1539,
      "except": 1540,
      "exceeding": 1541,
      "lands": 1542,
      "charact": 1543,
      "tried": 1544,
      "following": 1545,
      "number": 1546,
      "eclip": 1547,
      "movement": 1548,
      "hurrah": 1549,
      "nearer": 1550,
      "circum": 1551,
      "globe": 1552,
      "enthusi": 1553,
      "chief": 1554,
      "peculiar": 1555,
      "aff": 1556,
      "eight": 1557,
      "ging": 1558,
      "har": 1559,
      "ians": 1560,
      "past": 1561,
      "rate": 1562,
      "ward": 1563,
      "ati": 1564,
      "attemp": 1565,
      "stop": 1566,
      "ased": 1567,
      "belie": 1568,
      "rock": 1569,
      "hast": 1570,
      "wel": 1571,
      "ution": 1572,
      "force": 1573,
      "dest": 1574,
      "convin": 1575,
      "exam": 1576,
      "need": 1577,
      "added": 1578,
      "prep": 1579,
      "iled": 1580,
      "illumin": 1581,
      "upon": 1582,
      "ages": 1583,
      "action": 1584,
      "glasses": 1585,
      "position": 1586,
      "bridge": 1587,
      "stead": 1588,
      "name": 1589,
      "southern": 1590,
      "struck": 1591,
      "started": 1592,
      "single": 1593,
      "blind": 1594,
      "silence": 1595,
      "animal": 1596,
      "american": 1597,
      "absolutely": 1598,
      "glimp": 1599,
      "beginning": 1600,
      "danger": 1601,
      "illustration": 1602,
      "12": 1603,
      "ia": 1604,
      "oper": 1605,
      "rs": 1606,
      "situ": 1607,
      "sens": 1608,
      "ump": 1609,
      "ww": 1610,
      "wit": 1611,
      "thro": 1612,
      "ination": 1613,
      "lection": 1614,
      "ics": 1615,
      "vel": 1616,
      "white": 1617,
      "rious": 1618,
      "iron": 1619,
      "quar": 1620,
      "gest": 1621,
      "iling": 1622,
      "boys": 1623,
      "cannot": 1624,
      "forever": 1625,
      "myself": 1626,
      "distant": 1627,
      "opin": 1628,
      "regions": 1629,
      "apparen": 1630,
      "ized": 1631,
      "questions": 1632,
      "directions": 1633,
      "curve": 1634,
      "charge": 1635,
      "square": 1636,
      "became": 1637,
      "bury": 1638,
      "profess": 1639,
      "powerful": 1640,
      "summit": 1641,
      "possibly": 1642,
      "dispatch": 1643,
      "brilliant": 1644,
      "exceedingly": 1645,
      "character": 1646,
      "aw": 1647,
      "cus": 1648,
      "cast": 1649,
      "mr": 1650,
      "nine": 1651,
      "swe": 1652,
      "till": 1653,
      "wind": 1654,
      "thin": 1655,
      "instead": 1656,
      "orig": 1657,
      "ised": 1658,
      "asser": 1659,
      "mete": 1660,
      "meet": 1661,
      "utter": 1662,
      "change": 1663,
      "provided": 1664,
      "ourselves": 1665,
      "contr": 1666,
      "consci": 1667,
      "iment": 1668,
      "post": 1669,
      "que": 1670,
      "outside": 1671,
      "greatest": 1672,
      "ety": 1673,
      "arts": 1674,
      "ures": 1675,
      "serious": 1676,
      "trying": 1677,
      "prin": 1678,
      "ledge": 1679,
      "msbury": 1680,
      "solid": 1681,
      "excite": 1682,
      "izing": 1683,
      "daring": 1684,
      "paralle": 1685,
      "instance": 1686,
      "objects": 1687,
      "latitude": 1688,
      "result": 1689,
      "difficult": 1690,
      "difficulty": 1691,
      "bolide": 1692,
      "large": 1693,
      "advant": 1694,
      "bloomsbury": 1695,
      "glittering": 1696,
      "confid": 1697,
      "precisely": 1698,
      "gradually": 1699,
      "opinion": 1700,
      "origin": 1701,
      "contrary": 1702,
      "15": 1703,
      "16": 1704,
      "_v": 1705,
      "ah": 1706,
      "bound": 1707,
      "da": 1708,
      "ell": 1709,
      "ebook": 1710,
      "fain": 1711,
      "gig": 1712,
      "hou": 1713,
      "iad": 1714,
      "lab": 1715,
      "leng": 1716,
      "ot": 1717,
      "ption": 1718,
      "rid": 1719,
      "tone": 1720,
      "tical": 1721,
      "ught": 1722,
      "yond": 1723,
      "thick": 1724,
      "iness": 1725,
      "incre": 1726,
      "relie": 1727,
      "atus": 1728,
      "org": 1729,
      "orbit": 1730,
      "lear": 1731,
      "isco": 1732,
      "beyond": 1733,
      "rocke": 1734,
      "vest": 1735,
      "ried": 1736,
      "rail": 1737,
      "forth": 1738,
      "proble": 1739,
      "conside": 1740,
      "add": 1741,
      "tele": 1742,
      "feature": 1743,
      "bold": 1744,
      "accomp": 1745,
      "evening": 1746,
      "fright": 1747,
      "trans": 1748,
      "cause": 1749,
      "points": 1750,
      "opport": 1751,
      "interior": 1752,
      "northern": 1753,
      "saying": 1754,
      "import": 1755,
      "discus": 1756,
      "attent": 1757,
      "burst": 1758,
      "numer": 1759,
      "consequence": 1760,
      "heaven": 1761,
      "produced": 1762,
      "satisfact": 1763,
      "syste": 1764,
      "worthy": 1765,
      "copyright": 1766,
      "phenomenon": 1767,
      "whether": 1768,
      "circumst": 1769,
      "conscious": 1770,
      "excitement": 1771,
      "parallel": 1772,
      "considered": 1773,
      "30": 1774,
      "bon": 1775,
      "cro": 1776,
      "knew": 1777,
      "pers": 1778,
      "pull": 1779,
      "ror": 1780,
      "son": 1781,
      "sof": 1782,
      "tre": 1783,
      "year": 1784,
      "yards": 1785,
      "throw": 1786,
      "theory": 1787,
      "init": 1788,
      "intell": 1789,
      "ana": 1790,
      "ator": 1791,
      "ences": 1792,
      "arr": 1793,
      "ask": 1794,
      "uttered": 1795,
      "ramp": 1796,
      "ched": 1797,
      "unless": 1798,
      "deter": 1799,
      "absor": 1800,
      "pole": 1801,
      "extra": 1802,
      "external": 1803,
      "capable": 1804,
      "acce": 1805,
      "surround": 1806,
      "plate": 1807,
      "tran": 1808,
      "comb": 1809,
      "coming": 1810,
      "flat": 1811,
      "columb": 1812,
      "midnight": 1813,
      "followed": 1814,
      "scientists": 1815,
      "floating": 1816,
      "talk": 1817,
      "wrong": 1818,
      "agreement": 1819,
      "comparison": 1820,
      "surprise": 1821,
      "emplo": 1822,
      "details": 1823,
      "quarter": 1824,
      "professor": 1825,
      "princi": 1826,
      "length": 1827,
      "intellig": 1828,
      "columbiad": 1829,
      ";\"": 1830,
      "a_": 1831,
      "ax": 1832,
      "cou": 1833,
      "fla": 1834,
      "ger": 1835,
      "gged": 1836,
      "mur": 1837,
      "nam": 1838,
      "os": 1839,
      "py": 1840,
      "ping": 1841,
      "rise": 1842,
      "smo": 1843,
      "table": 1844,
      "rese": 1845,
      "enjo": 1846,
      "ster": 1847,
      "iting": 1848,
      "itions": 1849,
      "orious": 1850,
      "leep": 1851,
      "lly": 1852,
      "ication": 1853,
      "chan": 1854,
      "lies": 1855,
      "death": 1856,
      "proved": 1857,
      "pow": 1858,
      "adventure": 1859,
      "feel": 1860,
      "prevent": 1861,
      "mach": 1862,
      "render": 1863,
      "pointed": 1864,
      "tycho": 1865,
      "glance": 1866,
      "cular": 1867,
      "grou": 1868,
      "lower": 1869,
      "excited": 1870,
      "cident": 1871,
      "careful": 1872,
      "struct": 1873,
      "occur": 1874,
      "starting": 1875,
      "highly": 1876,
      "shot": 1877,
      "showed": 1878,
      "latter": 1879,
      "license": 1880,
      "engine": 1881,
      "inhabitants": 1882,
      "laws": 1883,
      "buo": 1884,
      "thirty": 1885,
      "glare": 1886,
      "fortunately": 1887,
      "possess": 1888,
      "altitude": 1889,
      "magnific": 1890,
      "gentlemen": 1891,
      "puz": 1892,
      "glimpse": 1893,
      "rockets": 1894,
      "initial": 1895,
      "ramparts": 1896,
      "13": 1897,
      "cam": 1898,
      "drop": 1899,
      "fre": 1900,
      "fate": 1901,
      "gro": 1902,
      "ith": 1903,
      "ild": 1904,
      "ls": 1905,
      "lu": 1906,
      "loud": 1907,
      "mort": 1908,
      "ometer": 1909,
      "public": 1910,
      "send": 1911,
      "trem": 1912,
      "ual": 1913,
      "ume": 1914,
      "vain": 1915,
      "wo": 1916,
      "thor": 1917,
      "recor": 1918,
      "asm": 1919,
      "secre": 1920,
      "along": 1921,
      "vely": 1922,
      "mere": 1923,
      "util": 1924,
      "rage": 1925,
      "prot": 1926,
      "contemp": 1927,
      "convers": 1928,
      "laid": 1929,
      "diana": 1930,
      "usion": 1931,
      "admit": 1932,
      "foot": 1933,
      "board": 1934,
      "disappeared": 1935,
      "seems": 1936,
      "ams": 1937,
      "report": 1938,
      "partic": 1939,
      "appar": 1940,
      "turning": 1941,
      "giving": 1942,
      "supp": 1943,
      "copes": 1944,
      "standing": 1945,
      "western": 1946,
      "pleasure": 1947,
      "finally": 1948,
      "talking": 1949,
      "profound": 1950,
      "telescopes": 1951,
      "third": 1952,
      "discover": 1953,
      "dimin": 1954,
      "above": 1955,
      "influence": 1956,
      "straight": 1957,
      "ceeded": 1958,
      "opportunity": 1959,
      "attention": 1960,
      "group": 1961,
      "cambridge": 1962,
      "conversation": 1963,
      "40": 1964,
      "_tycho": 1965,
      "cla": 1966,
      "lof": 1967,
      "ograph": 1968,
      "pet": 1969,
      "pure": 1970,
      "pounds": 1971,
      "sl": 1972,
      "vap": 1973,
      "ret": 1974,
      "ery": 1975,
      "engl": 1976,
      "alone": 1977,
      "alive": 1978,
      "moved": 1979,
      "veget": 1980,
      "suc": 1981,
      "rig": 1982,
      "coast": 1983,
      "forget": 1984,
      "develo": 1985,
      "proper": 1986,
      "concer": 1987,
      "impossible": 1988,
      "notic": 1989,
      "exper": 1990,
      "explain": 1991,
      "ounced": 1992,
      "quit": 1993,
      "preci": 1994,
      "access": 1995,
      "likely": 1996,
      "phy": 1997,
      "reader": 1998,
      "comes": 1999,
      "firm": 2000,
      "glorious": 2001,
      "calm": 2002,
      "former": 2003,
      "steep": 2004,
      "else": 2005,
      "nautil": 2006,
      "due": 2007,
      "calculation": 2008,
      "volume": 2009,
      "valle": 2010,
      "inhabitable": 2011,
      "consequently": 2012,
      "walls": 2013,
      "breakfast": 2014,
      "drawn": 2015,
      "splendid": 2016,
      "comparat": 2017,
      "ancisco": 2018,
      "fifty": 2019,
      "volcano": 2020,
      "occasionally": 2021,
      "enterpr": 2022,
      "commun": 2023,
      "detect": 2024,
      "francisco": 2025,
      "pressure": 2026,
      "meteor": 2027,
      "gigantic": 2028,
      "house": 2029,
      "problem": 2030,
      "circumstances": 2031,
      "adventurers": 2032,
      "magnificent": 2033,
      "apparatus": 2034,
      "17": 2035,
      "aut": 2036,
      "cli": 2037,
      "crow": 2038,
      "ds": 2039,
      "eld": 2040,
      "fig": 2041,
      "ges": 2042,
      "gul": 2043,
      "hon": 2044,
      "ire": 2045,
      "ier": 2046,
      "ium_": 2047,
      "later": 2048,
      "mist": 2049,
      "pal": 2050,
      "pap": 2051,
      "pay": 2052,
      "smile": 2053,
      "tou": 2054,
      "vac": 2055,
      "winter": 2056,
      "zen": 2057,
      "inclu": 2058,
      "anci": 2059,
      "atory": 2060,
      "arms": 2061,
      "measure": 2062,
      "chron": 2063,
      "forty": 2064,
      "forces": 2065,
      "soci": 2066,
      "del": 2067,
      "degree": 2068,
      "conclu": 2069,
      "lava": 2070,
      "die": 2071,
      "ury": 2072,
      "fear": 2073,
      "endous": 2074,
      "antly": 2075,
      "boy": 2076,
      "herself": 2077,
      "agra": 2078,
      "lights": 2079,
      "myster": 2080,
      "comfort": 2081,
      "internal": 2082,
      "offic": 2083,
      "donations": 2084,
      "reflection": 2085,
      "void": 2086,
      "mission": 2087,
      "reaching": 2088,
      "calculate": 2089,
      "calculations": 2090,
      "acknow": 2091,
      "higher": 2092,
      "heads": 2093,
      "carried": 2094,
      "color": 2095,
      "midst": 2096,
      "brain": 2097,
      "triump": 2098,
      "finite": 2099,
      "depth": 2100,
      "instantly": 2101,
      "generally": 2102,
      "shadows": 2103,
      "stood": 2104,
      "appearance": 2105,
      "cracks": 2106,
      "smaller": 2107,
      "brown": 2108,
      "surprised": 2109,
      "remarkable": 2110,
      "philo": 2111,
      "violent": 2112,
      "laughed": 2113,
      "since": 2114,
      "pitch": 2115,
      "required": 2116,
      "feeling": 2117,
      "counteract": 2118,
      "attempt": 2119,
      "believe": 2120,
      "prepared": 2121,
      "railroad": 2122,
      "telegraph": 2123,
      "important": 2124,
      "satisfactory": 2125,
      "powder": 2126,
      "tremendous": 2127,
      "english": 2128,
      "experiment": 2129,
      "nautilus": 2130,
      "enterprise": 2131,
      "gulf": 2132,
      "),": 2133,
      "_co": 2134,
      "bly": 2135,
      "blo": 2136,
      "base": 2137,
      "d_": 2138,
      "em": 2139,
      "ele": 2140,
      "ether": 2141,
      "fle": 2142,
      "fut": 2143,
      "fun": 2144,
      "furn": 2145,
      "flying": 2146,
      "gri": 2147,
      "gloo": 2148,
      "iv": 2149,
      "lumin": 2150,
      "mass": 2151,
      "oon": 2152,
      "pract": 2153,
      "ran": 2154,
      "size": 2155,
      "uced": 2156,
      "wid": 2157,
      "ze": 2158,
      "thod": 2159,
      "inct": 2160,
      "inch": 2161,
      "indi": 2162,
      "information": 2163,
      "ening": 2164,
      "enses": 2165,
      "itat": 2166,
      "itable": 2167,
      "whir": 2168,
      "whil": 2169,
      "method": 2170,
      "demark": 2171,
      "ours": 2172,
      "const": 2173,
      "notice": 2174,
      "ult": 2175,
      "ural": 2176,
      "tee": 2177,
      "spar": 2178,
      "spir": 2179,
      "iful": 2180,
      "sail": 2181,
      "bow": 2182,
      "trademark": 2183,
      "worse": 2184,
      "obli": 2185,
      "ager": 2186,
      "aged": 2187,
      "liter": 2188,
      "among": 2189,
      "caught": 2190,
      "marked": 2191,
      "distur": 2192,
      "vessel": 2193,
      "cloud": 2194,
      "commit": 2195,
      "centric": 2196,
      "cry": 2197,
      "crust": 2198,
      "anged": 2199,
      "continents": 2200,
      "izon": 2201,
      "stony": 2202,
      "paragra": 2203,
      "closed": 2204,
      "fied": 2205,
      "field": 2206,
      "resist": 2207,
      "excell": 2208,
      "street": 2209,
      "jump": 2210,
      "maps": 2211,
      "electric": 2212,
      "remember": 2213,
      "expression": 2214,
      "horizon": 2215,
      "describe": 2216,
      "possibility": 2217,
      "particularly": 2218,
      "balloon": 2219,
      "hyper": 2220,
      "quickly": 2221,
      "volcanic": 2222,
      "attractions": 2223,
      "speaking": 2224,
      "vari": 2225,
      "millions": 2226,
      "revealed": 2227,
      "imagine": 2228,
      "positively": 2229,
      "extremely": 2230,
      "situation": 2231,
      "learned": 2232,
      "vestig": 2233,
      "system": 2234,
      "arrange": 2235,
      "extraordinary": 2236,
      "names": 2237,
      "contempl": 2238,
      "vacu": 2239,
      "chronometer": 2240,
      "brownson": 2241,
      "whilst": 2242,
      "paragraph": 2243,
      ".,": 2244,
      "bat": 2245,
      "fat": 2246,
      "gg": 2247,
      "gone": 2248,
      "grow": 2249,
      "hun": 2250,
      "sis": 2251,
      "sim": 2252,
      "ura": 2253,
      "van": 2254,
      "youn": 2255,
      "zero": 2256,
      "ining": 2257,
      "investig": 2258,
      "ancy": 2259,
      "envelo": 2260,
      "edler": 2261,
      "leave": 2262,
      "ices": 2263,
      "separ": 2264,
      "es_": 2265,
      "noon": 2266,
      "ross": 2267,
      "held": 2268,
      "alo": 2269,
      "meant": 2270,
      "vertical": 2271,
      "rill": 2272,
      "unexpected": 2273,
      "forgot": 2274,
      "depress": 2275,
      "hood": 2276,
      "diver": 2277,
      "taining": 2278,
      "fair": 2279,
      "fail": 2280,
      "faces": 2281,
      "ify": 2282,
      "ified": 2283,
      "ends": 2284,
      "sav": 2285,
      "themat": 2286,
      "dollar": 2287,
      "boat": 2288,
      "pernic": 2289,
      "mac": 2290,
      "mathemat": 2291,
      "acle": 2292,
      "across": 2293,
      "compre": 2294,
      "displa": 2295,
      "amed": 2296,
      "longitude": 2297,
      "mount": 2298,
      "posing": 2299,
      "comet": 2300,
      "condition": 2301,
      "fallen": 2302,
      "ensions": 2303,
      "breath": 2304,
      "observatory": 2305,
      "midship": 2306,
      "trip": 2307,
      "considerably": 2308,
      "reasons": 2309,
      "cheer": 2310,
      "selenite": 2311,
      "circular": 2312,
      "ashed": 2313,
      "clearly": 2314,
      "jud": 2315,
      "silent": 2316,
      "radiating": 2317,
      "astronomer": 2318,
      "eastern": 2319,
      "archive": 2320,
      "received": 2321,
      "gazing": 2322,
      "splendor": 2323,
      "recogn": 2324,
      "ushed": 2325,
      "fifteen": 2326,
      "natural": 2327,
      "arrived": 2328,
      "piece": 2329,
      "eclipse": 2330,
      "enthusiasm": 2331,
      "convinced": 2332,
      "witness": 2333,
      "apparently": 2334,
      "thinking": 2335,
      "advantage": 2336,
      "determin": 2337,
      "puzzling": 2338,
      "mortal": 2339,
      "supply": 2340,
      "lofty": 2341,
      "vapor": 2342,
      "retard": 2343,
      "valley": 2344,
      "comparatively": 2345,
      "mysterious": 2346,
      "philoso": 2347,
      "luminous": 2348,
      "literary": 2349,
      "excellent": 2350,
      "vacuum": 2351,
      "midshipman": 2352,
      "_new": 2353,
      "ban": 2354,
      "bay": 2355,
      "cil": 2356,
      "double": 2357,
      "eu": 2358,
      "fra": 2359,
      "fric": 2360,
      "gal": 2361,
      "hing": 2362,
      "hind": 2363,
      "lines": 2364,
      "mir": 2365,
      "mast": 2366,
      "mits": 2367,
      "none": 2368,
      "pho": 2369,
      "sand": 2370,
      "sig": 2371,
      "sca": 2372,
      "scent": 2373,
      "swall": 2374,
      "tions": 2375,
      "twel": 2376,
      "wise": 2377,
      "yor": 2378,
      "incident": 2379,
      "revol": 2380,
      "ane": 2381,
      "stu": 2382,
      "orb": 2383,
      "level": 2384,
      "ico": 2385,
      "section": 2386,
      "beer": 2387,
      "beaut": 2388,
      "behind": 2389,
      "roll": 2390,
      "room": 2391,
      "hest": 2392,
      "mometer": 2393,
      "whis": 2394,
      "mel": 2395,
      "river": 2396,
      "race": 2397,
      "ching": 2398,
      "child": 2399,
      "lif": 2400,
      "living": 2401,
      "limit": 2402,
      "covered": 2403,
      "sole": 2404,
      "depart": 2405,
      "proof": 2406,
      "proce": 2407,
      "lose": 2408,
      "losing": 2409,
      "cone": 2410,
      "contained": 2411,
      "impress": 2412,
      "note": 2413,
      "explan": 2414,
      "lake": 2415,
      "nest": 2416,
      "thermometer": 2417,
      "spite": 2418,
      "spring": 2419,
      "preca": 2420,
      "early": 2421,
      "grew": 2422,
      "ilar": 2423,
      "perce": 2424,
      "train": 2425,
      "maedler": 2426,
      "manner": 2427,
      "company": 2428,
      "seem": 2429,
      "tru": 2430,
      "prison": 2431,
      "deser": 2432,
      "despair": 2433,
      "central": 2434,
      "useless": 2435,
      "grat": 2436,
      "willing": 2437,
      "beings": 2438,
      "vision": 2439,
      "visions": 2440,
      "shell": 2441,
      "forming": 2442,
      "utenant": 2443,
      "steam": 2444,
      "undoub": 2445,
      "didn": 2446,
      "struction": 2447,
      "specul": 2448,
      "brea": 2449,
      "explo": 2450,
      "mighty": 2451,
      "pleas": 2452,
      "brave": 2453,
      "lieutenant": 2454,
      "consideration": 2455,
      "resumed": 2456,
      "bottle": 2457,
      "chains": 2458,
      "crack": 2459,
      "discovered": 2460,
      "gazed": 2461,
      "remained": 2462,
      "quicker": 2463,
      "distinguish": 2464,
      "distinguished": 2465,
      "purpose": 2466,
      "watching": 2467,
      "argument": 2468,
      "escaped": 2469,
      "business": 2470,
      "million": 2471,
      "screw": 2472,
      "instrument": 2473,
      "logical": 2474,
      "humor": 2475,
      "blazing": 2476,
      "landscap": 2477,
      "rocky": 2478,
      "illuminated": 2479,
      "original": 2480,
      "_v_": 2481,
      "relief": 2482,
      "courage": 2483,
      "murphy": 2484,
      "engineer": 2485,
      "triumph": 2486,
      "_copernic": 2487,
      "friction": 2488,
      "swallow": 2489,
      "york": 2490,
      "undoubted": 2491,
      "25": 2492,
      "_ap": 2493,
      "amp": 2494,
      "bir": 2495,
      "fu": 2496,
      "fit": 2497,
      "hig": 2498,
      "killed": 2499,
      "lon": 2500,
      "mine": 2501,
      "nect": 2502,
      "pes": 2503,
      "pend": 2504,
      "rub": 2505,
      "snow": 2506,
      "infinite": 2507,
      "rel": 2508,
      "resp": 2509,
      "anx": 2510,
      "ative": 2511,
      "ency": 2512,
      "stor": 2513,
      "iter": 2514,
      "orter": 2515,
      "orable": 2516,
      "lea": 2517,
      "lead": 2518,
      "ision": 2519,
      "asc": 2520,
      "ictly": 2521,
      "search": 2522,
      "roy": 2523,
      "alar": 2524,
      "union": 2525,
      "dered": 2526,
      "proportion": 2527,
      "abled": 2528,
      "construct": 2529,
      "imbri": 2530,
      "hole": 2531,
      "experi": 2532,
      "neigh": 2533,
      "faction": 2534,
      "admi": 2535,
      "reduced": 2536,
      "dog": 2537,
      "doing": 2538,
      "green": 2539,
      "---": 2540,
      "astic": 2541,
      "perpend": 2542,
      "cannon": 2543,
      "trace": 2544,
      "makes": 2545,
      "tive": 2546,
      "somewhere": 2547,
      "plic": 2548,
      "plun": 2549,
      "estab": 2550,
      "repla": 2551,
      "observers": 2552,
      "strictly": 2553,
      "isted": 2554,
      "knows": 2555,
      "party": 2556,
      "yours": 2557,
      "vivid": 2558,
      "ground": 2559,
      "appears": 2560,
      "visit": 2561,
      "iously": 2562,
      "angu": 2563,
      "afterwards": 2564,
      "joy": 2565,
      "shores": 2566,
      "fined": 2567,
      "ibly": 2568,
      "considerable": 2569,
      "selenograph": 2570,
      "spoke": 2571,
      "starry": 2572,
      "resul": 2573,
      "chair": 2574,
      "author": 2575,
      "windows": 2576,
      "discovery": 2577,
      "satisfaction": 2578,
      "gaze": 2579,
      "hearts": 2580,
      "interesting": 2581,
      "mbers": 2582,
      "hypo": 2583,
      "effects": 2584,
      "natura": 2585,
      "striking": 2586,
      "possessed": 2587,
      "arguments": 2588,
      "escape": 2589,
      "safely": 2590,
      "uniform": 2591,
      "hastily": 2592,
      "www": 2593,
      "thrown": 2594,
      "sweet": 2595,
      "dama": 2596,
      "faint": 2597,
      "accomplished": 2598,
      "tranqu": 2599,
      "osity": 2600,
      "buoy": 2601,
      "_tycho_": 2602,
      "vegetation": 2603,
      "comfortable": 2604,
      "acknowledge": 2605,
      "future": 2606,
      "practical": 2607,
      "itatis_": 2608,
      "spark": 2609,
      "hyperbo": 2610,
      "arrangement": 2611,
      "young": 2612,
      "compreh": 2613,
      "witnessed": 2614,
      "signal": 2615,
      "twelve": 2616,
      "_copernicus_": 2617,
      "imbrium_": 2618,
      "neighbor": 2619,
      "perpendicular": 2620,
      "35": 2621,
      "_p": 2622,
      "_al": 2623,
      "aid": 2624,
      "ade": 2625,
      "awn": 2626,
      "cred": 2627,
      "dle": 2628,
      "e_": 2629,
      "fare": 2630,
      "filled": 2631,
      "gy": 2632,
      "gor": 2633,
      "gain": 2634,
      "hes": 2635,
      "lain": 2636,
      "mn": 2637,
      "pain": 2638,
      "sch": 2639,
      "sleep": 2640,
      "tint": 2641,
      "ufact": 2642,
      "vy": 2643,
      "vig": 2644,
      "vide": 2645,
      "wand": 2646,
      "wide": 2647,
      "wings": 2648,
      "x_": 2649,
      "xx": 2650,
      "zy": 2651,
      "thy": 2652,
      "thre": 2653,
      "thou": 2654,
      "incess": 2655,
      "repe": 2656,
      "enabled": 2657,
      "top": 2658,
      "issu": 2659,
      "asp": 2660,
      "noise": 2661,
      "roared": 2662,
      "rocks": 2663,
      "alter": 2664,
      "modif": 2665,
      "weigh": 2666,
      "verse": 2667,
      "sug": 2668,
      "utions": 2669,
      "rain": 2670,
      "unknown": 2671,
      "unfortunately": 2672,
      "formu": 2673,
      "forts": 2674,
      "delight": 2675,
      "devo": 2676,
      "defect": 2677,
      "prove": 2678,
      "provide": 2679,
      "lot": 2680,
      "loss": 2681,
      "exting": 2682,
      "net": 2683,
      "using": 2684,
      "gebra": 2685,
      "preh": 2686,
      "prefer": 2687,
      "ifying": 2688,
      "earnest": 2689,
      "usted": 2690,
      "shif": 2691,
      "track": 2692,
      "worst": 2693,
      "working": 2694,
      "hero": 2695,
      "manufact": 2696,
      "ties": 2697,
      "compared": 2698,
      "served": 2699,
      "sometimes": 2700,
      "gold": 2701,
      "nice": 2702,
      "rent": 2703,
      "phys": 2704,
      "oppos": 2705,
      "glory": 2706,
      "contact": 2707,
      "nights": 2708,
      "crescent": 2709,
      "continent": 2710,
      "refund": 2711,
      "happy": 2712,
      "gives": 2713,
      "speed": 2714,
      "rows": 2715,
      "carry": 2716,
      "curves": 2717,
      "colors": 2718,
      "curi": 2719,
      "probability": 2720,
      "month": 2721,
      "singular": 2722,
      "shows": 2723,
      "evident": 2724,
      "attach": 2725,
      "medium": 2726,
      "jules": 2727,
      "stock": 2728,
      "immediate": 2729,
      "broken": 2730,
      "recei": 2731,
      "receive": 2732,
      "described": 2733,
      "humanity": 2734,
      "successful": 2735,
      "rising": 2736,
      "rugged": 2737,
      "distributing": 2738,
      "recover": 2739,
      "pencil": 2740,
      "allowed": 2741,
      "fortunate": 2742,
      "phenomena": 2743,
      "maintained": 2744,
      "strike": 2745,
      "hills": 2746,
      "paid": 2747,
      "priv": 2748,
      "prime": 2749,
      "various": 2750,
      "burned": 2751,
      "instruments": 2752,
      "require": 2753,
      "efforts": 2754,
      "running": 2755,
      "examined": 2756,
      "blinding": 2757,
      "labors": 2758,
      "addition": 2759,
      "features": 2760,
      "discussion": 2761,
      "numerous": 2762,
      "person": 2763,
      "absorbed": 2764,
      "plateau": 2765,
      "employed": 2766,
      "secret": 2767,
      "succeeded": 2768,
      "communication": 2769,
      "including": 2770,
      "pitchy": 2771,
      "width": 2772,
      "disturbed": 2773,
      "committee": 2774,
      "dollars": 2775,
      "scale": 2776,
      "departure": 2777,
      "explanation": 2778,
      "highest": 2779,
      "naturally": 2780,
      "neighborhood": 2781,
      "formula": 2782,
      "extingu": 2783,
      "opposite": 2784,
      "11": 2785,
      "400": 2786,
      "_ar": 2787,
      "_car": 2788,
      "ather": 2789,
      "bs": 2790,
      "border": 2791,
      "dr": 2792,
      "din": 2793,
      "dut": 2794,
      "dder": 2795,
      "ek": 2796,
      "een": 2797,
      "emin": 2798,
      "eternal": 2799,
      "fancy": 2800,
      "gle": 2801,
      "hence": 2802,
      "hang": 2803,
      "i_": 2804,
      "ime": 2805,
      "ifor": 2806,
      "jup": 2807,
      "ky": 2808,
      "lish": 2809,
      "llect": 2810,
      "mut": 2811,
      "mus": 2812,
      "mad": 2813,
      "masses": 2814,
      "nub": 2815,
      "oting": 2816,
      "pi": 2817,
      "pment": 2818,
      "rang": 2819,
      "rush": 2820,
      "senses": 2821,
      "uct": 2822,
      "wish": 2823,
      "waters": 2824,
      "yawn": 2825,
      "zing": 2826,
      "inex": 2827,
      "incl": 2828,
      "inside": 2829,
      "invent": 2830,
      "rene": 2831,
      "anced": 2832,
      "enn": 2833,
      "enable": 2834,
      "aring": 2835,
      "stain": 2836,
      "itation": 2837,
      "told": 2838,
      "asing": 2839,
      "ascertain": 2840,
      "ica": 2841,
      "icy": 2842,
      "icated": 2843,
      "bewild": 2844,
      "becoming": 2845,
      "becomes": 2846,
      "espe": 2847,
      "algebra": 2848,
      "weak": 2849,
      "meas": 2850,
      "mechan": 2851,
      "ides": 2852,
      "cele": 2853,
      "sul": 2854,
      "super": 2855,
      "superi": 2856,
      "utmost": 2857,
      "ray": 2858,
      "allu": 2859,
      "unanim": 2860,
      "deck": 2861,
      "absur": 2862,
      "washing": 2863,
      "concus": 2864,
      "image": 2865,
      "notes": 2866,
      "home": 2867,
      "ladel": 2868,
      "quant": 2869,
      "advis": 2870,
      "fell": 2871,
      "fered": 2872,
      "previ": 2873,
      "prepar": 2874,
      "focus": 2875,
      "ers_": 2876,
      "oney": 2877,
      "ils": 2878,
      "aston": 2879,
      "permit": 2880,
      "shout": 2881,
      "maj": 2882,
      "worked": 2883,
      "heral": 2884,
      "complain": 2885,
      "otherwise": 2886,
      "intended": 2887,
      "plenty": 2888,
      "estim": 2889,
      "cially": 2890,
      "observer": 2891,
      "ignor": 2892,
      "phr": 2893,
      "knowledge": 2894,
      "parts": 2895,
      "yourself": 2896,
      "reading": 2897,
      "commen": 2898,
      "common": 2899,
      "interposed": 2900,
      "desc": 2901,
      "descent": 2902,
      "desire": 2903,
      "undertaken": 2904,
      "tenance": 2905,
      "gry": 2906,
      "grant": 2907,
      "news": 2908,
      "moments": 2909,
      "califor": 2910,
      "farther": 2911,
      "bring": 2912,
      "sooner": 2913,
      "paris": 2914,
      "sought": 2915,
      "startling": 2916,
      "places": 2917,
      "continually": 2918,
      "spec": 2919,
      "ield": 2920,
      "copies": 2921,
      "thousands": 2922,
      "curious": 2923,
      "mont": 2924,
      "guess": 2925,
      "check": 2926,
      "attended": 2927,
      "hundreds": 2928,
      "burg": 2929,
      "spots": 2930,
      "blackness": 2931,
      "inhabited": 2932,
      "orders": 2933,
      "intellect": 2934,
      "approached": 2935,
      "radiation": 2936,
      "finding": 2937,
      "draw": 2938,
      "produce": 2939,
      "bolts": 2940,
      "lips": 2941,
      "america": 2942,
      "interested": 2943,
      "dimensions": 2944,
      "phia": 2945,
      "philadel": 2946,
      "distribution": 2947,
      "warm": 2948,
      "nearest": 2949,
      "violence": 2950,
      "regularly": 2951,
      "planets": 2952,
      "planetary": 2953,
      "scene": 2954,
      "cooling": 2955,
      "reflecting": 2956,
      "pursu": 2957,
      "arrival": 2958,
      "occupied": 2959,
      "busy": 2960,
      "burning": 2961,
      "effort": 2962,
      "pieces": 2963,
      "eroid": 2964,
      "contrad": 2965,
      "flashed": 2966,
      "blazed": 2967,
      "convince": 2968,
      "illumination": 2969,
      "operation": 2970,
      "apparent": 2971,
      "aware": 2972,
      "assertion": 2973,
      "meeting": 2974,
      "ellip": 2975,
      "labor": 2976,
      "increasing": 2977,
      "organ": 2978,
      "frightful": 2979,
      "heavenly": 2980,
      "consciousness": 2981,
      "crossed": 2982,
      "surrounded": 2983,
      "principle": 2984,
      "axis": 2985,
      "resemb": 2986,
      "channe": 2987,
      "dropped": 2988,
      "noticed": 2989,
      "crowd": 2990,
      "ancient": 2991,
      "concluded": 2992,
      "fearful": 2993,
      "grim": 2994,
      "meantime": 2995,
      "determined": 2996,
      "master": 2997,
      "beautiful": 2998,
      "explosion": 2999,
      "storm": 3000,
      "tranquill": 3001,
      "farewell": 3002,
      "curiosity": 3003,
      "secretary": 3004,
      "jupiter": 3005,
      "nubium_": 3006,
      "especially": 3007,
      "superior": 3008,
      "absurd": 3009,
      "washington": 3010,
      "concussion": 3011,
      "californ": 3012,
      "philadelphia": 3013,
      "**": 3014,
      "_r": 3015,
      "_s": 3016,
      "_x_": 3017,
      "ahead": 3018,
      "bits": 3019,
      "blast": 3020,
      "blow": 3021,
      "cated": 3022,
      "dust": 3023,
      "dry": 3024,
      "eat": 3025,
      "eager": 3026,
      "fic": 3027,
      "fish": 3028,
      "flow": 3029,
      "gently": 3030,
      "ium": 3031,
      "kins": 3032,
      "lately": 3033,
      "langu": 3034,
      "mou": 3035,
      "mater": 3036,
      "muttered": 3037,
      "nation": 3038,
      "omy": 3039,
      "pan": 3040,
      "pas": 3041,
      "page": 3042,
      "pict": 3043,
      "rit": 3044,
      "rant": 3045,
      "sw": 3046,
      "sit": 3047,
      "swit": 3048,
      "wast": 3049,
      "ye": 3050,
      "yield": 3051,
      "thunder": 3052,
      "thesis": 3053,
      "infer": 3054,
      "regre": 3055,
      "represent": 3056,
      "repose": 3057,
      "relat": 3058,
      "remarked": 3059,
      "ancho": 3060,
      "ons": 3061,
      "erup": 3062,
      "ener": 3063,
      "ars": 3064,
      "arrow": 3065,
      "edge": 3066,
      "sts": 3067,
      "stout": 3068,
      "stren": 3069,
      "story": 3070,
      "ingen": 3071,
      "orid": 3072,
      "tot": 3073,
      "tograph": 3074,
      "islands": 3075,
      "asms": 3076,
      "asleep": 3077,
      "associ": 3078,
      "seld": 3079,
      "behold": 3080,
      "beams": 3081,
      "rose": 3082,
      "mole": 3083,
      "mother": 3084,
      "meal": 3085,
      "idly": 3086,
      "ident": 3087,
      "vern": 3088,
      "susp": 3089,
      "sustain": 3090,
      "rier": 3091,
      "racy": 3092,
      "chasms": 3093,
      "lius": 3094,
      "limb": 3095,
      "cot": 3096,
      "coll": 3097,
      "irous": 3098,
      "uninhabitable": 3099,
      "unwilling": 3100,
      "devi": 3101,
      "promp": 3102,
      "abol": 3103,
      "abund": 3104,
      "conject": 3105,
      "pop": 3106,
      "pot": 3107,
      "lamp": 3108,
      "ouncing": 3109,
      "iles": 3110,
      "fah": 3111,
      "admir": 3112,
      "outline": 3113,
      "spent": 3114,
      "preva": 3115,
      "endless": 3116,
      "sake": 3117,
      "greed": 3118,
      "gress": 3119,
      "-----": 3120,
      "astound": 3121,
      "asteroid": 3122,
      "etc": 3123,
      "permission": 3124,
      "shr": 3125,
      "traces": 3126,
      "upwards": 3127,
      "mag": 3128,
      "blessed": 3129,
      "accu": 3130,
      "ester": 3131,
      "cious": 3132,
      "republic": 3133,
      "marine": 3134,
      "strict": 3135,
      "lunarians": 3136,
      "opened": 3137,
      "ols": 3138,
      "twice": 3139,
      "pron": 3140,
      "rested": 3141,
      "gled": 3142,
      "desirous": 3143,
      "lasted": 3144,
      "comets": 3145,
      "countenance": 3146,
      "solution": 3147,
      "bran": 3148,
      "creature": 3149,
      "florid": 3150,
      "ization": 3151,
      "extent": 3152,
      "parabol": 3153,
      "happ": 3154,
      "portions": 3155,
      "continue": 3156,
      "jove": 3157,
      "supposing": 3158,
      "minute": 3159,
      "shooting": 3160,
      "current": 3161,
      "please": 3162,
      "stret": 3163,
      "charged": 3164,
      "rupt": 3165,
      "follows": 3166,
      "ibility": 3167,
      "showing": 3168,
      "considering": 3169,
      "meaning": 3170,
      "engaged": 3171,
      "saturn": 3172,
      "wonderfully": 3173,
      "tons": 3174,
      "blanc": 3175,
      "surely": 3176,
      "keeping": 3177,
      "putting": 3178,
      "sounding": 3179,
      "summits": 3180,
      "eccentric": 3181,
      "writing": 3182,
      "brighter": 3183,
      "usually": 3184,
      "horror": 3185,
      "occasions": 3186,
      "wildly": 3187,
      "announced": 3188,
      "violently": 3189,
      "sinking": 3190,
      "sorry": 3191,
      "maintain": 3192,
      "pale": 3193,
      "positive": 3194,
      "assumed": 3195,
      "fellows": 3196,
      "presence": 3197,
      "reminded": 3198,
      "affir": 3199,
      "stopped": 3200,
      "hasty": 3201,
      "prepare": 3202,
      "blindly": 3203,
      "animals": 3204,
      "sensations": 3205,
      "assert": 3206,
      "queen": 3207,
      "advantages": 3208,
      "confident": 3209,
      "increased": 3210,
      "sofa": 3211,
      "accept": 3212,
      "surrounding": 3213,
      "intelligence": 3214,
      "fresh": 3215,
      "protected": 3216,
      "particle": 3217,
      "diminished": 3218,
      "figures": 3219,
      "honorable": 3220,
      "paper": 3221,
      "zenith": 3222,
      "gloomy": 3223,
      "clouds": 3224,
      "battle": 3225,
      "similar": 3226,
      "vanished": 3227,
      "savage": 3228,
      "judge": 3229,
      "precautions": 3230,
      "truth": 3231,
      "ample": 3232,
      "london": 3233,
      "replace": 3234,
      "selenographic": 3235,
      "hypothesis": 3236,
      "hyperbola": 3237,
      "suggest": 3238,
      "heroes": 3239,
      "julesburg": 3240,
      "extinguished": 3241,
      "_carpath": 3242,
      "measured": 3243,
      "alluded": 3244,
      "quantity": 3245,
      "herald_": 3246,
      "commenced": 3247,
      "california": 3248,
      "mouth": 3249,
      "regret": 3250,
      "streng": 3251,
      "seldom": 3252,
      "accuracy": 3253,
      "florida": 3254,
      "27": 3255,
      "60": 3256,
      "_belfast": 3257,
      "_ocean": 3258,
      "_sin": 3259,
      "aimed": 3260,
      "avoid": 3261,
      "ba": 3262,
      "cat": 3263,
      "cas": 3264,
      "cand": 3265,
      "cab": 3266,
      "ders": 3267,
      "dance": 3268,
      "dread": 3269,
      "emotion": 3270,
      "fing": 3271,
      "fling": 3272,
      "gan": 3273,
      "gir": 3274,
      "hat": 3275,
      "ired": 3276,
      "ience": 3277,
      "jack": 3278,
      "jury": 3279,
      "kno": 3280,
      "late": 3281,
      "money": 3282,
      "nit": 3283,
      "oth": 3284,
      "ose": 3285,
      "pon": 3286,
      "pati": 3287,
      "rated": 3288,
      "sir": 3289,
      "sink": 3290,
      "scho": 3291,
      "salt": 3292,
      "sending": 3293,
      "ture": 3294,
      "vit": 3295,
      "vice": 3296,
      "wal": 3297,
      "xed": 3298,
      "xim": 3299,
      "xico": 3300,
      "yan": 3301,
      "yell": 3302,
      "zled": 3303,
      "thrill": 3304,
      "thed": 3305,
      "theast": 3306,
      "incon": 3307,
      "invol": 3308,
      "innumer": 3309,
      "inery": 3310,
      "analo": 3311,
      "on_": 3312,
      "er_": 3313,
      "err": 3314,
      "ende": 3315,
      "enced": 3316,
      "enclosed": 3317,
      "station": 3318,
      "step": 3319,
      "oric": 3320,
      "le_": 3321,
      "lled": 3322,
      "iction": 3323,
      "sec": 3324,
      "seren": 3325,
      "sevent": 3326,
      "rot": 3327,
      "ctor": 3328,
      "aled": 3329,
      "ality": 3330,
      "mob": 3331,
      "moder": 3332,
      "motive": 3333,
      "weary": 3334,
      "entering": 3335,
      "idian": 3336,
      "vert": 3337,
      "rived": 3338,
      "rable": 3339,
      "raction": 3340,
      "ches": 3341,
      "chant": 3342,
      "live": 3343,
      "liqu": 3344,
      "liable": 3345,
      "lively": 3346,
      "coo": 3347,
      "coal": 3348,
      "cover": 3349,
      "cock": 3350,
      "wil": 3351,
      "dec": 3352,
      "dee": 3353,
      "deli": 3354,
      "promin": 3355,
      "proceeded": 3356,
      "abs": 3357,
      "loco": 3358,
      "located": 3359,
      "concl": 3360,
      "apse": 3361,
      "apart": 3362,
      "exer": 3363,
      "exha": 3364,
      "died": 3365,
      "divided": 3366,
      "ilege": 3367,
      "yous": 3368,
      "ulated": 3369,
      "geo": 3370,
      "spy": 3371,
      "spher": 3372,
      "spac": 3373,
      "spread": 3374,
      "fold": 3375,
      "sailing": 3376,
      "dogs": 3377,
      "doctor": 3378,
      "bore": 3379,
      "perple": 3380,
      "mention": 3381,
      "shut": 3382,
      "shine": 3383,
      "obst": 3384,
      "accent": 3385,
      "disput": 3386,
      "disposed": 3387,
      "disconcer": 3388,
      "umber": 3389,
      "crib": 3390,
      "intens": 3391,
      "lightning": 3392,
      "plat": 3393,
      "anyhow": 3394,
      "tless": 3395,
      "cial": 3396,
      "reporter": 3397,
      "observe": 3398,
      "lunte": 3399,
      "whenever": 3400,
      "sunlight": 3401,
      "restless": 3402,
      "gracious": 3403,
      "design": 3404,
      "century": 3405,
      "cord": 3406,
      "corn": 3407,
      "letter": 3408,
      "says": 3409,
      "apping": 3410,
      "tax": 3411,
      "facts": 3412,
      "steadily": 3413,
      "dense": 3414,
      "inkled": 3415,
      "genial": 3416,
      "refract": 3417,
      "vored": 3418,
      "volunte": 3419,
      "fastened": 3420,
      "fires": 3421,
      "itudes": 3422,
      "companion": 3423,
      "giant": 3424,
      "joyous": 3425,
      "oubled": 3426,
      "support": 3427,
      "carbon": 3428,
      "exception": 3429,
      "morgan": 3430,
      "collection": 3431,
      "pleased": 3432,
      "brains": 3433,
      "months": 3434,
      "passing": 3435,
      "showers": 3436,
      "reasonable": 3437,
      "cheers": 3438,
      "meridian": 3439,
      "spectacle": 3440,
      "interruption": 3441,
      "keeps": 3442,
      "oceans": 3443,
      "summer": 3444,
      "buff": 3445,
      "equator": 3446,
      "brightness": 3447,
      "heavi": 3448,
      "heavy": 3449,
      "describing": 3450,
      "freely": 3451,
      "remarks": 3452,
      "illustrious": 3453,
      "distribute": 3454,
      "distributed": 3455,
      "dream": 3456,
      "warrant": 3457,
      "empty": 3458,
      "wait": 3459,
      "blood": 3460,
      "glittered": 3461,
      "llarum_": 3462,
      "reflected": 3463,
      "occupying": 3464,
      "gentleman": 3465,
      "screen": 3466,
      "respective": 3467,
      "tested": 3468,
      "nonsense": 3469,
      "intensely": 3470,
      "listening": 3471,
      "humbold": 3472,
      "assume": 3473,
      "assured": 3474,
      "univers": 3475,
      "contract": 3476,
      "ians_": 3477,
      "operations": 3478,
      "situated": 3479,
      "posted": 3480,
      "confidently": 3481,
      "boundless": 3482,
      "ebooks": 3483,
      "relieved": 3484,
      "pulling": 3485,
      "princip": 3486,
      "resem": 3487,
      "enjoy": 3488,
      "enjoyed": 3489,
      "machinery": 3490,
      "buoys": 3491,
      "recorded": 3492,
      "protect": 3493,
      "precious": 3494,
      "cliff": 3495,
      "papers": 3496,
      "officers": 3497,
      "constant": 3498,
      "spirits": 3499,
      "oblique": 3500,
      "cryst": 3501,
      "jumping": 3502,
      "variety": 3503,
      "philosoph": 3504,
      "photograph": 3505,
      "lifted": 3506,
      "procellarum_": 3507,
      "breathe": 3508,
      "pleasant": 3509,
      "swallowed": 3510,
      "undoubtedly": 3511,
      "nectar": 3512,
      "plicable": 3513,
      "plunged": 3514,
      "comprehend": 3515,
      "privilege": 3516,
      "additional": 3517,
      "yawning": 3518,
      "inclined": 3519,
      "ellipse": 3520,
      "_r_": 3521,
      "language": 3522,
      "associated": 3523,
      "pronounced": 3524,
      "_carpathians_": 3525,
      "strength": 3526,
      "_belfasters_": 3527,
      "_oceanus": 3528,
      "_sinus": 3529,
      "knock": 3530,
      "yanke": 3531,
      "innumerable": 3532,
      "endea": 3533,
      "intensity": 3534,
      "!!\"": 3535,
      "..": 3536,
      "14": 3537,
      "1st": 3538,
      "28": 3539,
      "200": 3540,
      "250": 3541,
      "5th": 3542,
      "500": 3543,
      "80": 3544,
      "_e": 3545,
      "_n": 3546,
      "_the": 3547,
      "_le": 3548,
      "_do": 3549,
      "_must": 3550,
      "_d_": 3551,
      "aer": 3552,
      "ament": 3553,
      "ama": 3554,
      "bare": 3555,
      "bull": 3556,
      "bread": 3557,
      "bbing": 3558,
      "cities": 3559,
      "dro": 3560,
      "dying": 3561,
      "eur": 3562,
      "equi": 3563,
      "elli": 3564,
      "fal": 3565,
      "fant": 3566,
      "fight": 3567,
      "fine": 3568,
      "ga": 3569,
      "glow": 3570,
      "hist": 3571,
      "iest": 3572,
      "l_": 3573,
      "lust": 3574,
      "mand": 3575,
      "mation": 3576,
      "mmer": 3577,
      "nas": 3578,
      "ore": 3579,
      "oton": 3580,
      "pat": 3581,
      "pou": 3582,
      "por": 3583,
      "pun": 3584,
      "pound": 3585,
      "pti": 3586,
      "pub": 3587,
      "passes": 3588,
      "rou": 3589,
      "rying": 3590,
      "soften": 3591,
      "t_": 3592,
      "uce": 3593,
      "uine": 3594,
      "wre": 3595,
      "wro": 3596,
      "xity": 3597,
      "xvi": 3598,
      "thered": 3599,
      "insu": 3600,
      "inspect": 3601,
      "injury": 3602,
      "renew": 3603,
      "resplend": 3604,
      "oned": 3605,
      "online": 3606,
      "eral": 3607,
      "erable": 3608,
      "attered": 3609,
      "encoun": 3610,
      "edience": 3611,
      "stif": 3612,
      "offered": 3613,
      "ingly": 3614,
      "itten": 3615,
      "total": 3616,
      "leg": 3617,
      "ism": 3618,
      "isn": 3619,
      "ising": 3620,
      "isite": 3621,
      "asy": 3622,
      "asking": 3623,
      "season": 3624,
      "seizing": 3625,
      "serene": 3626,
      "beat": 3627,
      "bell": 3628,
      "betra": 3629,
      "belong": 3630,
      "esq": 3631,
      "escrib": 3632,
      "hair": 3633,
      "haul": 3634,
      "hey": 3635,
      "heit": 3636,
      "alp": 3637,
      "weather": 3638,
      "vere": 3639,
      "whence": 3640,
      "ented": 3641,
      "mexico": 3642,
      "iding": 3643,
      "rie": 3644,
      "rivers": 3645,
      "chang": 3646,
      "libr": 3647,
      "lift": 3648,
      "cost": 3649,
      "alling": 3650,
      "unable": 3651,
      "unconscious": 3652,
      "forward": 3653,
      "deal": 3654,
      "delic": 3655,
      "delay": 3656,
      "demand": 3657,
      "provisions": 3658,
      "progress": 3659,
      "withstanding": 3660,
      "love": 3661,
      "loved": 3662,
      "cons": 3663,
      "cones": 3664,
      "conical": 3665,
      "confound": 3666,
      "concentric": 3667,
      "containing": 3668,
      "construction": 3669,
      "confined": 3670,
      "improve": 3671,
      "appointed": 3672,
      "appreh": 3673,
      "polar": 3674,
      "notwithstanding": 3675,
      "holes": 3676,
      "exec": 3677,
      "exposed": 3678,
      "example": 3679,
      "dig": 3680,
      "dign": 3681,
      "nell": 3682,
      "ileo": 3683,
      "thering": 3684,
      "quisite": 3685,
      "ulate": 3686,
      "jected": 3687,
      "spap": 3688,
      "split": 3689,
      "projected": 3690,
      "sage": 3691,
      "illet": 3692,
      "box": 3693,
      "ustion": 3694,
      "oughly": 3695,
      "veni": 3696,
      "upper": 3697,
      "ables": 3698,
      "thanks": 3699,
      "obedience": 3700,
      "forests": 3701,
      "tired": 3702,
      "acid": 3703,
      "acles": 3704,
      "accident": 3705,
      "comply": 3706,
      "compli": 3707,
      "compens": 3708,
      "disappear": 3709,
      "discharge": 3710,
      "owing": 3711,
      "aked": 3712,
      "surve": 3713,
      "aming": 3714,
      "amid": 3715,
      "indescrib": 3716,
      "god": 3717,
      "rendered": 3718,
      "lessly": 3719,
      "acting": 3720,
      "observing": 3721,
      "lungs": 3722,
      "caused": 3723,
      "mars": 3724,
      "distinct": 3725,
      "pointing": 3726,
      "istic": 3727,
      "optical": 3728,
      "knowing": 3729,
      "partitions": 3730,
      "proud": 3731,
      "class": 3732,
      "travelling": 3733,
      "shade": 3734,
      "shaking": 3735,
      "grave": 3736,
      "minus": 3737,
      "wned": 3738,
      "interplanetary": 3739,
      "whereas": 3740,
      "understood": 3741,
      "centri": 3742,
      "cris": 3743,
      "grounds": 3744,
      "region": 3745,
      "newspap": 3746,
      "excuse": 3747,
      "format": 3748,
      "viding": 3749,
      "vidual": 3750,
      "steamer": 3751,
      "stellar": 3752,
      "thoms": 3753,
      "deny": 3754,
      "impati": 3755,
      "flour": 3756,
      "genuine": 3757,
      "refraction": 3758,
      "match": 3759,
      "parabo": 3760,
      "discla": 3761,
      "begun": 3762,
      "missing": 3763,
      "soul": 3764,
      "takes": 3765,
      "ensible": 3766,
      "startled": 3767,
      "subst": 3768,
      "submarine": 3769,
      "play": 3770,
      "played": 3771,
      "cleare": 3772,
      "cleared": 3773,
      "_m_": 3774,
      "_mapp": 3775,
      "breast": 3776,
      "expect": 3777,
      "cury": 3778,
      "wonders": 3779,
      "collect": 3780,
      "midt": 3781,
      "middle": 3782,
      "squared": 3783,
      "satellites": 3784,
      "monoton": 3785,
      "rapidity": 3786,
      "guard": 3787,
      "versed": 3788,
      "valu": 3789,
      "fourth": 3790,
      "subjected": 3791,
      "setting": 3792,
      "helion": 3793,
      "radius": 3794,
      "chain": 3795,
      "chamber": 3796,
      "expressive": 3797,
      "ecst": 3798,
      "consequences": 3799,
      "written": 3800,
      "thirteen": 3801,
      "layers": 3802,
      "breaking": 3803,
      "viewed": 3804,
      "accordance": 3805,
      "reality": 3806,
      "fireworks": 3807,
      "grandeur": 3808,
      "larger": 3809,
      "ancing": 3810,
      "wildest": 3811,
      "announcing": 3812,
      "heights": 3813,
      "advanced": 3814,
      "remains": 3815,
      "sufficiently": 3816,
      "abode": 3817,
      "laughing": 3818,
      "native": 3819,
      "strongly": 3820,
      "cooled": 3821,
      "deeply": 3822,
      "attractive": 3823,
      "bearing": 3824,
      "closely": 3825,
      "186": 3826,
      "conceive": 3827,
      "signs": 3828,
      "detected": 3829,
      "imagination": 3830,
      "drily": 3831,
      "iii": 3832,
      "ines_": 3833,
      "contrast": 3834,
      "eclipses": 3835,
      "enthusiastic": 3836,
      "harm": 3837,
      "harbor": 3838,
      "atio": 3839,
      "welcome": 3840,
      "examine": 3841,
      "americans": 3842,
      "sensible": 3843,
      "gesticul": 3844,
      "nineteen": 3845,
      "confidence": 3846,
      "ridges": 3847,
      "throwing": 3848,
      "determine": 3849,
      "absorbing": 3850,
      "acceler": 3851,
      "transp": 3852,
      "combustion": 3853,
      "intelligent": 3854,
      "flag": 3855,
      "smooth": 3856,
      "machine": 3857,
      "possession": 3858,
      "groo": 3859,
      "luck": 3860,
      "wood": 3861,
      "thoroughly": 3862,
      "secrets": 3863,
      "particip": 3864,
      "succeed": 3865,
      "rigidly": 3866,
      "developed": 3867,
      "development": 3868,
      "noticing": 3869,
      "quitting": 3870,
      "firmly": 3871,
      "volcanoes": 3872,
      "meteoric": 3873,
      "figure": 3874,
      "misty": 3875,
      "touching": 3876,
      "conclude": 3877,
      "counteracting": 3878,
      "blocks": 3879,
      "furnace": 3880,
      "rank": 3881,
      "individual": 3882,
      "fields": 3883,
      "fatal": 3884,
      "depression": 3885,
      "mathematical": 3886,
      "recognize": 3887,
      "galileo": 3888,
      "revolution": 3889,
      "melancho": 3890,
      "children": 3891,
      "solemn": 3892,
      "springs": 3893,
      "company_": 3894,
      "screws": 3895,
      "landscape": 3896,
      "landscapes": 3897,
      "triumphantly": 3898,
      "_apenn": 3899,
      "rubbing": 3900,
      "leaving": 3901,
      "royal": 3902,
      "alarm": 3903,
      "constructed": 3904,
      "resulting": 3905,
      "354": 3906,
      "aided": 3907,
      "schmidt": 3908,
      "vigor": 3909,
      "threw": 3910,
      "incessant": 3911,
      "repeated": 3912,
      "aspect": 3913,
      "devoted": 3914,
      "golden": 3915,
      "duty": 3916,
      "ranges": 3917,
      "unanimously": 3918,
      "previous": 3919,
      "phrase": 3920,
      "specific": 3921,
      "eagerly": 3922,
      "material": 3923,
      "relatively": 3924,
      "ingenious": 3925,
      "totally": 3926,
      "cotton": 3927,
      "deviation": 3928,
      "conjecture": 3929,
      "creatures": 3930,
      "parabolic": 3931,
      "liquid": 3932,
      "absence": 3933,
      "conclusion": 3934,
      "spaces": 3935,
      "disconcerted": 3936,
      "carbonic": 3937,
      "humboldt": 3938,
      "cliffs": 3939,
      "yankee": 3940,
      "_must_": 3941,
      "ellipt": 3942,
      "false": 3943,
      "wrote": 3944,
      "encountered": 3945,
      "changing": 3946,
      "parabola": 3947,
      "melancholy": 3948,
      "_apennines_": 3949,
      "!--": 3950,
      "19": 3951,
      "300": 3952,
      "46": 3953,
      "75": 3954,
      "_not": 3955,
      "_la": 3956,
      "_you": 3957,
      "_barbican": 3958,
      "aver": 3959,
      "ake": 3960,
      "athen": 3961,
      "agreed": 3962,
      "bad": 3963,
      "bill": 3964,
      "cup": 3965,
      "cum": 3966,
      "dated": 3967,
      "dashed": 3968,
      "econ": 3969,
      "eter": 3970,
      "eks": 3971,
      "fron": 3972,
      "fund": 3973,
      "fissu": 3974,
      "gate": 3975,
      "hers": 3976,
      "iac": 3977,
      "ires": 3978,
      "jar": 3979,
      "jun": 3980,
      "kal": 3981,
      "kill": 3982,
      "lor": 3983,
      "lantic": 3984,
      "latest": 3985,
      "nd": 3986,
      "nally": 3987,
      "o_": 3988,
      "oli": 3989,
      "osc": 3990,
      "ps": 3991,
      "pher": 3992,
      "piled": 3993,
      "piles": 3994,
      "rous": 3995,
      "ridge": 3996,
      "ratio": 3997,
      "sn": 3998,
      "sive": 3999,
      "sip": 4000,
      "tu": 4001,
      "tong": 4002,
      "tled": 4003,
      "vated": 4004,
      "vitable": 4005,
      "wers": 4006,
      "wrap": 4007,
      "women": 4008,
      "yester": 4009,
      "z_": 4010,
      "iner": 4011,
      "inder": 4012,
      "infall": 4013,
      "inconce": 4014,
      "indifference": 4015,
      "resh": 4016,
      "resol": 4017,
      "referen": 4018,
      "represented": 4019,
      "reversed": 4020,
      "ank": 4021,
      "angry": 4022,
      "angled": 4023,
      "onward": 4024,
      "erfe": 4025,
      "ators": 4026,
      "atlantic": 4027,
      "ena": 4028,
      "enet": 4029,
      "arily": 4030,
      "sty": 4031,
      "stir": 4032,
      "stun": 4033,
      "stone": 4034,
      "stared": 4035,
      "orary": 4036,
      "orily": 4037,
      "town": 4038,
      "llo": 4039,
      "icate": 4040,
      "icking": 4041,
      "seat": 4042,
      "severe": 4043,
      "beloved": 4044,
      "nod": 4045,
      "nobody": 4046,
      "roar": 4047,
      "roast": 4048,
      "hazy": 4049,
      "heve": 4050,
      "heap": 4051,
      "alay": 4052,
      "alizing": 4053,
      "mol": 4054,
      "modi": 4055,
      "moves": 4056,
      "weir": 4057,
      "webs": 4058,
      "whist": 4059,
      "mem": 4060,
      "memor": 4061,
      "cely": 4062,
      "ceiling": 4063,
      "rif": 4064,
      "rim": 4065,
      "uttering": 4066,
      "raised": 4067,
      "lime": 4068,
      "liked": 4069,
      "cox": 4070,
      "alled": 4071,
      "aint": 4072,
      "une": 4073,
      "uncertain": 4074,
      "unusual": 4075,
      "ford": 4076,
      "depos": 4077,
      "demon": 4078,
      "defined": 4079,
      "proving": 4080,
      "promis": 4081,
      "provision": 4082,
      "lowest": 4083,
      "conve": 4084,
      "concent": 4085,
      "congrat": 4086,
      "consul": 4087,
      "term": 4088,
      "terra": 4089,
      "apo": 4090,
      "apsed": 4091,
      "appreci": 4092,
      "exter": 4093,
      "explains": 4094,
      "laying": 4095,
      "ladder": 4096,
      "divisions": 4097,
      "ount": 4098,
      "neg": 4099,
      "quet": 4100,
      "keen": 4101,
      "father": 4102,
      "faith": 4103,
      "fault": 4104,
      "uran": 4105,
      "feas": 4106,
      "outlines": 4107,
      "spill": 4108,
      "sprit": 4109,
      "saved": 4110,
      "onel": 4111,
      "dom": 4112,
      "ity_": 4113,
      "il_": 4114,
      "ille": 4115,
      "astically": 4116,
      "ets": 4117,
      "perfor": 4118,
      "performed": 4119,
      "trap": 4120,
      "artic": 4121,
      "obtain": 4122,
      "obtained": 4123,
      "obstruct": 4124,
      "pered": 4125,
      "acqu": 4126,
      "accompan": 4127,
      "accur": 4128,
      "acade": 4129,
      "disorder": 4130,
      "discharged": 4131,
      "serve": 4132,
      "serving": 4133,
      "cribed": 4134,
      "agon": 4135,
      "plor": 4136,
      "plant": 4137,
      "plough": 4138,
      "plates": 4139,
      "anyone": 4140,
      "amount": 4141,
      "indul": 4142,
      "indicated": 4143,
      "ests": 4144,
      "cioli": 4145,
      "goes": 4146,
      "himalay": 4147,
      "rence": 4148,
      "renheit": 4149,
      "active": 4150,
      "myth": 4151,
      "everywhere": 4152,
      "cavern": 4153,
      "hollow": 4154,
      "inevitable": 4155,
      "ister": 4156,
      "odor": 4157,
      "yourselves": 4158,
      "shoulders": 4159,
      "viv": 4160,
      "vius_": 4161,
      "shake": 4162,
      "assist": 4163,
      "gray": 4164,
      "sentiment": 4165,
      "interstellar": 4166,
      "office": 4167,
      "northeast": 4168,
      "uses": 4169,
      "crushed": 4170,
      "letting": 4171,
      "afra": 4172,
      "counted": 4173,
      "conditions": 4174,
      "presenting": 4175,
      "excess": 4176,
      "donate": 4177,
      "formations": 4178,
      "bris": 4179,
      "brink": 4180,
      "crew": 4181,
      "creation": 4182,
      "dens": 4183,
      "impenet": 4184,
      "extend": 4185,
      "extended": 4186,
      "extending": 4187,
      "extinct": 4188,
      "els": 4189,
      "refer": 4190,
      "refresh": 4191,
      "secondly": 4192,
      "easier": 4193,
      "matic": 4194,
      "voices": 4195,
      "fier": 4196,
      "miss": 4197,
      "missed": 4198,
      "missis": 4199,
      "miserable": 4200,
      "strug": 4201,
      "strugg": 4202,
      "plainly": 4203,
      "atmospher": 4204,
      "calculating": 4205,
      "directing": 4206,
      "placed": 4207,
      "special": 4208,
      "suppress": 4209,
      "supposed": 4210,
      "resses": 4211,
      "expense": 4212,
      "carrying": 4213,
      "icks": 4214,
      "icken": 4215,
      "older": 4216,
      "exceed": 4217,
      "landed": 4218,
      "colonel": 4219,
      "streams": 4220,
      "furrows": 4221,
      "bravo": 4222,
      "bracing": 4223,
      "brakes": 4224,
      "rings": 4225,
      "ringing": 4226,
      "gues": 4227,
      "chel": 4228,
      "cheering": 4229,
      "doubts": 4230,
      "valid": 4231,
      "exclaim": 4232,
      "scientist": 4233,
      "circle": 4234,
      "evidence": 4235,
      "attend": 4236,
      "deprived": 4237,
      "perige": 4238,
      "riccioli": 4239,
      "spoken": 4240,
      "astronomy": 4241,
      "ton_": 4242,
      "tones": 4243,
      "blance": 4244,
      "settled": 4245,
      "existed": 4246,
      "existing": 4247,
      "silver": 4248,
      "radiant": 4249,
      "thoughts": 4250,
      "looks": 4251,
      "audi": 4252,
      "sounded": 4253,
      "build": 4254,
      "equally": 4255,
      "write": 4256,
      "draught": 4257,
      "dragged": 4258,
      "actual": 4259,
      "southwest": 4260,
      "wanted": 4261,
      "animated": 4262,
      "producing": 4263,
      "agreeable": 4264,
      "broke": 4265,
      "bolides": 4266,
      "satisfied": 4267,
      "horses": 4268,
      "symp": 4269,
      "heartily": 4270,
      "description": 4271,
      "freeze": 4272,
      "freezing": 4273,
      "grandest": 4274,
      "risk": 4275,
      "returning": 4276,
      "understanding": 4277,
      "ruins": 4278,
      "revel": 4279,
      "drew": 4280,
      "dressed": 4281,
      "annular": 4282,
      "regularity": 4283,
      "correctly": 4284,
      "glad": 4285,
      "peninsu": 4286,
      "scen": 4287,
      "occasional": 4288,
      "minds": 4289,
      "attracting": 4290,
      "mix": 4291,
      "entertain": 4292,
      "magnifying": 4293,
      "borne": 4294,
      "conceived": 4295,
      "shapeless": 4296,
      "eclipsed": 4297,
      "enthusiastically": 4298,
      "affect": 4299,
      "affected": 4300,
      "destination": 4301,
      "glimpses": 4302,
      "dangerous": 4303,
      "characteristic": 4304,
      "awak": 4305,
      "castle": 4306,
      "winds": 4307,
      "meteors": 4308,
      "seriously": 4309,
      "solidly": 4310,
      "_vive": 4311,
      "ahs": 4312,
      "thickness": 4313,
      "learn": 4314,
      "telegra": 4315,
      "frightened": 4316,
      "discuss": 4317,
      "satisfactorily": 4318,
      "bones": 4319,
      "soft": 4320,
      "softly": 4321,
      "treasure": 4322,
      "arranged": 4323,
      "accep": 4324,
      "combined": 4325,
      "smothering": 4326,
      "puzzled": 4327,
      "13th": 4328,
      "lucid": 4329,
      "wore": 4330,
      "recording": 4331,
      "petit": 4332,
      "slumber": 4333,
      "concerned": 4334,
      "explained": 4335,
      "quitted": 4336,
      "paying": 4337,
      "touch": 4338,
      "measurements": 4339,
      "society": 4340,
      "feelings": 4341,
      "telegraphic": 4342,
      "embracing": 4343,
      "gloom": 4344,
      "whirl": 4345,
      "bowsprit": 4346,
      "streets": 4347,
      "contemplated": 4348,
      "growled": 4349,
      "investigations": 4350,
      "separating": 4351,
      "forgotten": 4352,
      "failure": 4353,
      "mathematics": 4354,
      "display": 4355,
      "displaying": 4356,
      "retarding": 4357,
      "_newton_": 4358,
      "banks": 4359,
      "frag": 4360,
      "study": 4361,
      "whispered": 4362,
      "limited": 4363,
      "proceeding": 4364,
      "desert": 4365,
      "breathing": 4366,
      "bottles": 4367,
      "cracking": 4368,
      "anxiously": 4369,
      "leaves": 4370,
      "experience": 4371,
      "established": 4372,
      "establish": 4373,
      "results": 4374,
      "damage": 4375,
      "sparkling": 4376,
      "gorge": 4377,
      "gained": 4378,
      "hesitation": 4379,
      "wandering": 4380,
      "altern": 4381,
      "modify": 4382,
      "delighted": 4383,
      "shifting": 4384,
      "manufactured": 4385,
      "attached": 4386,
      "receipt": 4387,
      "eminently": 4388,
      "celebr": 4389,
      "majest": 4390,
      "contradict": 4391,
      "resembled": 4392,
      "channel": 4393,
      "tranquillity": 4394,
      "passage": 4395,
      "switched": 4396,
      "limbs": 4397,
      "collision": 4398,
      "promptly": 4399,
      "popular": 4400,
      "fahrenheit": 4401,
      "astounding": 4402,
      "happened": 4403,
      "replacement": 4404,
      "selenographica_": 4405,
      "suggested": 4406,
      "dreadful": 4407,
      "patience": 4408,
      "school": 4409,
      "analog": 4410,
      "serenitatis_": 4411,
      "seventeen": 4412,
      "mobility": 4413,
      "vertically": 4414,
      "coolly": 4415,
      "wilcox": 4416,
      "deeper": 4417,
      "locomotive": 4418,
      "exhausted": 4419,
      "geological": 4420,
      "obstacle": 4421,
      "accents": 4422,
      "volunteers": 4423,
      "crystal": 4424,
      "nectaris_": 4425,
      "_doerfe": 4426,
      "breadth": 4427,
      "fantastic": 4428,
      "pouillet": 4429,
      "published": 4430,
      "wrecks": 4431,
      "inspection": 4432,
      "renewed": 4433,
      "splitting": 4434,
      "compliance": 4435,
      "indescribable": 4436,
      "disclaim": 4437,
      "clearer": 4438,
      "_mappa": 4439,
      "valuable": 4440,
      "_you_": 4441,
      "athens": 4442,
      "herschel": 4443,
      "iacal": 4444,
      "oscill": 4445,
      "sippi": 4446,
      "tongue": 4447,
      "yesterday": 4448,
      "inconceiv": 4449,
      "hevelius": 4450,
      "deposited": 4451,
      "concentrated": 4452,
      "accompanied": 4453,
      "himalayahs": 4454,
      "impenetrable": 4455,
      "mississippi": 4456,
      "atmospheric": 4457,
      "peninsula": 4458,
      "_doerfel_": 4459,
      ").": 4460,
      ",--": 4461,
      ".'": 4462,
      ".)": 4463,
      ".--": 4464,
      "100": 4465,
      "150": 4466,
      "22": 4467,
      "23": 4468,
      "24": 4469,
      "240": 4470,
      "41": 4471,
      "6th": 4472,
      "70": 4473,
      "90": 4474,
      "97": 4475,
      "_a": 4476,
      "_g": 4477,
      "_y": 4478,
      "_was": 4479,
      "_con": 4480,
      "_could": 4481,
      "_can": 4482,
      "_ma": 4483,
      "_ca": 4484,
      "_has": 4485,
      "_is_": 4486,
      "_unity": 4487,
      "_cla": 4488,
      "aus": 4489,
      "awhile": 4490,
      "bou": 4491,
      "band": 4492,
      "bid": 4493,
      "big": 4494,
      "bree": 4495,
      "breach": 4496,
      "cation": 4497,
      "cad": 4498,
      "cable": 4499,
      "cence": 4500,
      "cass": 4501,
      "crest": 4502,
      "coff": 4503,
      "clay": 4504,
      "cisco": 4505,
      "dess": 4506,
      "drun": 4507,
      "epo": 4508,
      "event": 4509,
      "emer": 4510,
      "echo": 4511,
      "egg": 4512,
      "evapor": 4513,
      "ejected": 4514,
      "fou": 4515,
      "floo": 4516,
      "fring": 4517,
      "fris": 4518,
      "fanc": 4519,
      "fond": 4520,
      "fishing": 4521,
      "fanci": 4522,
      "fasc": 4523,
      "gar": 4524,
      "gall": 4525,
      "gust": 4526,
      "gence": 4527,
      "gase": 4528,
      "glistening": 4529,
      "hi": 4530,
      "hn": 4531,
      "hit": 4532,
      "hone": 4533,
      "hull": 4534,
      "hens": 4535,
      "hilar": 4536,
      "hiding": 4537,
      "ix": 4538,
      "ige": 4539,
      "iety": 4540,
      "ikins": 4541,
      "ker": 4542,
      "lou": 4543,
      "link": 4544,
      "lens": 4545,
      "lined": 4546,
      "lashed": 4547,
      "lapse": 4548,
      "mt": 4549,
      "mas": 4550,
      "mal": 4551,
      "mul": 4552,
      "mers": 4553,
      "mart": 4554,
      "mess": 4555,
      "mantic": 4556,
      "ni": 4557,
      "nin": 4558,
      "nay": 4559,
      "narrow": 4560,
      "ored": 4561,
      "omin": 4562,
      "pard": 4563,
      "pul": 4564,
      "pity": 4565,
      "pack": 4566,
      "pip": 4567,
      "pped": 4568,
      "pices": 4569,
      "pray": 4570,
      "rul": 4571,
      "ratt": 4572,
      "rue": 4573,
      "sal": 4574,
      "sco": 4575,
      "slo": 4576,
      "sne": 4577,
      "ske": 4578,
      "scor": 4579,
      "sang": 4580,
      "scar": 4581,
      "slip": 4582,
      "tor": 4583,
      "twi": 4584,
      "tap": 4585,
      "tend": 4586,
      "tast": 4587,
      "tight": 4588,
      "tted": 4589,
      "trop": 4590,
      "task": 4591,
      "ues": 4592,
      "uge": 4593,
      "uck": 4594,
      "ually": 4595,
      "uber": 4596,
      "vre": 4597,
      "vir": 4598,
      "vul": 4599,
      "vous": 4600,
      "vary": 4601,
      "vities": 4602,
      "wling": 4603,
      "whel": 4604,
      "yr": 4605,
      "̂te": 4606,
      "thr": 4607,
      "thread": 4608,
      "theless": 4609,
      "inmat": 4610,
      "incompreh": 4611,
      "incred": 4612,
      "rever": 4613,
      "recon": 4614,
      "reck": 4615,
      "repress": 4616,
      "retained": 4617,
      "relished": 4618,
      "removed": 4619,
      "reserved": 4620,
      "ante": 4621,
      "ont": 4622,
      "ones": 4623,
      "error": 4624,
      "atic": 4625,
      "oudy": 4626,
      "eness": 4627,
      "enlight": 4628,
      "ara": 4629,
      "armor": 4630,
      "edition": 4631,
      "editions": 4632,
      "stage": 4633,
      "stial": 4634,
      "stern": 4635,
      "status": 4636,
      "itating": 4637,
      "itute": 4638,
      "ories": 4639,
      "orama": 4640,
      "toler": 4641,
      "tools": 4642,
      "legs": 4643,
      "isha": 4644,
      "isol": 4645,
      "as_": 4646,
      "ases": 4647,
      "assum": 4648,
      "select": 4649,
      "semb": 4650,
      "bered": 4651,
      "beside": 4652,
      "beating": 4653,
      "beef": 4654,
      "nove": 4655,
      "noble": 4656,
      "noses": 4657,
      "novel": 4658,
      "rol": 4659,
      "rope": 4660,
      "romantic": 4661,
      "hall": 4662,
      "ctions": 4663,
      "ctive": 4664,
      "heal": 4665,
      "mode": 4666,
      "motions": 4667,
      "wear": 4668,
      "week": 4669,
      "weeks": 4670,
      "ential": 4671,
      "entered": 4672,
      "meat": 4673,
      "mest": 4674,
      "members": 4675,
      "rip": 4676,
      "rist": 4677,
      "ries": 4678,
      "uted": 4679,
      "utation": 4680,
      "rade": 4681,
      "rapt": 4682,
      "raged": 4683,
      "chi": 4684,
      "chin": 4685,
      "chill": 4686,
      "chance": 4687,
      "changed": 4688,
      "chlor": 4689,
      "lier": 4690,
      "liability": 4691,
      "comed": 4692,
      "cocks": 4693,
      "allic": 4694,
      "irs": 4695,
      "irrepress": 4696,
      "ung": 4697,
      "forci": 4698,
      "forms": 4699,
      "som": 4700,
      "deb": 4701,
      "def": 4702,
      "decla": 4703,
      "destruction": 4704,
      "process": 4705,
      "propose": 4706,
      "prospect": 4707,
      "proposed": 4708,
      "propri": 4709,
      "proportions": 4710,
      "proxim": 4711,
      "providing": 4712,
      "abalo": 4713,
      "ource": 4714,
      "withdrawn": 4715,
      "lowered": 4716,
      "conver": 4717,
      "consu": 4718,
      "confir": 4719,
      "connect": 4720,
      "imper": 4721,
      "impe": 4722,
      "impart": 4723,
      "impossibility": 4724,
      "immobility": 4725,
      "applicable": 4726,
      "polished": 4727,
      "host": 4728,
      "hote": 4729,
      "homet": 4730,
      "hoax": 4731,
      "excl": 4732,
      "exquisite": 4733,
      "explor": 4734,
      "bye": 4735,
      "laun": 4736,
      "diving": 4737,
      "oundest": 4738,
      "neat": 4739,
      "arers": 4740,
      "barbar": 4741,
      "qued": 4742,
      "quir": 4743,
      "quality": 4744,
      "kepl": 4745,
      "facul": 4746,
      "favored": 4747,
      "ulation": 4748,
      "ulous": 4749,
      "urged": 4750,
      "adop": 4751,
      "adjust": 4752,
      "mption": 4753,
      "tearing": 4754,
      "fees": 4755,
      "ssing": 4756,
      "nowhere": 4757,
      "preserve": 4758,
      "projections": 4759,
      "endent": 4760,
      "endured": 4761,
      "redoubled": 4762,
      "sa_": 4763,
      "domin": 4764,
      "doom": 4765,
      "dozen": 4766,
      "dotted": 4767,
      "greet": 4768,
      "ilt": 4769,
      "--?\"": 4770,
      "eties": 4771,
      "perate": 4772,
      "performing": 4773,
      "shu": 4774,
      "shorter": 4775,
      "shattered": 4776,
      "shrie": 4777,
      "travel": 4778,
      "venus": 4779,
      "uphea": 4780,
      "mail": 4781,
      "mament": 4782,
      "mahomet": 4783,
      "thank": 4784,
      "derr": 4785,
      "manage": 4786,
      "managed": 4787,
      "manhole": 4788,
      "foreshort": 4789,
      "pea": 4790,
      "acqui": 4791,
      "comput": 4792,
      "compare": 4793,
      "compris": 4794,
      "earthly": 4795,
      "sidence": 4796,
      "umn": 4797,
      "umes": 4798,
      "anywhere": 4799,
      "anybody": 4800,
      "amused": 4801,
      "indust": 4802,
      "induce": 4803,
      "aching": 4804,
      "answers": 4805,
      "frigor": 4806,
      "everybody": 4807,
      "phinst": 4808,
      "cavities": 4809,
      "ishment": 4810,
      "stricken": 4811,
      "loose": 4812,
      "oped": 4813,
      "opposition": 4814,
      "type": 4815,
      "readers": 4816,
      "sunk": 4817,
      "clap": 4818,
      "clust": 4819,
      "cloudy": 4820,
      "overcome": 4821,
      "overboard": 4822,
      "overwhel": 4823,
      "comical": 4824,
      "share": 4825,
      "firmament": 4826,
      "restored": 4827,
      "gling": 4828,
      "grace": 4829,
      "gravely": 4830,
      "mineral": 4831,
      "intox": 4832,
      "desol": 4833,
      "certain_": 4834,
      "certainty": 4835,
      "nevertheless": 4836,
      "contribut": 4837,
      "contents": 4838,
      "undertaking": 4839,
      "centres": 4840,
      "corus": 4841,
      "corresp": 4842,
      "culti": 4843,
      "tened": 4844,
      "tenths": 4845,
      "crash": 4846,
      "leton": 4847,
      "ledged": 4848,
      "caloric": 4849,
      "apped": 4850,
      "ideas": 4851,
      "counting": 4852,
      "condens": 4853,
      "solic": 4854,
      "solve": 4855,
      "exciting": 4856,
      "creating": 4857,
      "creator": 4858,
      "steel": 4859,
      "angle": 4860,
      "afternoon": 4861,
      "flapping": 4862,
      "justify": 4863,
      "extrem": 4864,
      "elphinst": 4865,
      "navig": 4866,
      "refuse": 4867,
      "refused": 4868,
      "refuge": 4869,
      "nearing": 4870,
      "athy": 4871,
      "ptions": 4872,
      "fired": 4873,
      "ifications": 4874,
      "blame": 4875,
      "submit": 4876,
      "sublime": 4877,
      "director": 4878,
      "spee": 4879,
      "john": 4880,
      "supper": 4881,
      "ventured": 4882,
      "expenses": 4883,
      "shore": 4884,
      "owner": 4885,
      "curtly": 4886,
      "landing": 4887,
      "copying": 4888,
      "copied": 4889,
      "stream": 4890,
      "insist": 4891,
      "insisted": 4892,
      "charming": 4893,
      "furrow": 4894,
      "probable": 4895,
      "trill": 4896,
      "matters": 4897,
      "final": 4898,
      "finest": 4899,
      "versary": 4900,
      "kinds": 4901,
      "kindly": 4902,
      "background": 4903,
      "smart": 4904,
      "smiling": 4905,
      "vals": 4906,
      "valent": 4907,
      "exclamation": 4908,
      "circul": 4909,
      "perihelion": 4910,
      "float": 4911,
      "ashy": 4912,
      "instantane": 4913,
      "mercury": 4914,
      "talked": 4915,
      "profoundest": 4916,
      "clearing": 4917,
      "beds": 4918,
      "inhabitability": 4919,
      "plane": 4920,
      "integr": 4921,
      "helped": 4922,
      "diffused": 4923,
      "adieu": 4924,
      "silvery": 4925,
      "store": 4926,
      "stomach": 4927,
      "sixteen": 4928,
      "radii": 4929,
      "radiated": 4930,
      "skin": 4931,
      "difficulties": 4932,
      "aux": 4933,
      "remembers": 4934,
      "expressed": 4935,
      "buried": 4936,
      "built": 4937,
      "wrinkled": 4938,
      "favorite": 4939,
      "archimed": 4940,
      "terrific": 4941,
      "balance": 4942,
      "wants": 4943,
      "ites_": 4944,
      "reception": 4945,
      "horse": 4946,
      "micro": 4947,
      "sym": 4948,
      "realized": 4949,
      "laught": 4950,
      "succession": 4951,
      "successive": 4952,
      "dimmer": 4953,
      "risen": 4954,
      "rises": 4955,
      "indefinite": 4956,
      "ships": 4957,
      "opening": 4958,
      "drear": 4959,
      "dreamed": 4960,
      "recovered": 4961,
      "anni": 4962,
      "circles": 4963,
      "hemispheres": 4964,
      "balls": 4965,
      "pairs": 4966,
      "mingled": 4967,
      "penet": 4968,
      "wake": 4969,
      "waving": 4970,
      "waves": 4971,
      "waited": 4972,
      "strangely": 4973,
      "accordingly": 4974,
      "catching": 4975,
      "dispute": 4976,
      "confess": 4977,
      "arrive": 4978,
      "holder": 4979,
      "occupy": 4980,
      "occupants": 4981,
      "dangers": 4982,
      "command": 4983,
      "commence": 4984,
      "respects": 4985,
      "respectable": 4986,
      "conceal": 4987,
      "periods": 4988,
      "revealing": 4989,
      "cutting": 4990,
      "influences": 4991,
      "driving": 4992,
      "metallic": 4993,
      "flashing": 4994,
      "flashes": 4995,
      "reminds": 4996,
      "eighteen": 4997,
      "believing": 4998,
      "welcomed": 4999,
      "destroy": 5000,
      "examination": 5001,
      "namely": 5002,
      "throbbing": 5003,
      "casting": 5004,
      "utterly": 5005,
      "posts": 5006,
      "solidity": 5007,
      "faintest": 5008,
      "houses": 5009,
      "vestige": 5010,
      "problems": 5011,
      "accompany": 5012,
      "importance": 5013,
      "discussed": 5014,
      "systems": 5015,
      "circumstance": 5016,
      "trees": 5017,
      "employ": 5018,
      "couple": 5019,
      "flame": 5020,
      "smothered": 5021,
      "tables": 5022,
      "rendering": 5023,
      "occurred": 5024,
      "occurrence": 5025,
      "possessing": 5026,
      "groans": 5027,
      "woman": 5028,
      "merely": 5029,
      "admitting": 5030,
      "footnote": 5031,
      "supplied": 5032,
      "diminish": 5033,
      "claimed": 5034,
      "vegetable": 5035,
      "explaining": 5036,
      "formerly": 5037,
      "elsewhere": 5038,
      "officer": 5039,
      "official": 5040,
      "acknowledged": 5041,
      "flew": 5042,
      "furnished": 5043,
      "inches": 5044,
      "indians": 5045,
      "methods": 5046,
      "disturb": 5047,
      "resistance": 5048,
      "horizontal": 5049,
      "contemplate": 5050,
      "hunger": 5051,
      "hungry": 5052,
      "envelope": 5053,
      "enveloping": 5054,
      "depressed": 5055,
      "fairly": 5056,
      "boats": 5057,
      "cheerful": 5058,
      "recognized": 5059,
      "philosophy": 5060,
      "banquet": 5061,
      "europe": 5062,
      "revolving": 5063,
      "whispers": 5064,
      "lifting": 5065,
      "impression": 5066,
      "precaution": 5067,
      "perceive": 5068,
      "perceived": 5069,
      "percepti": 5070,
      "speculation": 5071,
      "speculations": 5072,
      "screwed": 5073,
      "_apo": 5074,
      "bird": 5075,
      "birds": 5076,
      "infinitely": 5077,
      "anxiety": 5078,
      "experienced": 5079,
      "admired": 5080,
      "joyful": 5081,
      "authorities": 5082,
      "damages": 5083,
      "signals": 5084,
      "threat": 5085,
      "incessantly": 5086,
      "rainbow": 5087,
      "manufacture": 5088,
      "physical": 5089,
      "physics": 5090,
      "singularly": 5091,
      "recovering": 5092,
      "requirements": 5093,
      "personal": 5094,
      "drink": 5095,
      "dinner": 5096,
      "gleam": 5097,
      "rushing": 5098,
      "invented": 5099,
      "bewildered": 5100,
      "mechanical": 5101,
      "mechanically": 5102,
      "celestial": 5103,
      "astonishment": 5104,
      "permitted": 5105,
      "shouted": 5106,
      "major": 5107,
      "estimation": 5108,
      "ignorant": 5109,
      "descend": 5110,
      "intellectual": 5111,
      "pursued": 5112,
      "organization": 5113,
      "resembling": 5114,
      "grimly": 5115,
      "tranquillitatis_": 5116,
      "***": 5117,
      "panorama": 5118,
      "picture": 5119,
      "pictures": 5120,
      "waste": 5121,
      "yielded": 5122,
      "yielding": 5123,
      "inferior": 5124,
      "eruptions": 5125,
      "identical": 5126,
      "suspended": 5127,
      "abundant": 5128,
      "potash": 5129,
      "admiration": 5130,
      "shroud": 5131,
      "branch": 5132,
      "ruptured": 5133,
      "walks": 5134,
      "incontest": 5135,
      "involving": 5136,
      "secure": 5137,
      "rotation": 5138,
      "decision": 5139,
      "prominence": 5140,
      "letters": 5141,
      "university": 5142,
      "principally": 5143,
      "resemble": 5144,
      "philosophers": 5145,
      "_nil_": 5146,
      "amental": 5147,
      "barely": 5148,
      "drowned": 5149,
      "history": 5150,
      "nasmyth": 5151,
      "route": 5152,
      "belonging": 5153,
      "library": 5154,
      "delicious": 5155,
      "confounded": 5156,
      "venient": 5157,
      "compensation": 5158,
      "newspaper": 5159,
      "flourishing": 5160,
      "ecstasy": 5161,
      "nineteenth": 5162,
      "grooves": 5163,
      "participated": 5164,
      "elliptical": 5165,
      "_not_": 5166,
      "_barbicanites_": 5167,
      "front": 5168,
      "fundamental": 5169,
      "fissures": 5170,
      "junction": 5171,
      "tube": 5172,
      "wrapped": 5173,
      "style": 5174,
      "molten": 5175,
      "modified": 5176,
      "weird": 5177,
      "website": 5178,
      "whistling": 5179,
      "memory": 5180,
      "demoniacal": 5181,
      "promised": 5182,
      "faithful": 5183,
      "feasibility": 5184,
      "spillikins": 5185,
      "performan": 5186,
      "accurate": 5187,
      "agony": 5188,
      "brisk": 5189,
      "struggling": 5190,
      "guesses": 5191,
      "awakened": 5192,
      "telegram": 5193,
      "fragments": 5194,
      "gorgeous": 5195,
      "analogous": 5196,
      "_could_": 5197,
      "_unity_": 5198,
      "_clavius_": 5199,
      "coffin": 5200,
      "epoch": 5201,
      "fourier": 5202,
      "fanciful": 5203,
      "gaseous": 5204,
      "hullabalo": 5205,
      "multi": 5206,
      "martyr": 5207,
      "pipes": 5208,
      "ruler": 5209,
      "tropical": 5210,
      "inmates": 5211,
      "incomprehensible": 5212,
      "assuming": 5213,
      "november": 5214,
      "irrepressible": 5215,
      "proximity": 5216,
      "confirmed": 5217,
      "greeted": 5218,
      "comprised": 5219,
      "frigoris_": 5220,
      "elphinstone": 5221,
      "hullabaloo": 5222,
      "!)": 5223,
      "!--\"": 5224,
      "''": 5225,
      "(-----": 5226,
      ",--\"": 5227,
      ".[": 5228,
      ".}": 5229,
      "21": 5230,
      "29": 5231,
      "33": 5232,
      "38": 5233,
      "360": 5234,
      "42": 5235,
      "45": 5236,
      "450": 5237,
      "81": 5238,
      "89": 5239,
      "_er": 5240,
      "_de": 5241,
      "_ne": 5242,
      "_had": 5243,
      "_qu": 5244,
      "_her": 5245,
      "_mar": 5246,
      "_should": 5247,
      "_did": 5248,
      "_down": 5249,
      "_life": 5250,
      "_py": 5251,
      "_rill": 5252,
      "_jupiter": 5253,
      "_saturn": 5254,
      "_eccentric": 5255,
      "_herald_": 5256,
      "_plat": 5257,
      "_uran": 5258,
      "_perige": 5259,
      "_archimed": 5260,
      "ame": 5261,
      "aust": 5262,
      "ava": 5263,
      "aqued": 5264,
      "bb": 5265,
      "bas": 5266,
      "bent": 5267,
      "bli": 5268,
      "bab": 5269,
      "bag": 5270,
      "bber": 5271,
      "blun": 5272,
      "bling": 5273,
      "cile": 5274,
      "cles": 5275,
      "cility": 5276,
      "cinder": 5277,
      "dus": 5278,
      "date": 5279,
      "dull": 5280,
      "dash": 5281,
      "dict": 5282,
      "drank": 5283,
      "eh": 5284,
      "eve": 5285,
      "ement": 5286,
      "eman": 5287,
      "elast": 5288,
      "fy": 5289,
      "fly": 5290,
      "flun": 5291,
      "gging": 5292,
      "ghast": 5293,
      "gusted": 5294,
      "hed": 5295,
      "hil": 5296,
      "hide": 5297,
      "io": 5298,
      "iver": 5299,
      "ially": 5300,
      "je": 5301,
      "jard": 5302,
      "jag": 5303,
      "knot": 5304,
      "kne": 5305,
      "kers": 5306,
      "lur": 5307,
      "lone": 5308,
      "lass": 5309,
      "lord": 5310,
      "lishing": 5311,
      "mes": 5312,
      "mab": 5313,
      "mil": 5314,
      "mise": 5315,
      "nu": 5316,
      "nap": 5317,
      "nected": 5318,
      "oc": 5319,
      "ost": 5320,
      "obe": 5321,
      "pg": 5322,
      "pin": 5323,
      "pse": 5324,
      "pra": 5325,
      "pall": 5326,
      "pup": 5327,
      "pig": 5328,
      "pier": 5329,
      "pushed": 5330,
      "rat": 5331,
      "rus": 5332,
      "ride": 5333,
      "rors": 5334,
      "sle": 5335,
      "scri": 5336,
      "snic": 5337,
      "sigh": 5338,
      "scur": 5339,
      "scu": 5340,
      "sized": 5341,
      "sangu": 5342,
      "saint": 5343,
      "swore": 5344,
      "tt": 5345,
      "tit": 5346,
      "tto": 5347,
      "tex": 5348,
      "tant": 5349,
      "tting": 5350,
      "tree": 5351,
      "tang": 5352,
      "tna": 5353,
      "tresses": 5354,
      "upro": 5355,
      "uvi": 5356,
      "vic": 5357,
      "vad": 5358,
      "vil": 5359,
      "vill": 5360,
      "vable": 5361,
      "vag": 5362,
      "vance": 5363,
      "vine": 5364,
      "vices": 5365,
      "viction": 5366,
      "wy": 5367,
      "wat": 5368,
      "wing": 5369,
      "wis": 5370,
      "wine": 5371,
      "wave": 5372,
      "wager": 5373,
      "yon": 5374,
      "yer": 5375,
      "yen": 5376,
      "zed": 5377,
      "zac": 5378,
      "ætna": 5379,
      "theat": 5380,
      "theories": 5381,
      "inf": 5382,
      "ini": 5383,
      "insp": 5384,
      "inity": 5385,
      "insur": 5386,
      "inations": 5387,
      "infl": 5388,
      "incid": 5389,
      "incalcul": 5390,
      "infin": 5391,
      "inju": 5392,
      "inexpress": 5393,
      "invaluable": 5394,
      "re_": 5395,
      "rer": 5396,
      "reis": 5397,
      "rely": 5398,
      "remo": 5399,
      "retain": 5400,
      "remed": 5401,
      "revis": 5402,
      "rejo": 5403,
      "reign": 5404,
      "reliable": 5405,
      "rebuff": 5406,
      "recollect": 5407,
      "aning": 5408,
      "anite": 5409,
      "ona": 5410,
      "onic": 5411,
      "onding": 5412,
      "erated": 5413,
      "attain": 5414,
      "atics": 5415,
      "atos": 5416,
      "encounter": 5417,
      "enchant": 5418,
      "arid": 5419,
      "aries": 5420,
      "arago": 5421,
      "arrested": 5422,
      "edu": 5423,
      "sted": 5424,
      "stay": 5425,
      "staff": 5426,
      "stump": 5427,
      "ital": 5428,
      "itate": 5429,
      "itated": 5430,
      "orange": 5431,
      "tole": 5432,
      "topo": 5433,
      "toast": 5434,
      "lease": 5435,
      "legal": 5436,
      "isher": 5437,
      "asper": 5438,
      "ascent": 5439,
      "aside": 5440,
      "assure": 5441,
      "assail": 5442,
      "assemb": 5443,
      "icked": 5444,
      "ications": 5445,
      "icism": 5446,
      "sem": 5447,
      "seated": 5448,
      "sealed": 5449,
      "befall": 5450,
      "escence": 5451,
      "roof": 5452,
      "rome": 5453,
      "rogen": 5454,
      "rodu": 5455,
      "rossed": 5456,
      "roaring": 5457,
      "roeter": 5458,
      "haz": 5459,
      "haven": 5460,
      "habits": 5461,
      "hammer": 5462,
      "ionate": 5463,
      "hearers": 5464,
      "al_": 5465,
      "alas": 5466,
      "alumin": 5467,
      "alkal": 5468,
      "moist": 5469,
      "movable": 5470,
      "entr": 5471,
      "entity": 5472,
      "entire": 5473,
      "mé": 5474,
      "metr": 5475,
      "metal": 5476,
      "idle": 5477,
      "idium_": 5478,
      "cease": 5479,
      "versa_": 5480,
      "suit": 5481,
      "suitable": 5482,
      "rily": 5483,
      "rius": 5484,
      "riously": 5485,
      "rivance": 5486,
      "utonic": 5487,
      "ram": 5488,
      "ramid": 5489,
      "ravin": 5490,
      "raising": 5491,
      "cher": 5492,
      "chick": 5493,
      "chimed": 5494,
      "charts": 5495,
      "chasm": 5496,
      "christ": 5497,
      "lived": 5498,
      "lives": 5499,
      "limin": 5500,
      "lihood": 5501,
      "limits": 5502,
      "coated": 5503,
      "cosm": 5504,
      "cook": 5505,
      "allation": 5506,
      "irt": 5507,
      "irresist": 5508,
      "irrit": 5509,
      "iridium_": 5510,
      "wire": 5511,
      "wires": 5512,
      "wiping": 5513,
      "ainted": 5514,
      "unequ": 5515,
      "unru": 5516,
      "uneasy": 5517,
      "unsatisfactory": 5518,
      "unroll": 5519,
      "unearthly": 5520,
      "unassail": 5521,
      "forced": 5522,
      "soil": 5523,
      "soever": 5524,
      "decl": 5525,
      "decom": 5526,
      "decor": 5527,
      "dewy": 5528,
      "prolong": 5529,
      "proposition": 5530,
      "prodig": 5531,
      "aband": 5532,
      "absent": 5533,
      "abys": 5534,
      "abrupt": 5535,
      "washed": 5536,
      "load": 5537,
      "local": 5538,
      "lovely": 5539,
      "contain": 5540,
      "conscience": 5541,
      "confirm": 5542,
      "connell": 5543,
      "convenient": 5544,
      "connected": 5545,
      "conviction": 5546,
      "improved": 5547,
      "imprison": 5548,
      "termin": 5549,
      "apol": 5550,
      "poet": 5551,
      "noted": 5552,
      "hove": 5553,
      "hosp": 5554,
      "homer": 5555,
      "exten": 5556,
      "exclu": 5557,
      "ladies": 5558,
      "diam": 5559,
      "divers": 5560,
      "nebul": 5561,
      "aye": 5562,
      "hissing": 5563,
      "barren": 5564,
      "barking": 5565,
      "barometer": 5566,
      "quity": 5567,
      "quently": 5568,
      "key": 5569,
      "kest": 5570,
      "user": 5571,
      "fathoms": 5572,
      "facility": 5573,
      "ulating": 5574,
      "ades": 5575,
      "addre": 5576,
      "adversary": 5577,
      "mpa": 5578,
      "tear": 5579,
      "team": 5580,
      "feast": 5581,
      "feather": 5582,
      "outlined": 5583,
      "span": 5584,
      "moons": 5585,
      "moonlight": 5586,
      "preced": 5587,
      "preserved": 5588,
      "prelimin": 5589,
      "frozen": 5590,
      "earlier": 5591,
      "fog": 5592,
      "food": 5593,
      "save": 5594,
      "door": 5595,
      "dome": 5596,
      "cked": 5597,
      "ilities": 5598,
      "boss": 5599,
      "illa": 5600,
      "illusion": 5601,
      "astrop": 5602,
      "couldn": 5603,
      "whatsoever": 5604,
      "caphand": 5605,
      "capric": 5606,
      "etu": 5607,
      "menting": 5608,
      "canine": 5609,
      "shru": 5610,
      "shiver": 5611,
      "tray": 5612,
      "veness": 5613,
      "articul": 5614,
      "upright": 5615,
      "thereby": 5616,
      "bleeding": 5617,
      "obtaining": 5618,
      "obscur": 5619,
      "deriv": 5620,
      "mann": 5621,
      "forecastle": 5622,
      "pel": 5623,
      "pest": 5624,
      "peering": 5625,
      "tiest": 5626,
      "acious": 5627,
      "accli": 5628,
      "accum": 5629,
      "compass": 5630,
      "complying": 5631,
      "compasses": 5632,
      "compell": 5633,
      "compels": 5634,
      "dish": 5635,
      "discer": 5636,
      "disappearance": 5637,
      "disagreeable": 5638,
      "disgusted": 5639,
      "series": 5640,
      "service": 5641,
      "services": 5642,
      "owed": 5643,
      "akes": 5644,
      "cries": 5645,
      "surpassed": 5646,
      "intill": 5647,
      "introdu": 5648,
      "agn": 5649,
      "aging": 5650,
      "agency": 5651,
      "agara": 5652,
      "likelihood": 5653,
      "lighting": 5654,
      "plu": 5655,
      "pled": 5656,
      "plutonic": 5657,
      "whom": 5658,
      "amuse": 5659,
      "gods": 5660,
      "govern": 5661,
      "goose": 5662,
      "acted": 5663,
      "troubled": 5664,
      "howl": 5665,
      "howling": 5666,
      "selfish": 5667,
      "igrade": 5668,
      "phur": 5669,
      "phleg": 5670,
      "caut": 5671,
      "cavity": 5672,
      "mary": 5673,
      "marvell": 5674,
      "strat": 5675,
      "looming": 5676,
      "vesuvi": 5677,
      "istarch": 5678,
      "istered": 5679,
      "istoric": 5680,
      "oppon": 5681,
      "olite": 5682,
      "tynd": 5683,
      "theses": 5684,
      "ffled": 5685,
      "partly": 5686,
      "parties": 5687,
      "partially": 5688,
      "mountable": 5689,
      "kingdom": 5690,
      "print": 5691,
      "sunken": 5692,
      "shouldn": 5693,
      "clapping": 5694,
      "thenes_": 5695,
      "shallow": 5696,
      "shaken": 5697,
      "shaky": 5698,
      "resting": 5699,
      "restra": 5700,
      "grap": 5701,
      "gravit": 5702,
      "mination": 5703,
      "sentence": 5704,
      "intersection": 5705,
      "intervals": 5706,
      "desires": 5707,
      "desperate": 5708,
      "mud": 5709,
      "offer": 5710,
      "contrivance": 5711,
      "centenn": 5712,
      "centigrade": 5713,
      "norway": 5714,
      "tenth": 5715,
      "useful": 5716,
      "crit": 5717,
      "grin": 5718,
      "grate": 5719,
      "grass": 5720,
      "granite": 5721,
      "roughly": 5722,
      "regna": 5723,
      "newly": 5724,
      "newton": 5725,
      "afford": 5726,
      "eping": 5727,
      "reel": 5728,
      "apply": 5729,
      "appalling": 5730,
      "countless": 5731,
      "tampa": 5732,
      "fewer": 5733,
      "airs": 5734,
      "presents": 5735,
      "isel": 5736,
      "sheets": 5737,
      "brings": 5738,
      "steer": 5739,
      "stered": 5740,
      "angles": 5741,
      "ronizing": 5742,
      "denied": 5743,
      "impul": 5744,
      "impetu": 5745,
      "justice": 5746,
      "inkage": 5747,
      "extends": 5748,
      "tempers": 5749,
      "tempered": 5750,
      "temporary": 5751,
      "gency": 5752,
      "darkest": 5753,
      "navy": 5754,
      "mative": 5755,
      "matically": 5756,
      "bition": 5757,
      "closer": 5758,
      "faster": 5759,
      "fasten": 5760,
      "halt": 5761,
      "fiery": 5762,
      "fixed": 5763,
      "souls": 5764,
      "ification": 5765,
      "subsidence": 5766,
      "subscri": 5767,
      "clea": 5768,
      "gian": 5769,
      "giants": 5770,
      "gibber": 5771,
      "speck": 5772,
      "_mille": 5773,
      "join": 5774,
      "joke": 5775,
      "joined": 5776,
      "joining": 5777,
      "resound": 5778,
      "resign": 5779,
      "expand": 5780,
      "expedition": 5781,
      "carri": 5782,
      "ieth": 5783,
      "morrow": 5784,
      "watery": 5785,
      "downwards": 5786,
      "volumes": 5787,
      "copper": 5788,
      "darker": 5789,
      "wondr": 5790,
      "column": 5791,
      "streak": 5792,
      "streaked": 5793,
      "fury": 5794,
      "bravely": 5795,
      "cules": 5796,
      "tribut": 5797,
      "finish": 5798,
      "ibnit": 5799,
      "mony": 5800,
      "monster": 5801,
      "gue": 5802,
      "guests": 5803,
      "nals": 5804,
      "passions": 5805,
      "sierr": 5806,
      "sirius": 5807,
      "greece": 5808,
      "cheyen": 5809,
      "simpleton": 5810,
      "valve": 5811,
      "value": 5812,
      "attitudes": 5813,
      "depends": 5814,
      "mbert_": 5815,
      "engrossed": 5816,
      "spectacles": 5817,
      "spectators": 5818,
      "interrupt": 5819,
      "wondering": 5820,
      "subjects": 5821,
      "powerless": 5822,
      "blu": 5823,
      "resuming": 5824,
      "hel_": 5825,
      "exists": 5826,
      "generated": 5827,
      "gunpowder": 5828,
      "stored": 5829,
      "stoicism": 5830,
      "furthermore": 5831,
      "sixth": 5832,
      "voring": 5833,
      "clubmen": 5834,
      "champ": 5835,
      "chambers": 5836,
      "soundless": 5837,
      "choose": 5838,
      "expressly": 5839,
      "expressions": 5840,
      "graphical": 5841,
      "walled": 5842,
      "arches": 5843,
      "heaving": 5844,
      "pretending": 5845,
      "viewing": 5846,
      "crazy": 5847,
      "efful": 5848,
      "listens": 5849,
      "listened": 5850,
      "terribly": 5851,
      "animation": 5852,
      "movements": 5853,
      "colds": 5854,
      "production": 5855,
      "shortly": 5856,
      "glassy": 5857,
      "broad": 5858,
      "hearing": 5859,
      "horn": 5860,
      "hearty": 5861,
      "bottomless": 5862,
      "realize": 5863,
      "necessity": 5864,
      "necessarily": 5865,
      "grandly": 5866,
      "dreary": 5867,
      "warning": 5868,
      "warmest": 5869,
      "recovery": 5870,
      "recoil": 5871,
      "annapol": 5872,
      "ushing": 5873,
      "books": 5874,
      "circuses": 5875,
      "ballast": 5876,
      "neutralize": 5877,
      "glaci": 5878,
      "pening": 5879,
      "scintill": 5880,
      "waiting": 5881,
      "allowing": 5882,
      "anticip": 5883,
      "fortune": 5884,
      "sorbon": 5885,
      "coolness": 5886,
      "hopeful": 5887,
      "dispense": 5888,
      "glimmer": 5889,
      "mainly": 5890,
      "pathless": 5891,
      "strikes": 5892,
      "answering": 5893,
      "reflector": 5894,
      "attracted": 5895,
      "distinguisha": 5896,
      "purity": 5897,
      "senseless": 5898,
      "watched": 5899,
      "arguing": 5900,
      "escaping": 5901,
      "nervous": 5902,
      "purif": 5903,
      "sank": 5904,
      "varied": 5905,
      "helpless": 5906,
      "born": 5907,
      "instructive": 5908,
      "respectfully": 5909,
      "arency": 5910,
      "equality": 5911,
      "brilliancy": 5912,
      "20th": 5913,
      "signalling": 5914,
      "influenced": 5915,
      "detach": 5916,
      "imagined": 5917,
      "gradual": 5918,
      "listeners": 5919,
      "sharply": 5920,
      "drif": 5921,
      "dried": 5922,
      "driven": 5923,
      "france": 5924,
      "universe": 5925,
      "blaze": 5926,
      "reminding": 5927,
      "peculiarities": 5928,
      "wardly": 5929,
      "attempted": 5930,
      "attempting": 5931,
      "destined": 5932,
      "examining": 5933,
      "ia_": 5934,
      "opera": 5935,
      "operating": 5936,
      "sensation": 5937,
      "sensibly": 5938,
      "throat": 5939,
      "windlass": 5940,
      "_vice": 5941,
      "bounded": 5942,
      "daily": 5943,
      "increase": 5944,
      "rails": 5945,
      "accomplish": 5946,
      "transmit": 5947,
      "transition": 5948,
      "bursting": 5949,
      "parallelism": 5950,
      "30th": 5951,
      "cross": 5952,
      "persisted": 5953,
      "pulled": 5954,
      "treat": 5955,
      "treated": 5956,
      "combination": 5957,
      "flattened": 5958,
      "employing": 5959,
      "principal": 5960,
      "flakes": 5961,
      "german": 5962,
      "pyramid": 5963,
      "tablets": 5964,
      "enjoying": 5965,
      "deathlike": 5966,
      "powers": 5967,
      "1300": 5968,
      "drops": 5969,
      "freer": 5970,
      "frequently": 5971,
      "record": 5972,
      "admitted": 5973,
      "reported": 5974,
      "particles": 5975,
      "profoundly": 5976,
      "discovering": 5977,
      "diminishing": 5978,
      "petal": 5979,
      "purest": 5980,
      "purely": 5981,
      "slang": 5982,
      "rigor": 5983,
      "coasts": 5984,
      "property": 5985,
      "concerning": 5986,
      "accessible": 5987,
      "calmly": 5988,
      "calmness": 5989,
      "steeped": 5990,
      "valleys": 5991,
      "comparative": 5992,
      "communicate": 5993,
      "mistak": 5994,
      "palace": 5995,
      "payments": 5996,
      "included": 5997,
      "diego": 5998,
      "comfortably": 5999,
      "triumphal": 6000,
      "blown": 6001,
      "elev": 6002,
      "eleven": 6003,
      "elements": 6004,
      "fleet": 6005,
      "flesh": 6006,
      "futile": 6007,
      "function": 6008,
      "furnish": 6009,
      "whirling": 6010,
      "whirled": 6011,
      "constantly": 6012,
      "teeth": 6013,
      "spiring": 6014,
      "sailors": 6015,
      "obliged": 6016,
      "obliquity": 6017,
      "jumped": 6018,
      "variations": 6019,
      "arrangements": 6020,
      "contemplation": 6021,
      "paragraphs": 6022,
      "growing": 6023,
      "enveloped": 6024,
      "separate": 6025,
      "separated": 6026,
      "depressions": 6027,
      "diverging": 6028,
      "savants": 6029,
      "cheerfully": 6030,
      "judging": 6031,
      "determination": 6032,
      "retarded": 6033,
      "mirror": 6034,
      "phosp": 6035,
      "sandy": 6036,
      "stud": 6037,
      "melted": 6038,
      "limitation": 6039,
      "impressed": 6040,
      "impressions": 6041,
      "prisoners": 6042,
      "deserved": 6043,
      "gratify": 6044,
      "steamboat": 6045,
      "speculative": 6046,
      "pleases": 6047,
      "cracked": 6048,
      "humorum_": 6049,
      "reliefs": 6050,
      "birth": 6051,
      "furious": 6052,
      "fugal": 6053,
      "snowy": 6054,
      "relation": 6055,
      "respons": 6056,
      "leading": 6057,
      "alarming": 6058,
      "vividly": 6059,
      "authority": 6060,
      "hypotheses": 6061,
      "sparkled": 6062,
      "_ptole": 6063,
      "credit": 6064,
      "painted": 6065,
      "schroeter": 6066,
      "tints": 6067,
      "alternative": 6068,
      "modification": 6069,
      "weighs": 6070,
      "devote": 6071,
      "defective": 6072,
      "netic": 6073,
      "network": 6074,
      "prehistoric": 6075,
      "earnestly": 6076,
      "receives": 6077,
      "_arzac": 6078,
      "_aristarch": 6079,
      "eminent": 6080,
      "muttering": 6081,
      "music": 6082,
      "muscular": 6083,
      "inexplicable": 6084,
      "ascertained": 6085,
      "bewildering": 6086,
      "sulphur": 6087,
      "superfic": 6088,
      "unanimous": 6089,
      "advised": 6090,
      "advisable": 6091,
      "previously": 6092,
      "preparing": 6093,
      "preparations": 6094,
      "astonished": 6095,
      "shouting": 6096,
      "estimated": 6097,
      "ignorance": 6098,
      "granted": 6099,
      "pursue": 6100,
      "contradic": 6101,
      "organized": 6102,
      "channels": 6103,
      "blasting": 6104,
      "eaten": 6105,
      "national": 6106,
      "panes": 6107,
      "swung": 6108,
      "sitting": 6109,
      "yellow": 6110,
      "infernal": 6111,
      "eruption": 6112,
      "energy": 6113,
      "beholding": 6114,
      "molecules": 6115,
      "sustained": 6116,
      "sustaining": 6117,
      "abundance": 6118,
      "fahr": 6119,
      "admiringly": 6120,
      "prevailed": 6121,
      "greedily": 6122,
      "-----)": 6123,
      "astounded": 6124,
      "asteroids": 6125,
      "shrinkage": 6126,
      "magnetic": 6127,
      "happiness": 6128,
      "stretched": 6129,
      "stretching": 6130,
      "affirmative": 6131,
      "similarly": 6132,
      "catastrop": 6133,
      "cabin": 6134,
      "finger": 6135,
      "fingers": 6136,
      "girls": 6137,
      "nitrogen": 6138,
      "yelled": 6139,
      "thrilled": 6140,
      "thrilling": 6141,
      "secchi": 6142,
      "modern": 6143,
      "moderate": 6144,
      "folding": 6145,
      "perplexity": 6146,
      "designate": 6147,
      "corners": 6148,
      "refracted": 6149,
      "exceptional": 6150,
      "buffers": 6151,
      "heaviest": 6152,
      "warranties": 6153,
      "principles": 6154,
      "resemblance": 6155,
      "obliquely": 6156,
      "knocked": 6157,
      "endeavored": 6158,
      "endeavoring": 6159,
      "_leibnit": 6160,
      "aeron": 6161,
      "aerolite": 6162,
      "equipment": 6163,
      "equivalent": 6164,
      "glowing": 6165,
      "oreograph": 6166,
      "patronizing": 6167,
      "betraying": 6168,
      "hauling": 6169,
      "improvement": 6170,
      "execution": 6171,
      "survey": 6172,
      "amidst": 6173,
      "centripetal": 6174,
      "centrifugal": 6175,
      "crisium_": 6176,
      "thomson": 6177,
      "impatient": 6178,
      "substance": 6179,
      "substances": 6180,
      "monotony": 6181,
      "gesticulating": 6182,
      "transport": 6183,
      "transparency": 6184,
      "royalty": 6185,
      "royalties": 6186,
      "vigorously": 6187,
      "_lambert_": 6188,
      "average": 6189,
      "economy": 6190,
      "inert": 6191,
      "reference": 6192,
      "nodding": 6193,
      "roasting": 6194,
      "congratulate": 6195,
      "consulted": 6196,
      "appreciable": 6197,
      "exterior": 6198,
      "negative": 6199,
      "articles": 6200,
      "acquainted": 6201,
      "academy": 6202,
      "planted": 6203,
      "cavernous": 6204,
      "assistance": 6205,
      "afraid": 6206,
      "excessive": 6207,
      "density": 6208,
      "refreshment": 6209,
      "fiercely": 6210,
      "struggle": 6211,
      "exclaiming": 6212,
      "building": 6213,
      "draughts": 6214,
      "sympathy": 6215,
      "scenes": 6216,
      "mixture": 6217,
      "accepted": 6218,
      "celebrated": 6219,
      "majestic": 6220,
      "disclaimer": 6221,
      "inconceivable": 6222,
      "_à": 6223,
      "_g_": 6224,
      "_was_": 6225,
      "cassini": 6226,
      "crests": 6227,
      "drunk": 6228,
      "events": 6229,
      "frisby": 6230,
      "fancies": 6231,
      "gallant": 6232,
      "hibition": 6233,
      "honest": 6234,
      "links": 6235,
      "niagara": 6236,
      "pardon": 6237,
      "prayer": 6238,
      "rattling": 6239,
      "slopes": 6240,
      "sket": 6241,
      "slipped": 6242,
      "tender": 6243,
      "taste": 6244,
      "varying": 6245,
      "throng": 6246,
      "isolated": 6247,
      "selected": 6248,
      "healthy": 6249,
      "chlorate": 6250,
      "connection": 6251,
      "imparted": 6252,
      "hotel": 6253,
      "exclus": 6254,
      "launch": 6255,
      "quiring": 6256,
      "shrieked": 6257,
      "derrick": 6258,
      "corusc": 6259,
      "corresponding": 6260,
      "cultivated": 6261,
      "crashing": 6262,
      "extremity": 6263,
      "navigation": 6264,
      "speech": 6265,
      "furrowed": 6266,
      "instantaneous": 6267,
      "integral": 6268,
      "indefinitely": 6269,
      "annihil": 6270,
      "perceptible": 6271,
      "_aposelen": 6272,
      "threatening": 6273,
      "rainbows": 6274,
      "picturesque": 6275,
      "incontestably": 6276,
      "performance": 6277,
      "_eratos": 6278,
      "_had_": 6279,
      "_should_": 6280,
      "_did_": 6281,
      "_down_": 6282,
      "_life_": 6283,
      "_eccentricity_": 6284,
      "_plato_": 6285,
      "_perigee_": 6286,
      "_archimedes_": 6287,
      "avail": 6288,
      "aqueduct": 6289,
      "blistered": 6290,
      "everest": 6291,
      "elastic": 6292,
      "flung": 6293,
      "ghastly": 6294,
      "jardin": 6295,
      "jagged": 6296,
      "sanguine": 6297,
      "tangent": 6298,
      "uproar": 6299,
      "watkins": 6300,
      "inflated": 6301,
      "incidents": 6302,
      "incalculable": 6303,
      "injured": 6304,
      "inexpressibly": 6305,
      "reiset": 6306,
      "recollections": 6307,
      "topographical": 6308,
      "asperity": 6309,
      "aluminium": 6310,
      "alkali": 6311,
      "moisture": 6312,
      "ravines": 6313,
      "chickens": 6314,
      "unequalled": 6315,
      "unruffled": 6316,
      "unassailable": 6317,
      "abysses": 6318,
      "extensive": 6319,
      "diamond": 6320,
      "preliminary": 6321,
      "shrugging": 6322,
      "obscurity": 6323,
      "derivative": 6324,
      "acclimat": 6325,
      "accumulated": 6326,
      "compelled": 6327,
      "marvellous": 6328,
      "vesuvius": 6329,
      "tyndall": 6330,
      "centennial": 6331,
      "regnault": 6332,
      "wondrous": 6333,
      "columns": 6334,
      "sierras": 6335,
      "cheyenne": 6336,
      "annapolis": 6337,
      "sorbonne": 6338,
      "_arzachel_": 6339,
      "_aristarchus_": 6340,
      "catastrophe": 6341,
      "_leibnitz_": 6342,
      "annihilated": 6343,
      "_eratosthenes_": 6344,
      "!!": 6345,
      "!'": 6346,
      "!}": 6347,
      "\"--": 6348,
      "',": 6349,
      ",'": 6350,
      "//": 6351,
      "113": 6352,
      "2400": 6353,
      "2nd": 6354,
      "37": 6355,
      "44": 6356,
      "48": 6357,
      "4000": 6358,
      "480": 6359,
      "54": 6360,
      "55": 6361,
      "57": 6362,
      "59": 6363,
      "62": 6364,
      "66": 6365,
      "750": 6366,
      "875": 6367,
      "900": 6368,
      ":--": 6369,
      "://": 6370,
      "?'": 6371,
      "??\"": 6372,
      "_b": 6373,
      "_or": 6374,
      "_he": 6375,
      "_we": 6376,
      "_ce": 6377,
      "_pro": 6378,
      "_are": 6379,
      "_fe": 6380,
      "_if": 6381,
      "_sa": 6382,
      "_per": 6383,
      "_ven": 6384,
      "_up": 6385,
      "_were": 6386,
      "_more": 6387,
      "_man": 6388,
      "_earth": 6389,
      "_some": 6390,
      "_him": 6391,
      "_less": 6392,
      "_most": 6393,
      "_day": 6394,
      "_night": 6395,
      "_imp": 6396,
      "_old": 6397,
      "_cur": 6398,
      "_hu": 6399,
      "_short": 6400,
      "_pretty": 6401,
      "_baltimore": 6402,
      "_pur": 6403,
      "_seas": 6404,
      "_movement": 6405,
      "_pal": 6406,
      "_mount": 6407,
      "_valley": 6408,
      "_fu": 6409,
      "_i_": 6410,
      "_cas": 6411,
      "_terra": 6412,
      "_kepl": 6413,
      "_opposition": 6414,
      "_grooves": 6415,
      "_mé": 6416,
      "aim": 6417,
      "aven": 6418,
      "aure": 6419,
      "avi": 6420,
      "avid": 6421,
      "aval": 6422,
      "awaited": 6423,
      "bi": 6424,
      "bout": 6425,
      "bers": 6426,
      "bone": 6427,
      "bust": 6428,
      "bite": 6429,
      "bach": 6430,
      "bors": 6431,
      "bbed": 6432,
      "bann": 6433,
      "based": 6434,
      "banged": 6435,
      "brows": 6436,
      "borders": 6437,
      "bdign": 6438,
      "cen": 6439,
      "cit": 6440,
      "card": 6441,
      "cim": 6442,
      "cout": 6443,
      "cif": 6444,
      "cate": 6445,
      "cant": 6446,
      "cust": 6447,
      "cca": 6448,
      "cide": 6449,
      "cub": 6450,
      "cund": 6451,
      "casp": 6452,
      "cendent": 6453,
      "dp": 6454,
      "dare": 6455,
      "dur": 6456,
      "dge": 6457,
      "dman": 6458,
      "dum": 6459,
      "dwell": 6460,
      "dled": 6461,
      "ddy": 6462,
      "diction": 6463,
      "dante": 6464,
      "ere": 6465,
      "ean": 6466,
      "elong": 6467,
      "eled": 6468,
      "eating": 6469,
      "emit": 6470,
      "etest": 6471,
      "egy": 6472,
      "ebull": 6473,
      "emotions": 6474,
      "email": 6475,
      "fon": 6476,
      "fed": 6477,
      "foun": 6478,
      "fil": 6479,
      "fits": 6480,
      "fled": 6481,
      "fts": 6482,
      "fash": 6483,
      "flights": 6484,
      "ffered": 6485,
      "gly": 6486,
      "gard": 6487,
      "gim": 6488,
      "gant": 6489,
      "gil": 6490,
      "gna": 6491,
      "hr": 6492,
      "hus": 6493,
      "hue": 6494,
      "hush": 6495,
      "hire": 6496,
      "hanged": 6497,
      "honey": 6498,
      "htt": 6499,
      "ili": 6500,
      "ike": 6501,
      "ipe": 6502,
      "ivity": 6503,
      "irie": 6504,
      "iveness": 6505,
      "jan": 6506,
      "jap": 6507,
      "jet": 6508,
      "job": 6509,
      "jac": 6510,
      "k_": 6511,
      "kent": 6512,
      "kay": 6513,
      "kane": 6514,
      "lin": 6515,
      "las": 6516,
      "mmo": 6517,
      "mant": 6518,
      "mations": 6519,
      "mpos": 6520,
      "mbre": 6521,
      "mming": 6522,
      "mutter": 6523,
      "mwood": 6524,
      "mbered": 6525,
      "ny": 6526,
      "nar": 6527,
      "nut": 6528,
      "nian": 6529,
      "oy": 6530,
      "ola": 6531,
      "oke": 6532,
      "ote": 6533,
      "oven": 6534,
      "oph": 6535,
      "omed": 6536,
      "oms": 6537,
      "phe": 6538,
      "pant": 6539,
      "pill": 6540,
      "pine": 6541,
      "plied": 6542,
      "pang": 6543,
      "patch": 6544,
      "pments": 6545,
      "pave": 6546,
      "ps_": 6547,
      "padded": 6548,
      "pana": 6549,
      "pane": 6550,
      "ptive": 6551,
      "picking": 6552,
      "rican": 6553,
      "rum": 6554,
      "rass": 6555,
      "rating": 6556,
      "range": 6557,
      "rates": 6558,
      "rhy": 6559,
      "rushed": 6560,
      "rinkled": 6561,
      "sen": 6562,
      "sse": 6563,
      "swi": 6564,
      "sby": 6565,
      "sation": 6566,
      "sad": 6567,
      "scan": 6568,
      "song": 6569,
      "sway": 6570,
      "swell": 6571,
      "smiles": 6572,
      "scr": 6573,
      "siz": 6574,
      "swar": 6575,
      "swa": 6576,
      "scot": 6577,
      "sister": 6578,
      "source": 6579,
      "slaught": 6580,
      "scaphand": 6581,
      "tin": 6582,
      "tar": 6583,
      "tic": 6584,
      "tro": 6585,
      "tall": 6586,
      "tur": 6587,
      "tum": 6588,
      "ttle": 6589,
      "text": 6590,
      "tility": 6591,
      "tus_": 6592,
      "tures": 6593,
      "tides": 6594,
      "tune": 6595,
      "uit": 6596,
      "uis": 6597,
      "uity": 6598,
      "uction": 6599,
      "uys": 6600,
      "uith": 6601,
      "urier": 6602,
      "vou": 6603,
      "vas": 6604,
      "vard": 6605,
      "vive": 6606,
      "vict": 6607,
      "wd": 6608,
      "wl": 6609,
      "ws": 6610,
      "wed": 6611,
      "wad": 6612,
      "wich": 6613,
      "wag": 6614,
      "wished": 6615,
      "wins": 6616,
      "wishing": 6617,
      "wadded": 6618,
      "waning": 6619,
      "wicked": 6620,
      "xi": 6621,
      "xv": 6622,
      "xii": 6623,
      "xiv": 6624,
      "xiii": 6625,
      "xix": 6626,
      "ygh": 6627,
      "yard": 6628,
      "yss": 6629,
      "yak": 6630,
      "ymous": 6631,
      "zes": 6632,
      "°,": 6633,
      "́e": 6634,
      "́n": 6635,
      "̂me": 6636,
      "thest": 6637,
      "iny": 6638,
      "inve": 6639,
      "inver": 6640,
      "inction": 6641,
      "incor": 6642,
      "inating": 6643,
      "inqui": 6644,
      "indep": 6645,
      "india": 6646,
      "incorrect": 6647,
      "indirectly": 6648,
      "inability": 6649,
      "inopport": 6650,
      "invari": 6651,
      "inverse": 6652,
      "incand": 6653,
      "inhabits": 6654,
      "inhosp": 6655,
      "inaccessible": 6656,
      "inspiring": 6657,
      "incide": 6658,
      "rean": 6659,
      "rela": 6660,
      "ress": 6661,
      "reser": 6662,
      "revell": 6663,
      "recent": 6664,
      "recourse": 6665,
      "recalled": 6666,
      "readi": 6667,
      "remove": 6668,
      "resolute": 6669,
      "reward": 6670,
      "reaction": 6671,
      "respir": 6672,
      "reconstruct": 6673,
      "reverse": 6674,
      "redistributing": 6675,
      "redistribution": 6676,
      "restrict": 6677,
      "recollection": 6678,
      "requisite": 6679,
      "rejected": 6680,
      "retired": 6681,
      "requiring": 6682,
      "rewd": 6683,
      "anic": 6684,
      "anes": 6685,
      "anche": 6686,
      "anks": 6687,
      "annals": 6688,
      "oni": 6689,
      "onse": 6690,
      "onte": 6691,
      "ongest": 6692,
      "erra": 6693,
      "erous": 6694,
      "erment": 6695,
      "eries": 6696,
      "erland": 6697,
      "erfur": 6698,
      "ercury": 6699,
      "ats": 6700,
      "atom": 6701,
      "atus_": 6702,
      "attested": 6703,
      "attribut": 6704,
      "ouvre": 6705,
      "enum": 6706,
      "envi": 6707,
      "engra": 6708,
      "enkind": 6709,
      "enlar": 6710,
      "enforce": 6711,
      "enched": 6712,
      "encou": 6713,
      "enrapt": 6714,
      "arf": 6715,
      "arm": 6716,
      "arct": 6717,
      "arab": 6718,
      "arte": 6719,
      "arist": 6720,
      "edless": 6721,
      "edding": 6722,
      "edged": 6723,
      "edward": 6724,
      "stat": 6725,
      "stic": 6726,
      "stro": 6727,
      "stim": 6728,
      "sters": 6729,
      "stup": 6730,
      "stately": 6731,
      "stamp": 6732,
      "sticks": 6733,
      "stagn": 6734,
      "itic": 6735,
      "itect": 6736,
      "itary": 6737,
      "ortho": 6738,
      "ordered": 6739,
      "tore": 6740,
      "tokay": 6741,
      "lex": 6742,
      "leis": 6743,
      "lever": 6744,
      "leman": 6745,
      "leag": 6746,
      "levity": 6747,
      "lecout": 6748,
      "isse": 6749,
      "isive": 6750,
      "asci": 6751,
      "asped": 6752,
      "asia": 6753,
      "ascribed": 6754,
      "lling": 6755,
      "llation": 6756,
      "llable": 6757,
      "llip": 6758,
      "andum": 6759,
      "icing": 6760,
      "icable": 6761,
      "icating": 6762,
      "icably": 6763,
      "sees": 6764,
      "seph": 6765,
      "sets": 6766,
      "semi": 6767,
      "lys": 6768,
      "bee": 6769,
      "beast": 6770,
      "beet": 6771,
      "bets": 6772,
      "behalf": 6773,
      "beheld": 6774,
      "befallen": 6775,
      "beaming": 6776,
      "esar": 6777,
      "nose": 6778,
      "ro_": 6779,
      "roth": 6780,
      "robe": 6781,
      "rower": 6782,
      "rore_": 6783,
      "rodman": 6784,
      "rosse": 6785,
      "hamp": 6786,
      "haust": 6787,
      "cts": 6788,
      "ctant": 6789,
      "ion_": 6790,
      "ionth": 6791,
      "heating": 6792,
      "heave": 6793,
      "heeding": 6794,
      "hello": 6795,
      "heedless": 6796,
      "ald": 6797,
      "als": 6798,
      "aldi": 6799,
      "alman": 6800,
      "alike": 6801,
      "moting": 6802,
      "motto": 6803,
      "veil": 6804,
      "vets": 6805,
      "ghost": 6806,
      "whim": 6807,
      "whither": 6808,
      "whining": 6809,
      "wharf": 6810,
      "entry": 6811,
      "entiously": 6812,
      "entangled": 6813,
      "mead": 6814,
      "member": 6815,
      "megg": 6816,
      "même": 6817,
      "id_": 6818,
      "ider": 6819,
      "idable": 6820,
      "ceased": 6821,
      "verne": 6822,
      "verge": 6823,
      "verish": 6824,
      "verify": 6825,
      "veracious": 6826,
      "suffered": 6827,
      "rib": 6828,
      "ril": 6829,
      "riment": 6830,
      "rigged": 6831,
      "rified": 6832,
      "riek": 6833,
      "rimony": 6834,
      "rivets": 6835,
      "utted": 6836,
      "rare": 6837,
      "raise": 6838,
      "raref": 6839,
      "ragi": 6840,
      "rains": 6841,
      "raging": 6842,
      "rably": 6843,
      "chor": 6844,
      "chic": 6845,
      "chart": 6846,
      "chances": 6847,
      "chilled": 6848,
      "chased": 6849,
      "liber": 6850,
      "lified": 6851,
      "lillip": 6852,
      "colo": 6853,
      "coeff": 6854,
      "collar": 6855,
      "costs": 6856,
      "coincide": 6857,
      "coleman": 6858,
      "irradiation": 6859,
      "irregularly": 6860,
      "wiped": 6861,
      "uncon": 6862,
      "unfore": 6863,
      "unted": 6864,
      "uneas": 6865,
      "unmit": 6866,
      "unquestion": 6867,
      "unaccount": 6868,
      "unnecessary": 6869,
      "une_": 6870,
      "undisturbed": 6871,
      "unavoid": 6872,
      "undivided": 6873,
      "unaided": 6874,
      "undefined": 6875,
      "unscrewed": 6876,
      "unpreced": 6877,
      "unselfish": 6878,
      "unbounded": 6879,
      "unmistak": 6880,
      "forwards": 6881,
      "sold": 6882,
      "solit": 6883,
      "socke": 6884,
      "somn": 6885,
      "devis": 6886,
      "decre": 6887,
      "deport": 6888,
      "deton": 6889,
      "defer": 6890,
      "demi": 6891,
      "proves": 6892,
      "proceed": 6893,
      "propound": 6894,
      "promise": 6895,
      "promoting": 6896,
      "abrup": 6897,
      "abused": 6898,
      "abashed": 6899,
      "abyss": 6900,
      "withstand": 6901,
      "withdraw": 6902,
      "loqu": 6903,
      "lobo": 6904,
      "locke": 6905,
      "lohr": 6906,
      "conso": 6907,
      "conting": 6908,
      "conste": 6909,
      "conund": 6910,
      "conscient": 6911,
      "consolid": 6912,
      "console": 6913,
      "imperfect": 6914,
      "impossib": 6915,
      "imposed": 6916,
      "imming": 6917,
      "implic": 6918,
      "immut": 6919,
      "immers": 6920,
      "imitate": 6921,
      "imperceptible": 6922,
      "terror": 6923,
      "aph": 6924,
      "april": 6925,
      "pomp": 6926,
      "polit": 6927,
      "poles": 6928,
      "pocke": 6929,
      "pompos": 6930,
      "notion": 6931,
      "holy": 6932,
      "hores": 6933,
      "hook": 6934,
      "hoping": 6935,
      "exemp": 6936,
      "exhilar": 6937,
      "exuber": 6938,
      "exhibition": 6939,
      "lause": 6940,
      "lady": 6941,
      "lakes": 6942,
      "dial": 6943,
      "digest": 6944,
      "division": 6945,
      "dividing": 6946,
      "neys": 6947,
      "necks": 6948,
      "negli": 6949,
      "nevad": 6950,
      "area": 6951,
      "buttre": 6952,
      "iless": 6953,
      "barre": 6954,
      "barby": 6955,
      "barrel": 6956,
      "barrass": 6957,
      "quad": 6958,
      "quits": 6959,
      "quack": 6960,
      "icance": 6961,
      "kered": 6962,
      "keener": 6963,
      "usions": 6964,
      "usible": 6965,
      "youth": 6966,
      "fade": 6967,
      "fading": 6968,
      "fami": 6969,
      "failed": 6970,
      "uler_": 6971,
      "urated": 6972,
      "ado": 6973,
      "ading": 6974,
      "adam": 6975,
      "adjour": 6976,
      "mps": 6977,
      "tea": 6978,
      "tears": 6979,
      "femin": 6980,
      "feared": 6981,
      "fecund": 6982,
      "feverish": 6983,
      "gear": 6984,
      "ssion": 6985,
      "spare": 6986,
      "spend": 6987,
      "spangled": 6988,
      "sprinkled": 6989,
      "spider": 6990,
      "theirs": 6991,
      "moon_": 6992,
      "presu": 6993,
      "presto": 6994,
      "ificance": 6995,
      "froid_": 6996,
      "endure": 6997,
      "endura": 6998,
      "reduction": 6999,
      "fool": 7000,
      "fogs": 7001,
      "fools": 7002,
      "ate_": 7003,
      "saving": 7004,
      "sacra": 7005,
      "sages": 7006,
      "doc": 7007,
      "dol": 7008,
      "dood": 7009,
      "domain": 7010,
      "anti": 7011,
      "cking": 7012,
      "ilate": 7013,
      "ilus_": 7014,
      "ille_": 7015,
      "boston": 7016,
      "boiling": 7017,
      "bobbing": 7018,
      "bosom": 7019,
      "ills": 7020,
      "illery": 7021,
      "----": 7022,
      "ustic": 7023,
      "astrous": 7024,
      "cape": 7025,
      "capped": 7026,
      "capital": 7027,
      "etary": 7028,
      "etna": 7029,
      "pert": 7030,
      "perform": 7031,
      "cane": 7032,
      "canus_": 7033,
      "canvas": 7034,
      "shor": 7035,
      "shone": 7036,
      "shutter": 7037,
      "shining": 7038,
      "shrewd": 7039,
      "shedding": 7040,
      "shriek": 7041,
      "trail": 7042,
      "traced": 7043,
      "trains": 7044,
      "trails": 7045,
      "arted": 7046,
      "artes": 7047,
      "artillery": 7048,
      "upside": 7049,
      "updated": 7050,
      "maxim": 7051,
      "makers": 7052,
      "mammo": 7053,
      "wouldn": 7054,
      "worn": 7055,
      "wormwood": 7056,
      "bleaching": 7057,
      "obstruction": 7058,
      "manship": 7059,
      "manager": 7060,
      "managing": 7061,
      "forest": 7062,
      "foremost": 7063,
      "forehead": 7064,
      "forethought": 7065,
      "foreign": 7066,
      "peter": 7067,
      "peace": 7068,
      "tire": 7069,
      "tial": 7070,
      "tible": 7071,
      "tius_": 7072,
      "acs": 7073,
      "ache": 7074,
      "acity": 7075,
      "accust": 7076,
      "complic": 7077,
      "compiled": 7078,
      "dispos": 7079,
      "dischar": 7080,
      "disrup": 7081,
      "disquiet": 7082,
      "disadvantage": 7083,
      "disappointed": 7084,
      "dismal": 7085,
      "dispel": 7086,
      "disastrous": 7087,
      "umble": 7088,
      "umbr": 7089,
      "ite_": 7090,
      "item": 7091,
      "crims": 7092,
      "suring": 7093,
      "surfaces": 7094,
      "surpassing": 7095,
      "surpasses": 7096,
      "intently": 7097,
      "agne": 7098,
      "agglo": 7099,
      "agians": 7100,
      "likewise": 7101,
      "light_": 7102,
      "lightened": 7103,
      "pler": 7104,
      "pling": 7105,
      "plumb": 7106,
      "plication": 7107,
      "anyway": 7108,
      "wholly": 7109,
      "induced": 7110,
      "cies": 7111,
      "civi": 7112,
      "cigar": 7113,
      "gö": 7114,
      "nicety": 7115,
      "ullah": 7116,
      "rench": 7117,
      "rents": 7118,
      "lesson": 7119,
      "lessness": 7120,
      "repast": 7121,
      "replying": 7122,
      "beration": 7123,
      "actors": 7124,
      "activity": 7125,
      "lunatics": 7126,
      "vingly": 7127,
      "trust": 7128,
      "trump": 7129,
      "trusted": 7130,
      "tricably": 7131,
      "my_": 7132,
      "mytho": 7133,
      "mystic": 7134,
      "everyone": 7135,
      "igated": 7136,
      "igled": 7137,
      "igning": 7138,
      "phic": 7139,
      "phase": 7140,
      "phases": 7141,
      "phonse": 7142,
      "cave": 7143,
      "caving": 7144,
      "caesar": 7145,
      "caustic": 7146,
      "mento": 7147,
      "marsh": 7148,
      "marking": 7149,
      "marrow": 7150,
      "distract": 7151,
      "ine_": 7152,
      "strang": 7153,
      "strongest": 7154,
      "friendship": 7155,
      "istics": 7156,
      "opt": 7157,
      "oppose": 7158,
      "opposed": 7159,
      "odd": 7160,
      "ody": 7161,
      "partake": 7162,
      "mediter": 7163,
      "readable": 7164,
      "pride": 7165,
      "sunset": 7166,
      "shoulder": 7167,
      "clid": 7168,
      "clenched": 7169,
      "vii": 7170,
      "vians": 7171,
      "vibr": 7172,
      "viii": 7173,
      "overhead": 7174,
      "overland": 7175,
      "overpower": 7176,
      "commotion": 7177,
      "commer": 7178,
      "commenting": 7179,
      "travelled": 7180,
      "shared": 7181,
      "shaped": 7182,
      "shapes": 7183,
      "firing": 7184,
      "tinge": 7185,
      "glaring": 7186,
      "glancing": 7187,
      "grain": 7188,
      "grains": 7189,
      "grapher": 7190,
      "minor": 7191,
      "minim": 7192,
      "intoler": 7193,
      "sentences": 7194,
      "sententiously": 7195,
      "fulness": 7196,
      "interferen": 7197,
      "interposition": 7198,
      "internally": 7199,
      "despa": 7200,
      "desult": 7201,
      "desired": 7202,
      "wherever": 7203,
      "mured": 7204,
      "beforehand": 7205,
      "offering": 7206,
      "contro": 7207,
      "content": 7208,
      "contrived": 7209,
      "control": 7210,
      "undertook": 7211,
      "undergoing": 7212,
      "underwent": 7213,
      "cordi": 7214,
      "corpor": 7215,
      "cornell": 7216,
      "corpse": 7217,
      "culture": 7218,
      "culmination": 7219,
      "tension": 7220,
      "sidewalks": 7221,
      "crying": 7222,
      "grit": 7223,
      "gruith": 7224,
      "regards": 7225,
      "regulating": 7226,
      "registered": 7227,
      "affor": 7228,
      "affright": 7229,
      "affair": 7230,
      "momentary": 7231,
      "calf": 7232,
      "applied": 7233,
      "applause": 7234,
      "count": 7235,
      "council": 7236,
      "tack": 7237,
      "taavi": 7238,
      "conduct": 7239,
      "visited": 7240,
      "excused": 7241,
      "donkey": 7242,
      "turns": 7243,
      "gets": 7244,
      "sheep": 7245,
      "formidable": 7246,
      "utensil": 7247,
      "brit": 7248,
      "brand": 7249,
      "brass": 7250,
      "cré": 7251,
      "created": 7252,
      "stere": 7253,
      "steaks": 7254,
      "angular": 7255,
      "angrily": 7256,
      "denying": 7257,
      "denomin": 7258,
      "implied": 7259,
      "impalp": 7260,
      "iculous": 7261,
      "flutter": 7262,
      "flushed": 7263,
      "mayor": 7264,
      "inkling": 7265,
      "lecture": 7266,
      "extinction": 7267,
      "tempests": 7268,
      "elk": 7269,
      "elapse": 7270,
      "elapsed": 7271,
      "coursing": 7272,
      "darned": 7273,
      "nails": 7274,
      "nearness": 7275,
      "mattresses": 7276,
      "parad": 7277,
      "vocal": 7278,
      "vomit": 7279,
      "voirs": 7280,
      "bitter": 7281,
      "ptune_": 7282,
      "quiver": 7283,
      "clothed": 7284,
      "fastening": 7285,
      "discou": 7286,
      "mountains_": 7287,
      "carelessness": 7288,
      "fix": 7289,
      "mischief": 7290,
      "southeast": 7291,
      "sourer": 7292,
      "blacke": 7293,
      "calculus": 7294,
      "handy": 7295,
      "handing": 7296,
      "institute": 7297,
      "installation": 7298,
      "ens_": 7299,
      "ension": 7300,
      "starts": 7301,
      "pressed": 7302,
      "pressing": 7303,
      "founded": 7304,
      "foundations": 7305,
      "directors": 7306,
      "plausible": 7307,
      "clever": 7308,
      "cleus": 7309,
      "clefts": 7310,
      "gild": 7311,
      "headed": 7312,
      "heading": 7313,
      "headlong": 7314,
      "continuous": 7315,
      "specks": 7316,
      "_monte": 7317,
      "_mercury": 7318,
      "telling": 7319,
      "breaks": 7320,
      "joint": 7321,
      "jokes": 7322,
      "jotting": 7323,
      "joseph": 7324,
      "jovians": 7325,
      "ventilate": 7326,
      "rescu": 7327,
      "resource": 7328,
      "expend": 7329,
      "perfection": 7330,
      "cars": 7331,
      "cargo": 7332,
      "frenzy": 7333,
      "angelo": 7334,
      "calling": 7335,
      "dynam": 7336,
      "ieve": 7337,
      "moral": 7338,
      "owns": 7339,
      "questioning": 7340,
      "curving": 7341,
      "currents": 7342,
      "lander": 7343,
      "raps": 7344,
      "raphael": 7345,
      "stands": 7346,
      "standard": 7347,
      "westwardly": 7348,
      "colle": 7349,
      "streamed": 7350,
      "exactness": 7351,
      "deduct": 7352,
      "insens": 7353,
      "insign": 7354,
      "inscribed": 7355,
      "furthest": 7356,
      "ips": 7357,
      "squall": 7358,
      "lieu": 7359,
      "fortifications": 7360,
      "considers": 7361,
      "finished": 7362,
      "financi": 7363,
      "rapids": 7364,
      "guide": 7365,
      "passeng": 7366,
      "dearly": 7367,
      "worlds": 7368,
      "versat": 7369,
      "objected": 7370,
      "objection": 7371,
      "objections": 7372,
      "completed": 7373,
      "simo": 7374,
      "sierra": 7375,
      "reasoning": 7376,
      "reasonably": 7377,
      "lifeless": 7378,
      "greek": 7379,
      "differential": 7380,
      "chest": 7381,
      "checks": 7382,
      "doubled": 7383,
      "doubtless": 7384,
      "pedest": 7385,
      "simplified": 7386,
      "backed": 7387,
      "backwards": 7388,
      "smiled": 7389,
      "selenitic": 7390,
      "latin": 7391,
      "lative": 7392,
      "latitudes": 7393,
      "nature_": 7394,
      "shaded": 7395,
      "shading": 7396,
      "shades": 7397,
      "attending": 7398,
      "deputation": 7399,
      "regarded": 7400,
      "regardless": 7401,
      "richest": 7402,
      "spoiled": 7403,
      "habitable": 7404,
      "blackened": 7405,
      "fourrier": 7406,
      "merry": 7407,
      "merian": 7408,
      "merriment": 7409,
      "saturated": 7410,
      "spectre": 7411,
      "spective": 7412,
      "profile": 7413,
      "profund": 7414,
      "interrupting": 7415,
      "clearness": 7416,
      "blers": 7417,
      "blank": 7418,
      "julius": 7419,
      "resusc": 7420,
      "settle": 7421,
      "helm": 7422,
      "helena": 7423,
      "generations": 7424,
      "shadowy": 7425,
      "cyrus": 7426,
      "cynian": 7427,
      "silently": 7428,
      "approaches": 7429,
      "guns": 7430,
      "ralia": 7431,
      "stooped": 7432,
      "sixty": 7433,
      "numbers": 7434,
      "oftenest": 7435,
      "radiate": 7436,
      "radiance": 7437,
      "radiations": 7438,
      "skull": 7439,
      "skies": 7440,
      "skins": 7441,
      "skirt": 7442,
      "skimming": 7443,
      "thoughtful": 7444,
      "aud": 7445,
      "aug": 7446,
      "aught": 7447,
      "august": 7448,
      "hugo": 7449,
      "soundings": 7450,
      "remembered": 7451,
      "expressing": 7452,
      "equation": 7453,
      "doubtful": 7454,
      "thirst": 7455,
      "appearing": 7456,
      "appearances": 7457,
      "temperament": 7458,
      "brightest": 7459,
      "ene_": 7460,
      "archipe": 7461,
      "architect": 7462,
      "tomb": 7463,
      "breakers": 7464,
      "crags": 7465,
      "crawling": 7466,
      "crawl": 7467,
      "drag": 7468,
      "effected": 7469,
      "listlessly": 7470,
      "southward": 7471,
      "balanced": 7472,
      "ician": 7473,
      "icient": 7474,
      "icians": 7475,
      "colder": 7476,
      "brobdign": 7477,
      "brooke": 7478,
      "bolas": 7479,
      "satisfy": 7480,
      "synon": 7481,
      "syllable": 7482,
      "splendors": 7483,
      "realm": 7484,
      "realms": 7485,
      "realizing": 7486,
      "fireball": 7487,
      "interests": 7488,
      "slower": 7489,
      "suffer": 7490,
      "surprising": 7491,
      "successfully": 7492,
      "dimly": 7493,
      "indemn": 7494,
      "hank": 7495,
      "ruin": 7496,
      "rules": 7497,
      "ruddy": 7498,
      "revels": 7499,
      "remarkably": 7500,
      "wilder": 7501,
      "openings": 7502,
      "dreams": 7503,
      "hurled": 7504,
      "anned": 7505,
      "deaden": 7506,
      "deadlights": 7507,
      "advance": 7508,
      "advice": 7509,
      "advancing": 7510,
      "precinct": 7511,
      "precision": 7512,
      "remaining": 7513,
      "circus": 7514,
      "emphat": 7515,
      "hydro": 7516,
      "aboard": 7517,
      "effecting": 7518,
      "chapuis": 7519,
      "fifth": 7520,
      "allows": 7521,
      "strangest": 7522,
      "benefit": 7523,
      "ckered": 7524,
      "sighted": 7525,
      "sighting": 7526,
      "sharpest": 7527,
      "fluent": 7528,
      "fluid": 7529,
      "fertility": 7530,
      "maintaining": 7531,
      "paths": 7532,
      "stripes": 7533,
      "confused": 7534,
      "confusion": 7535,
      "reflections": 7536,
      "reflectors": 7537,
      "electronically": 7538,
      "distinguishing": 7539,
      "watchers": 7540,
      "argue": 7541,
      "bearings": 7542,
      "escapes": 7543,
      "ropes": 7544,
      "entertaining": 7545,
      "detailed": 7546,
      "detailing": 7547,
      "magnitude": 7548,
      "magnified": 7549,
      "closest": 7550,
      "occupies": 7551,
      "busily": 7552,
      "nerves": 7553,
      "pamp": 7554,
      "wheel": 7555,
      "wheels": 7556,
      "community": 7557,
      "188": 7558,
      "18th": 7559,
      "burns": 7560,
      "burner": 7561,
      "pitous": 7562,
      "pitted": 7563,
      "pitiless": 7564,
      "scream": 7565,
      "screamed": 7566,
      "concept": 7567,
      "tests": 7568,
      "testing": 7569,
      "feeble": 7570,
      "countryman": 7571,
      "reveals": 7572,
      "illustrated": 7573,
      "bullets": 7574,
      "nonsens": 7575,
      "signed": 7576,
      "signalled": 7577,
      "strain": 7578,
      "alleged": 7579,
      "logy": 7580,
      "logic": 7581,
      "logist": 7582,
      "imaginations": 7583,
      "safest": 7584,
      "safety": 7585,
      "umbers": 7586,
      "umbling": 7587,
      "counteraction": 7588,
      "driver": 7589,
      "frank": 7590,
      "humors": 7591,
      "humming": 7592,
      "seventh": 7593,
      "uniforms": 7594,
      "characters": 7595,
      "numberless": 7596,
      "hurrahs": 7597,
      "chiefly": 7598,
      "peculiarity": 7599,
      "eightieth": 7600,
      "harsh": 7601,
      "harbors": 7602,
      "atives": 7603,
      "attempts": 7604,
      "stops": 7605,
      "stopping": 7606,
      "belief": 7607,
      "believed": 7608,
      "needless": 7609,
      "steady": 7610,
      "throttle": 7611,
      "quarrel": 7612,
      "professors": 7613,
      "dispatched": 7614,
      "awful": 7615,
      "swear": 7616,
      "swept": 7617,
      "sweeping": 7618,
      "sweetest": 7619,
      "thinner": 7620,
      "asserted": 7621,
      "assertions": 7622,
      "meets": 7623,
      "meetings": 7624,
      "prince": 7625,
      "solidified": 7626,
      "originator": 7627,
      "1500": 7628,
      "1600": 7629,
      "boundaries": 7630,
      "dawn": 7631,
      "fainter": 7632,
      "faintly": 7633,
      "ridiculous": 7634,
      "organs": 7635,
      "rocket": 7636,
      "railway": 7637,
      "addle": 7638,
      "addresses": 7639,
      "boldly": 7640,
      "accomplishing": 7641,
      "transcri": 7642,
      "transfer": 7643,
      "transformed": 7644,
      "transcendent": 7645,
      "heavens": 7646,
      "crown": 7647,
      "crowned": 7648,
      "persist": 7649,
      "pullman": 7650,
      "roris_": 7651,
      "sons": 7652,
      "absorbs": 7653,
      "plateaus": 7654,
      "combine": 7655,
      "flatter": 7656,
      "flattered": 7657,
      "comparisons": 7658,
      "employe": 7659,
      "quarters": 7660,
      "intelligible": 7661,
      "intelligently": 7662,
      "columbiads": 7663,
      "flamed": 7664,
      "murmured": 7665,
      "named": 7666,
      "smoked": 7667,
      "tableau": 7668,
      "research": 7669,
      "adventures": 7670,
      "prevented": 7671,
      "occurs": 7672,
      "engineering": 7673,
      "freed": 7674,
      "grown": 7675,
      "tremor": 7676,
      "vainly": 7677,
      "protuber": 7678,
      "thirdly": 7679,
      "diminution": 7680,
      "groups": 7681,
      "claim": 7682,
      "loftiest": 7683,
      "petragi": 7684,
      "slumbers": 7685,
      "vapors": 7686,
      "reticul": 7687,
      "rigid": 7688,
      "rigible": 7689,
      "properly": 7690,
      "precipices": 7691,
      "precipitous": 7692,
      "inhabitable_": 7693,
      "splendidly": 7694,
      "17th": 7695,
      "climb": 7696,
      "honor": 7697,
      "honors": 7698,
      "lateral": 7699,
      "laterally": 7700,
      "mistake": 7701,
      "palp": 7702,
      "touched": 7703,
      "measurement": 7704,
      "societies": 7705,
      "colorless": 7706,
      "colorado": 7707,
      "telegraphed": 7708,
      "englishman": 7709,
      "gulfs": 7710,
      "embarrass": 7711,
      "elevated": 7712,
      "elegant": 7713,
      "functions": 7714,
      "grief": 7715,
      "ranean": 7716,
      "widest": 7717,
      "zement": 7718,
      "indian": 7719,
      "indign": 7720,
      "whirring": 7721,
      "constit": 7722,
      "spirit": 7723,
      "bowed": 7724,
      "vessels": 7725,
      "committed": 7726,
      "committing": 7727,
      "resisted": 7728,
      "resistless": 7729,
      "jumps": 7730,
      "electricity": 7731,
      "describes": 7732,
      "hyperbolas": 7733,
      "chronometers": 7734,
      "batter": 7735,
      "ggy": 7736,
      "hung": 7737,
      "hunter": 7738,
      "simpler": 7739,
      "vanilla": 7740,
      "younger": 7741,
      "investigation": 7742,
      "investigate": 7743,
      "investigating": 7744,
      "rills": 7745,
      "unexpectedly": 7746,
      "divergent": 7747,
      "macnicholl": 7748,
      "breathless": 7749,
      "cheerily": 7750,
      "retardation": 7751,
      "philosopher": 7752,
      "bays": 7753,
      "euclid": 7754,
      "frames": 7755,
      "hinges": 7756,
      "anese": 7757,
      "aneously": 7758,
      "studied": 7759,
      "orbs": 7760,
      "orbits": 7761,
      "ico_": 7762,
      "beauty": 7763,
      "whisper": 7764,
      "melting": 7765,
      "proofreading": 7766,
      "explanations": 7767,
      "nestling": 7768,
      "truly": 7769,
      "deserves": 7770,
      "despairing": 7771,
      "gratified": 7772,
      "willingly": 7773,
      "exploded": 7774,
      "courageous": 7775,
      "triumphant": 7776,
      "swallows": 7777,
      "swallowing": 7778,
      "fitting": 7779,
      "fitful": 7780,
      "longest": 7781,
      "rubber": 7782,
      "respected": 7783,
      "anxious": 7784,
      "ascend": 7785,
      "searching": 7786,
      "alarmed": 7787,
      "experiences": 7788,
      "admire": 7789,
      "admirable": 7790,
      "admirably": 7791,
      "dogmatically": 7792,
      "greenish": 7793,
      "greenland": 7794,
      "plunge": 7795,
      "replaced": 7796,
      "vividest": 7797,
      "joyfully": 7798,
      "selenographers": 7799,
      "authoritat": 7800,
      "sweetly": 7801,
      "tranquil": 7802,
      "hyperbolic": 7803,
      "_pico_": 7804,
      "_alps_": 7805,
      "_alphonse": 7806,
      "_alpetragi": 7807,
      "adequ": 7808,
      "hesitating": 7809,
      "sleeping": 7810,
      "wander": 7811,
      "wandered": 7812,
      "xxi": 7813,
      "xxii": 7814,
      "xxiv": 7815,
      "xxiii": 7816,
      "repeat": 7817,
      "repeating": 7818,
      "issue": 7819,
      "issuing": 7820,
      "noiseless": 7821,
      "modifications": 7822,
      "sugar": 7823,
      "defects": 7824,
      "preferred": 7825,
      "earnestness": 7826,
      "shift": 7827,
      "nicely": 7828,
      "continental": 7829,
      "speedy": 7830,
      "private": 7831,
      "11th": 7832,
      "duties": 7833,
      "gleamed": 7834,
      "gleaming": 7835,
      "henceforth": 7836,
      "henceforward": 7837,
      "mutually": 7838,
      "muscles": 7839,
      "madre": 7840,
      "madly": 7841,
      "madden": 7842,
      "madame": 7843,
      "inexorable": 7844,
      "inexhaust": 7845,
      "inextricably": 7846,
      "inclination": 7847,
      "invention": 7848,
      "renees_": 7849,
      "enables": 7850,
      "ascertaining": 7851,
      "bewilderment": 7852,
      "adviser": 7853,
      "preparation": 7854,
      "astonishing": 7855,
      "ignoram": 7856,
      "phrases": 7857,
      "descending": 7858,
      "descartes": 7859,
      "specified": 7860,
      "guessed": 7861,
      "checked": 7862,
      "drawling": 7863,
      "warmly": 7864,
      "pursuing": 7865,
      "laboring": 7866,
      "grimaldi": 7867,
      "masterpieces": 7868,
      "_sal": 7869,
      "_sang": 7870,
      "blows": 7871,
      "dryness": 7872,
      "eatables": 7873,
      "flowing": 7874,
      "flowers": 7875,
      "mater_": 7876,
      "pascal": 7877,
      "swing": 7878,
      "switch": 7879,
      "wasting": 7880,
      "thundering": 7881,
      "representation": 7882,
      "representatives": 7883,
      "relative": 7884,
      "anchored": 7885,
      "stoutly": 7886,
      "ingenuity": 7887,
      "molehill": 7888,
      "molecular": 7889,
      "suspend": 7890,
      "collapsed": 7891,
      "prompt": 7892,
      "conjectures": 7893,
      "potential": 7894,
      "lamps": 7895,
      "prevail": 7896,
      "prevailing": 7897,
      "esterhazy": 7898,
      "gledy": 7899,
      "branches": 7900,
      "parabolas": 7901,
      "affirm": 7902,
      "savagely": 7903,
      "regretted": 7904,
      "avoiding": 7905,
      "bathed": 7906,
      "catac": 7907,
      "cases": 7908,
      "candor": 7909,
      "candidly": 7910,
      "flinging": 7911,
      "schools": 7912,
      "vitalizing": 7913,
      "walking": 7914,
      "yells": 7915,
      "involved": 7916,
      "analogy": 7917,
      "errors": 7918,
      "erratic": 7919,
      "stationed": 7920,
      "steps": 7921,
      "serenity": 7922,
      "seventy": 7923,
      "cooked": 7924,
      "coals": 7925,
      "covering": 7926,
      "decide": 7927,
      "deliver": 7928,
      "delirious": 7929,
      "prominently": 7930,
      "locomotion": 7931,
      "exertion": 7932,
      "spreads": 7933,
      "folded": 7934,
      "perplex": 7935,
      "perplexed": 7936,
      "mentioned": 7937,
      "disputed": 7938,
      "disputes": 7939,
      "platform": 7940,
      "restlessness": 7941,
      "designated": 7942,
      "densely": 7943,
      "refracting": 7944,
      "heavier": 7945,
      "heavily": 7946,
      "warranty": 7947,
      "universal": 7948,
      "contracted": 7949,
      "contracting": 7950,
      "protection": 7951,
      "crystall": 7952,
      "photographs": 7953,
      "photography": 7954,
      "photographers": 7955,
      "...": 7956,
      "...\"": 7957,
      "14th": 7958,
      "_eon_": 7959,
      "_euler_": 7960,
      "_theoph": 7961,
      "amazement": 7962,
      "game": 7963,
      "gaily": 7964,
      "histor": 7965,
      "lustily": 7966,
      "lustrous": 7967,
      "porte": 7968,
      "punct": 7969,
      "ptians": 7970,
      "softened": 7971,
      "softening": 7972,
      "xvii": 7973,
      "xviii": 7974,
      "resplendent": 7975,
      "resplendescence": 7976,
      "stiff": 7977,
      "stifled": 7978,
      "asymp": 7979,
      "seasons": 7980,
      "beats": 7981,
      "bells": 7982,
      "betrayed": 7983,
      "belongs": 7984,
      "alps_": 7985,
      "librations": 7986,
      "delicate": 7987,
      "demanded": 7988,
      "consist": 7989,
      "consisted": 7990,
      "apprehended": 7991,
      "apprehensions": 7992,
      "dignity": 7993,
      "boxes": 7994,
      "goddess": 7995,
      "distinctive": 7996,
      "proudly": 7997,
      "crises": 7998,
      "newspapers": 7999,
      "impatiently": 8000,
      "flourish": 8001,
      "expecting": 8002,
      "expectations": 8003,
      "collecting": 8004,
      "monotonous": 8005,
      "guarded": 8006,
      "1861": 8007,
      "1862": 8008,
      "gesticulated": 8009,
      "accelerated": 8010,
      "accelerating": 8011,
      "grooved": 8012,
      "lucky": 8013,
      "woods": 8014,
      "solemnly": 8015,
      "vigorous": 8016,
      "aspects": 8017,
      "elliptic": 8018,
      "_lacus": 8019,
      "billsby": 8020,
      "cups": 8021,
      "cumbered": 8022,
      "econom": 8023,
      "kalju": 8024,
      "killing": 8025,
      "infallible": 8026,
      "infallibly": 8027,
      "resolved": 8028,
      "references": 8029,
      "stirred": 8030,
      "stunted": 8031,
      "stunned": 8032,
      "severely": 8033,
      "roasted": 8034,
      "memorable": 8035,
      "memorandum": 8036,
      "aintance": 8037,
      "convex": 8038,
      "convexity": 8039,
      "consulting": 8040,
      "apollo": 8041,
      "externally": 8042,
      "keenly": 8043,
      "article": 8044,
      "acquaintance": 8045,
      "ploughed": 8046,
      "indulged": 8047,
      "hollows": 8048,
      "vivifying": 8049,
      "assistants": 8050,
      "sentimental": 8051,
      "referred": 8052,
      "referring": 8053,
      "missible": 8054,
      "struggles": 8055,
      "suppressed": 8056,
      "suppressing": 8057,
      "perigee": 8058,
      "audience": 8059,
      "audibly": 8060,
      "buildings": 8061,
      "revelation": 8062,
      "scenery": 8063,
      "affectionate": 8064,
      "accepting": 8065,
      "gloomily": 8066,
      "whirlwinds": 8067,
      "alternating": 8068,
      "alternately": 8069,
      "majesty": 8070,
      "schoolboys": 8071,
      "oscillating": 8072,
      "inconceivably": 8073,
      ".'\"": 8074,
      "972": 8075,
      "_y_": 8076,
      "_conjunction": 8077,
      "_camp": 8078,
      "auspices": 8079,
      "bands": 8080,
      "breeze": 8081,
      "cadence": 8082,
      "emergency": 8083,
      "evaporate": 8084,
      "evaporated": 8085,
      "flooded": 8086,
      "fringe": 8087,
      "fascination": 8088,
      "fascinating": 8089,
      "hilarity": 8090,
      "messrs": 8091,
      "ninth": 8092,
      "pulsation": 8093,
      "packed": 8094,
      "rueful": 8095,
      "salute": 8096,
      "saluted": 8097,
      "sneer": 8098,
      "sneered": 8099,
      "scoria": 8100,
      "scarcely": 8101,
      "tapest": 8102,
      "tightly": 8103,
      "ucky": 8104,
      "virgil": 8105,
      "incredul": 8106,
      "incredulous": 8107,
      "reverie": 8108,
      "enlightened": 8109,
      "tolerable": 8110,
      "tolerably": 8111,
      "beefsteaks": 8112,
      "novelty": 8113,
      "models": 8114,
      "china": 8115,
      "chilly": 8116,
      "forcible": 8117,
      "forcibly": 8118,
      "debate": 8119,
      "declared": 8120,
      "propriety": 8121,
      "proprietary": 8122,
      "consumption": 8123,
      "impelled": 8124,
      "hostile": 8125,
      "exquisitely": 8126,
      "exploring": 8127,
      "explorations": 8128,
      "neatly": 8129,
      "kepler": 8130,
      "faculties": 8131,
      "adopted": 8132,
      "shudder": 8133,
      "upheaval": 8134,
      "foreshortened": 8135,
      "peacock": 8136,
      "acquire": 8137,
      "acquired": 8138,
      "computer": 8139,
      "computers": 8140,
      "industry": 8141,
      "industriously": 8142,
      "clustered": 8143,
      "overwhelming": 8144,
      "gracefully": 8145,
      "intoxication": 8146,
      "intoxicated": 8147,
      "desolation": 8148,
      "desolate": 8149,
      "contributed": 8150,
      "contributions": 8151,
      "condensed": 8152,
      "solicit": 8153,
      "trillions": 8154,
      "circulation": 8155,
      "circulating": 8156,
      "stomachs": 8157,
      "micrometer": 8158,
      "microcosm": 8159,
      "symbol": 8160,
      "laughter": 8161,
      "drearier": 8162,
      "dreariest": 8163,
      "penetrate": 8164,
      "confessed": 8165,
      "commencement": 8166,
      "disturbance": 8167,
      "majority": 8168,
      "resembles": 8169,
      "multiplied": 8170,
      "_neptune_": 8171,
      "_quand": 8172,
      "_hercynian": 8173,
      "_mars_": 8174,
      "_pyrenees_": 8175,
      "_jupiter_": 8176,
      "_saturn_": 8177,
      "_uranus_": 8178,
      "australia": 8179,
      "babies": 8180,
      "blunder": 8181,
      "dusky": 8182,
      "emanate": 8183,
      "knots": 8184,
      "lurid": 8185,
      "lonely": 8186,
      "mabille_": 8187,
      "nucleus": 8188,
      "naples": 8189,
      "obeyed": 8190,
      "pgdp": 8191,
      "prairie": 8192,
      "pallor": 8193,
      "pupil": 8194,
      "piercing": 8195,
      "rattle": 8196,
      "slept": 8197,
      "snicker": 8198,
      "texas": 8199,
      "tantalizing": 8200,
      "vicinity": 8201,
      "village": 8202,
      "vague": 8203,
      "vineyards": 8204,
      "wiser": 8205,
      "yonder": 8206,
      "theatre": 8207,
      "infused": 8208,
      "inspected": 8209,
      "insurmountable": 8210,
      "infinity": 8211,
      "remote": 8212,
      "revised": 8213,
      "rejoicing": 8214,
      "reigns": 8215,
      "enchanting": 8216,
      "education": 8217,
      "toasts": 8218,
      "assembled": 8219,
      "semblance": 8220,
      "hazard": 8221,
      "entrance": 8222,
      "entirely": 8223,
      "metrical": 8224,
      "christmas": 8225,
      "irresistible": 8226,
      "irritated": 8227,
      "unrolling": 8228,
      "decomposing": 8229,
      "decorated": 8230,
      "prolongation": 8231,
      "prodigious": 8232,
      "abandoned": 8233,
      "locality": 8234,
      "imprisonment": 8235,
      "terminating": 8236,
      "excluded": 8237,
      "nebulous": 8238,
      "addressing": 8239,
      "capricious": 8240,
      "shivering": 8241,
      "articulate": 8242,
      "manners": 8243,
      "discern": 8244,
      "plugs": 8245,
      "phlegmatic": 8246,
      "cautious": 8247,
      "opponents": 8248,
      "printed": 8249,
      "restraint": 8250,
      "grappling": 8251,
      "grateful": 8252,
      "iselene_": 8253,
      "cleaved": 8254,
      "gibbering": 8255,
      "resounding": 8256,
      "resignation": 8257,
      "expanding": 8258,
      "carriage": 8259,
      "bluish": 8260,
      "champagne": 8261,
      "effulgence": 8262,
      "glaciers": 8263,
      "anticipation": 8264,
      "distinguishable": 8265,
      "purifying": 8266,
      "drifting": 8267,
      "pyramidal": 8268,
      "rigorously": 8269,
      "fleeting": 8270,
      "phosphores": 8271,
      "responsibility": 8272,
      "_ptolemy_": 8273,
      "superficial": 8274,
      "contradicting": 8275,
      "aeronaut": 8276,
      "oreography": 8277,
      "draughtsman": 8278,
      "sketch": 8279,
      "exclusively": 8280,
      "coruscating": 8281,
      "_aposelene_": 8282,
      "available": 8283,
      "elasticity": 8284,
      "acclimatization": 8285,
      "_are_": 8286,
      "_sacré": 8287,
      "_periselene_": 8288,
      "_venus_": 8289,
      "_up_": 8290,
      "_were_": 8291,
      "_moretus_": 8292,
      "_some_": 8293,
      "_him_": 8294,
      "_less_": 8295,
      "_day_": 8296,
      "_night_": 8297,
      "_curtius_": 8298,
      "_huygh": 8299,
      "_short_": 8300,
      "_purbach": 8301,
      "_seas_": 8302,
      "_movement_": 8303,
      "_palus": 8304,
      "_furore_": 8305,
      "_kepler_": 8306,
      "_opposition_": 8307,
      "_grooves_": 8308,
      "_mémo": 8309,
      "avidity": 8310,
      "avalanche": 8311,
      "boneta": 8312,
      "bustling": 8313,
      "banners": 8314,
      "cimmerian": 8315,
      "cubic": 8316,
      "caspian": 8317,
      "duration": 8318,
      "elongated": 8319,
      "egyptians": 8320,
      "federal": 8321,
      "fountain": 8322,
      "fashion": 8323,
      "garden": 8324,
      "gimcracks": 8325,
      "https": 8326,
      "japanese": 8327,
      "kentucky": 8328,
      "lasso": 8329,
      "narrower": 8330,
      "oysters": 8331,
      "panting": 8332,
      "pillars": 8333,
      "panama": 8334,
      "rhyth": 8335,
      "scanned": 8336,
      "swaying": 8337,
      "scratch": 8338,
      "swamp": 8339,
      "scotch": 8340,
      "slaughtered": 8341,
      "scaphander": 8342,
      "target": 8343,
      "uysen": 8344,
      "inveigled": 8345,
      "inverted": 8346,
      "incorrigible": 8347,
      "inquiries": 8348,
      "inopportune": 8349,
      "inhospitable": 8350,
      "reservoirs": 8351,
      "rewarded": 8352,
      "respiration": 8353,
      "restrictions": 8354,
      "erfurt": 8355,
      "ouvrez": 8356,
      "enumerated": 8357,
      "enkindled": 8358,
      "encouraged": 8359,
      "arctic": 8360,
      "stagnant": 8361,
      "orthograph": 8362,
      "leisure": 8363,
      "leagues": 8364,
      "lecouturier": 8365,
      "ascii": 8366,
      "beetling": 8367,
      "hampered": 8368,
      "almanacs": 8369,
      "meadow": 8370,
      "même_": 8371,
      "rarefied": 8372,
      "lilliput": 8373,
      "coefficient": 8374,
      "unforeseen": 8375,
      "uneasiness": 8376,
      "unmitigated": 8377,
      "unquestionably": 8378,
      "unavoidable": 8379,
      "unprecedented": 8380,
      "sockets": 8381,
      "deportment": 8382,
      "abruptly": 8383,
      "lobos": 8384,
      "conundrum": 8385,
      "consolidated": 8386,
      "impossibilities": 8387,
      "implicit": 8388,
      "immutable": 8389,
      "pocket": 8390,
      "pomposity": 8391,
      "exempt": 8392,
      "exuberant": 8393,
      "negligence": 8394,
      "nevada": 8395,
      "familiar": 8396,
      "feminine": 8397,
      "fecunditatis_": 8398,
      "endurable": 8399,
      "sacramento": 8400,
      "maximum": 8401,
      "mammoth": 8402,
      "accustomed": 8403,
      "complicated": 8404,
      "disposal": 8405,
      "disruption": 8406,
      "crimson": 8407,
      "agglomer": 8408,
      "civili": 8409,
      "distracting": 8410,
      "mediterranean": 8411,
      "overpowering": 8412,
      "intolerable": 8413,
      "interference": 8414,
      "despaired": 8415,
      "desultory": 8416,
      "gruithuysen": 8417,
      "impalpable": 8418,
      "blackest": 8419,
      "_mercury_": 8420,
      "insignificance": 8421,
      "financial": 8422,
      "passengers": 8423,
      "archipela": 8424,
      "brobdignagians": 8425,
      "synonymous": 8426,
      "precincts": 8427,
      "emphatically": 8428,
      "hydrogen": 8429,
      "nonsensical": 8430,
      "_alphonse_": 8431,
      "_alpetragius_": 8432,
      "inexhaustible": 8433,
      "_theophilus_": 8434,
      "_conjunction_": 8435,
      "_huyghens_": 8436,
      "_purbach_": 8437,
      "!!!\"": 8438,
      "\",": 8439,
      "\";": 8440,
      "'\"": 8441,
      "'?\"": 8442,
      "($": 8443,
      "(“": 8444,
      ")(": 8445,
      ")!\"": 8446,
      ",”": 8447,
      ".:": 8448,
      ".”": 8449,
      "1000": 8450,
      "118": 8451,
      "120": 8452,
      "115": 8453,
      "130": 8454,
      "26": 8455,
      "2v": 8456,
      "2gr": 8457,
      "212": 8458,
      "216": 8459,
      "21st": 8460,
      "228": 8461,
      "219": 8462,
      "26th": 8463,
      "32": 8464,
      "34": 8465,
      "3d": 8466,
      "3r": 8467,
      "320": 8468,
      "31st": 8469,
      "375": 8470,
      "43": 8471,
      "47": 8472,
      "4th": 8473,
      "430": 8474,
      "425": 8475,
      "45th": 8476,
      "51": 8477,
      "52": 8478,
      "56": 8479,
      "58": 8480,
      "5000": 8481,
      "61": 8482,
      "64": 8483,
      "65": 8484,
      "600": 8485,
      "6000": 8486,
      "650": 8487,
      "625": 8488,
      "65th": 8489,
      "622": 8490,
      "71": 8491,
      "76": 8492,
      "7th": 8493,
      "762": 8494,
      "88": 8495,
      "8th": 8496,
      "8000": 8497,
      "841": 8498,
      "84th": 8499,
      "98": 8500,
      "921": 8501,
      "958": 8502,
      ":\"": 8503,
      ";--": 8504,
      "??": 8505,
      "?]": 8506,
      "?}": 8507,
      "?--": 8508,
      "_k": 8509,
      "_l": 8510,
      "_x": 8511,
      "_in": 8512,
      "_of": 8513,
      "_it": 8514,
      "_is": 8515,
      "_as": 8516,
      "_and": 8517,
      "_no": 8518,
      "_ro": 8519,
      "_ha": 8520,
      "_mo": 8521,
      "_ve": 8522,
      "_that": 8523,
      "_so": 8524,
      "_ab": 8525,
      "_im": 8526,
      "_po": 8527,
      "_pre": 8528,
      "_end": 8529,
      "_very": 8530,
      "_from": 8531,
      "_fo": 8532,
      "_have": 8533,
      "_et": 8534,
      "_here": 8535,
      "_pe": 8536,
      "_captain": 8537,
      "_ti": 8538,
      "_ess": 8539,
      "_pl": 8540,
      "_nic": 8541,
      "_time": 8542,
      "_how": 8543,
      "_every": 8544,
      "_self": 8545,
      "_little": 8546,
      "_ves": 8547,
      "_full": 8548,
      "_know": 8549,
      "_well": 8550,
      "_right": 8551,
      "_sun": 8552,
      "_gr": 8553,
      "_will": 8554,
      "_ta": 8555,
      "_cond": 8556,
      "_air": 8557,
      "_sol": 8558,
      "_two": 8559,
      "_far": 8560,
      "_don": 8561,
      "_na": 8562,
      "_par": 8563,
      "_occ": 8564,
      "_wer": 8565,
      "_direct": 8566,
      "_port": 8567,
      "_quite": 8568,
      "_french": 8569,
      "_ple": 8570,
      "_fur": 8571,
      "_heat": 8572,
      "_motion": 8573,
      "_lie": 8574,
      "_gu": 8575,
      "_space": 8576,
      "_astron": 8577,
      "_star": 8578,
      "_bl": 8579,
      "_ju": 8580,
      "_gener": 8581,
      "_shadow": 8582,
      "_astronom": 8583,
      "_sound": 8584,
      "_journey": 8585,
      "_wall": 8586,
      "_crater": 8587,
      "_real": 8588,
      "_open": 8589,
      "_war": 8590,
      "_height": 8591,
      "_laugh": 8592,
      "_degrees": 8593,
      "_disting": 8594,
      "_science": 8595,
      "_president": 8596,
      "_enter": 8597,
      "_pit": 8598,
      "_equal": 8599,
      "_observation": 8600,
      "_pacific": 8601,
      "_har": 8602,
      "_convin": 8603,
      "_name": 8604,
      "_southern": 8605,
      "_american": 8606,
      "_vest": 8607,
      "_trans": 8608,
      "_northern": 8609,
      "_theory": 8610,
      "_a_": 8611,
      "_ax": 8612,
      "_gro": 8613,
      "_above": 8614,
      "_pet": 8615,
      "_nautil": 8616,
      "_house": 8617,
      "_cracks": 8618,
      "_philo": 8619,
      "_laughed": 8620,
      "_flying": 8621,
      "_crust": 8622,
      "_fat": 8623,
      "_fair": 8624,
      "_radiating": 8625,
      "_bay": 8626,
      "_double": 8627,
      "_doing": 8628,
      "_somewhere": 8629,
      "_party": 8630,
      "_selenograph": 8631,
      "_rain": 8632,
      "_unknown": 8633,
      "_continent": 8634,
      "_scene": 8635,
      "_chasms": 8636,
      "_hyperbola": 8637,
      "_genial": 8638,
      "_ellipse": 8639,
      "_bull": 8640,
      "_progress": 8641,
      "_chamber": 8642,
      "_luck": 8643,
      "_yankee": 8644,
      "_parabola": 8645,
      "_z_": 8646,
      "_iner": 8647,
      "_acade": 8648,
      "_circle": 8649,
      "_riccioli": 8650,
      "_looks": 8651,
      "_cass": 8652,
      "_ante": 8653,
      "_enlight": 8654,
      "_rip": 8655,
      "_chi": 8656,
      "_imper": 8657,
      "_certain_": 8658,
      "_perihelion": 8659,
      "_sym": 8660,
      "_fissures": 8661,
      "_ætna": 8662,
      "_unearthly": 8663,
      "_moonlight": 8664,
      "_closer": 8665,
      "_opera": 8666,
      "_elements": 8667,
      "_credit": 8668,
      "_incontestably": 8669,
      "_tangent": 8670,
      "_reiset": 8671,
      "_regnault": 8672,
      "_dum": 8673,
      "_fon": 8674,
      "_tokay": 8675,
      "_boston": 8676,
      "_light_": 8677,
      "_overland": 8678,
      "_minim": 8679,
      "_cordi": 8680,
      "_clefts": 8681,
      "_dynam": 8682,
      "_colle": 8683,
      "_nature_": 8684,
      "_tableau": 8685,
      "_indian": 8686,
      "_grimaldi": 8687,
      "_potential": 8688,
      "_asymp": 8689,
      "_texas": 8690,
      "_entirely": 8691,
      "_caspian": 8692,
      "_mediterranean": 8693,
      "athe": 8694,
      "aly": 8695,
      "aco": 8696,
      "apro": 8697,
      "aur": 8698,
      "athan": 8699,
      "afore": 8700,
      "aest": 8701,
      "aute": 8702,
      "agrees": 8703,
      "aero": 8704,
      "aquar": 8705,
      "aque": 8706,
      "adel": 8707,
      "ai_": 8708,
      "ails": 8709,
      "ailes": 8710,
      "aired": 8711,
      "ale_": 8712,
      "avius_": 8713,
      "awake": 8714,
      "alex": 8715,
      "bin": 8716,
      "ben": 8717,
      "bis": 8718,
      "bun": 8719,
      "bend": 8720,
      "bast": 8721,
      "bable": 8722,
      "bac": 8723,
      "bible": 8724,
      "bub": 8725,
      "bund": 8726,
      "bath": 8727,
      "bage": 8728,
      "bought": 8729,
      "bland": 8730,
      "bins": 8731,
      "beng": 8732,
      "blist": 8733,
      "bantic": 8734,
      "bond": 8735,
      "bounds": 8736,
      "baff": 8737,
      "bah": 8738,
      "bask": 8739,
      "bstruct": 8740,
      "bade": 8741,
      "bouncing": 8742,
      "biding": 8743,
      "baked": 8744,
      "c_": 8745,
      "cis": 8746,
      "cill": 8747,
      "cind": 8748,
      "cations": 8749,
      "cards": 8750,
      "cree": 8751,
      "cise": 8752,
      "cush": 8753,
      "crop": 8754,
      "ciled": 8755,
      "cages": 8756,
      "cences": 8757,
      "cask": 8758,
      "citing": 8759,
      "ciful": 8760,
      "cency": 8761,
      "casc": 8762,
      "cumber": 8763,
      "cables": 8764,
      "carted": 8765,
      "cache": 8766,
      "dd": 8767,
      "dat": 8768,
      "dor": 8769,
      "dal": 8770,
      "dent": 8771,
      "dir": 8772,
      "dun": 8773,
      "dant": 8774,
      "dity": 8775,
      "dup": 8776,
      "dure": 8777,
      "dared": 8778,
      "dub": 8779,
      "dical": 8780,
      "dres": 8781,
      "dding": 8782,
      "dged": 8783,
      "dition": 8784,
      "dus_": 8785,
      "dined": 8786,
      "dwind": 8787,
      "droll": 8788,
      "ddered": 8789,
      "danced": 8790,
      "dders": 8791,
      "dabs": 8792,
      "dented": 8793,
      "dicate": 8794,
      "dheaded": 8795,
      "daught": 8796,
      "ee": 8797,
      "eg": 8798,
      "é": 8799,
      "eth": 8800,
      "ein": 8801,
      "ese": 8802,
      "ely": 8803,
      "ebe": 8804,
      "eup": 8805,
      "ethere": 8806,
      "eag": 8807,
      "eving": 8808,
      "eph": 8809,
      "erect": 8810,
      "eel": 8811,
      "emon": 8812,
      "eus_": 8813,
      "evie": 8814,
      "emb": 8815,
      "eii": 8816,
      "ebon": 8817,
      "eboard": 8818,
      "ei_": 8819,
      "eons": 8820,
      "egress": 8821,
      "ebb": 8822,
      "ezed": 8823,
      "ejac": 8824,
      "ewed": 8825,
      "eloqu": 8826,
      "fs": 8827,
      "fth": 8828,
      "fen": 8829,
      "fes": 8830,
      "file": 8831,
      "fus": 8832,
      "ffe": 8833,
      "fill": 8834,
      "flit": 8835,
      "flight": 8836,
      "fist": 8837,
      "fiz": 8838,
      "fying": 8839,
      "fished": 8840,
      "fick": 8841,
      "fought": 8842,
      "flaw": 8843,
      "flip": 8844,
      "fru": 8845,
      "fists": 8846,
      "flies": 8847,
      "fume": 8848,
      "fers_": 8849,
      "files": 8850,
      "fillet": 8851,
      "fumes": 8852,
      "ffolding": 8853,
      "fanned": 8854,
      "gm": 8855,
      "gin": 8856,
      "gon": 8857,
      "gis": 8858,
      "gic": 8859,
      "gap": 8860,
      "gus": 8861,
      "gif": 8862,
      "gment": 8863,
      "gow": 8864,
      "gull": 8865,
      "gist": 8866,
      "gshe": 8867,
      "gious": 8868,
      "gared": 8869,
      "gies": 8870,
      "gory": 8871,
      "gates": 8872,
      "gau": 8873,
      "glist": 8874,
      "grop": 8875,
      "gah": 8876,
      "ga_": 8877,
      "goned": 8878,
      "glistens": 8879,
      "gushing": 8880,
      "hm": 8881,
      "hs": 8882,
      "hin": 8883,
      "hen": 8884,
      "hid": 8885,
      "hart": 8886,
      "hint": 8887,
      "hlet": 8888,
      "hub": 8889,
      "hys": 8890,
      "hip": 8891,
      "haters": 8892,
      "houd": 8893,
      "hounds": 8894,
      "hiron": 8895,
      "hushed": 8896,
      "hired": 8897,
      "hinder": 8898,
      "iæ": 8899,
      "ithe": 8900,
      "ias": 8901,
      "iard": 8902,
      "iqu": 8903,
      "ife": 8904,
      "iers": 8905,
      "iable": 8906,
      "iving": 8907,
      "ives": 8908,
      "iod": 8909,
      "iwork": 8910,
      "ivis": 8911,
      "iel": 8912,
      "iably": 8913,
      "iom": 8914,
      "ivers": 8915,
      "iths": 8916,
      "iams": 8917,
      "iatory": 8918,
      "ivals": 8919,
      "iatics": 8920,
      "jer": 8921,
      "jes": 8922,
      "jif": 8923,
      "jure": 8924,
      "jub": 8925,
      "jason": 8926,
      "jord": 8927,
      "jaw": 8928,
      "jah": 8929,
      "jell": 8930,
      "ja_": 8931,
      "jester": 8932,
      "jutted": 8933,
      "jaco": 8934,
      "ka": 8935,
      "kant": 8936,
      "kans": 8937,
      "kily": 8938,
      "kink": 8939,
      "kspe": 8940,
      "kush": 8941,
      "kicked": 8942,
      "kwardly": 8943,
      "kanes": 8944,
      "lp": 8945,
      "lion": 8946,
      "lid": 8947,
      "lter": 8948,
      "lap": 8949,
      "lican": 8950,
      "lus": 8951,
      "lers": 8952,
      "lice": 8953,
      "lins": 8954,
      "ltry": 8955,
      "lanc": 8956,
      "labo": 8957,
      "lump": 8958,
      "lenses": 8959,
      "lvan": 8960,
      "lining": 8961,
      "lency": 8962,
      "lbs": 8963,
      "lumber": 8964,
      "linder": 8965,
      "leness": 8966,
      "las_": 8967,
      "luted": 8968,
      "lisher": 8969,
      "md": 8970,
      "mæ": 8971,
      "mould": 8972,
      "mour": 8973,
      "mone": 8974,
      "mck": 8975,
      "mity": 8976,
      "mbo": 8977,
      "mite": 8978,
      "mless": 8979,
      "mish": 8980,
      "mmed": 8981,
      "mature": 8982,
      "mily": 8983,
      "mies": 8984,
      "mie": 8985,
      "mason": 8986,
      "mute": 8987,
      "mbed": 8988,
      "muring": 8989,
      "mused": 8990,
      "mutil": 8991,
      "mult": 8992,
      "mashed": 8993,
      "maled": 8994,
      "mmers": 8995,
      "mapped": 8996,
      "mion_": 8997,
      "mician": 8998,
      "nard": 8999,
      "nim": 9000,
      "nile": 9001,
      "nur": 9002,
      "nad": 9003,
      "nity": 9004,
      "null": 9005,
      "nance": 9006,
      "nful": 9007,
      "nib": 9008,
      "nsy": 9009,
      "nists": 9010,
      "nassu": 9011,
      "nacles": 9012,
      "naked": 9013,
      "oo": 9014,
      "ov": 9015,
      "ole": 9016,
      "oes": 9017,
      "owe": 9018,
      "olo": 9019,
      "oma": 9020,
      "otle": 9021,
      "oty": 9022,
      "ocer": 9023,
      "oise": 9024,
      "ots": 9025,
      "oses": 9026,
      "ovo": 9027,
      "oath": 9028,
      "omit": 9029,
      "oiled": 9030,
      "oque": 9031,
      "oeu": 9032,
      "ogy": 9033,
      "othed": 9034,
      "ole_": 9035,
      "ometr": 9036,
      "opled": 9037,
      "octant": 9038,
      "odol": 9039,
      "oja_": 9040,
      "pp": 9041,
      "pis": 9042,
      "pand": 9043,
      "pid": 9044,
      "pour": 9045,
      "pile": 9046,
      "pout": 9047,
      "pear": 9048,
      "pits": 9049,
      "pper": 9050,
      "pite": 9051,
      "pag": 9052,
      "psome": 9053,
      "pach": 9054,
      "psha": 9055,
      "pted": 9056,
      "pses": 9057,
      "pens": 9058,
      "pick": 9059,
      "pors": 9060,
      "pins": 9061,
      "plying": 9062,
      "pined": 9063,
      "poud": 9064,
      "psy": 9065,
      "pgla": 9066,
      "penter": 9067,
      "pents": 9068,
      "pages": 9069,
      "padd": 9070,
      "pping": 9071,
      "pantly": 9072,
      "picks": 9073,
      "rr": 9074,
      "rand": 9075,
      "rut": 9076,
      "rho": 9077,
      "ration": 9078,
      "rity": 9079,
      "rature": 9080,
      "rys": 9081,
      "ricul": 9082,
      "rhap": 9083,
      "rumin": 9084,
      "ranged": 9085,
      "rara": 9086,
      "rhin": 9087,
      "sic": 9088,
      "sme": 9089,
      "sour": 9090,
      "sap": 9091,
      "sla": 9092,
      "sant": 9093,
      "sity": 9094,
      "sions": 9095,
      "site": 9096,
      "sort": 9097,
      "scal": 9098,
      "sna": 9099,
      "swer": 9100,
      "sick": 9101,
      "sword": 9102,
      "sively": 9103,
      "sites": 9104,
      "sworth": 9105,
      "sening": 9106,
      "scrib": 9107,
      "scorn": 9108,
      "sbreadth": 9109,
      "ssom": 9110,
      "sieve": 9111,
      "saddle": 9112,
      "tof": 9113,
      "tes": 9114,
      "tid": 9115,
      "tag": 9116,
      "tact": 9117,
      "tread": 9118,
      "treach": 9119,
      "tue": 9120,
      "tended": 9121,
      "tending": 9122,
      "titation": 9123,
      "tangled": 9124,
      "ticking": 9125,
      "tanks": 9126,
      "tinkling": 9127,
      "tumbling": 9128,
      "ug": 9129,
      "ux": 9130,
      "ued": 9131,
      "uno": 9132,
      "ugh": 9133,
      "uous": 9134,
      "udo": 9135,
      "ument": 9136,
      "uated": 9137,
      "uary": 9138,
      "udes": 9139,
      "ucid": 9140,
      "ucle": 9141,
      "ugn": 9142,
      "uum_": 9143,
      "urious": 9144,
      "uised": 9145,
      "uds": 9146,
      "utop": 9147,
      "ucas": 9148,
      "uries": 9149,
      "ugly": 9150,
      "ulys": 9151,
[...]
