{
  "version": "1.0",
  "truncation": null,
  "padding": null,
  "added_tokens": [
    {
      "id": 0,
      "content": "[UNK]",
      "single_word": false,
      "lstrip": false,
      "rstrip": false,
      "normalized": false,
      "special": true
    },
    {
      "id": 1,
      "content": "[CLS]",
      "single_word": false,
      "lstrip": false,
      "rstrip": false,
      "normalized": false,
      "special": true
    },
    {
      "id": 2,
      "content": "[SEP]",
      "single_word": false,
      "lstrip": false,
      "rstrip": false,
      "normalized": false,
      "special": true
    },
    {
      "id": 3,
      "content": "[PAD]",
      "single_word": false,
      "lstrip": false,
      "rstrip": false,
      "normalized": false,
      "special": true
    },
    {
      "id": 4,
      "content": "[MASK]",
      "single_word": false,
      "lstrip": false,
      "rstrip": false,
      "normalized": false,
      "special": true
    }
  ],
  "normalizer": null,
  "pre_tokenizer": {
    "type": "Whitespace"
  },
  "post_processor": null,
  "decoder": null,
  "model": {
    "type": "WordPiece",
    "unk_token": "[UNK]",
    "continuing_subword_prefix": "##",
    "max_input_chars_per_word": 100,
    "vocab": {
      "[UNK]": 0,
      "[CLS]": 1,
      "[SEP]": 2,
      "[PAD]": 3,
      "[MASK]": 4,
      "0": 5,
      "1": 6,
      "2": 7,
      "3": 8,
      "4": 9,
      "5": 10,
      "6": 11,
      "7": 12,
      "8": 13,
      "9": 14,
      "_": 15,
      "a": 16,
      "b": 17,
      "c": 18,
      "d": 19,
      "e": 20,
      "f": 21,
      "g": 22,
      "h": 23,
      "i": 24,
      "j": 25,
      "k": 26,
      "l": 27,
      "m": 28,
      "n": 29,
      "o": 30,
      "p": 31,
      "q": 32,
      "r": 33,
      "s": 34,
      "t": 35,
      "u": 36,
      "v": 37,
      "w": 38,
      "x": 39,
      "y": 40,
      "z": 41,
      "##d": 42,
      "##i": 43,
      "##o": 44,
      "##t": 45,
      "##s": 46,
      "##r": 47,
      "##a": 48,
      "##n": 49,
      "##e": 50,
      "##u": 51,
      "##c": 52,
      "##h": 53,
      "##b": 54,
      "##p": 55,
      "##l": 56,
      "##g": 57,
      "##m": 58,
      "##k": 59,
      "##y": 60,
      "##8": 61,
      "##_": 62,
      "##w": 63,
      "##4": 64,
      "##v": 65,
      "##f": 66,
      "##5": 67,
      "##0": 68,
      "##x": 69,
      "##z": 70,
      "##q": 71,
      "##j": 72,
      "##2": 73,
      "##7": 74,
      "##1": 75,
      "##9": 76,
      "##3": 77,
      "##6": 78,
      "th": 79,
      "the": 80,
      "##er": 81,
      "##in": 82,
      "##ed": 83,
      "##en": 84,
      "##on": 85,
      "##at": 86,
      "##ou": 87,
      "##ar": 88,
      "##an": 89,
      "##es": 90,
      "of": 91,
      "##ing": 92,
      "##or": 93,
      "##ll": 94,
      "an": 95,
      "in": 96,
      "to": 97,
      "##it": 98,
      "##is": 99,
      "##re": 100,
      "##as": 101,
      "##ic": 102,
      "##ly": 103,
      "##le": 104,
      "and": 105,
      "be": 106,
      "##om": 107,
      "##ct": 108,
      "##ion": 109,
      "##th": 110,
      "no": 111,
      "it": 112,
      "wh": 113,
      "##st": 114,
      "##gh": 115,
      "##ent": 116,
      "##ad": 117,
      "##ur": 118,
      "##ut": 119,
      "on": 120,
      "##ce": 121,
      "re": 122,
      "##id": 123,
      "##ve": 124,
      "##se": 125,
      "##ld": 126,
      "##al": 127,
      "##ro": 128,
      "as": 129,
      "that": 130,
      "##ain": 131,
      "##ir": 132,
      "##ver": 133,
      "at": 134,
      "##ow": 135,
      "##ri": 136,
      "##ch": 137,
      "he": 138,
      "##et": 139,
      "st": 140,
      "##ith": 141,
      "for": 142,
      "##im": 143,
      "##ect": 144,
      "##ould": 145,
      "##ght": 146,
      "was": 147,
      "mo": 148,
      "##ap": 149,
      "with": 150,
      "pro": 151,
      "##ay": 152,
      "su": 153,
      "##ter": 154,
      "is": 155,
      "sh": 156,
      "you": 157,
      "ar": 158,
      "we": 159,
      "##ere": 160,
      "by": 161,
      "se": 162,
      "not": 163,
      "##all": 164,
      "##ess": 165,
      "##ight": 166,
      "##nd": 167,
      "con": 168,
      "##tain": 169,
      "##ave": 170,
      "ex": 171,
      "##ul": 172,
      "##est": 173,
      "his": 174,
      "##ble": 175,
      "##ore": 176,
      "they": 177,
      "##il": 178,
      "had": 179,
      "##ican": 180,
      "bar": 181,
      "but": 182,
      "fr": 183,
      "or": 184,
      "##ation": 185,
      "##ject": 186,
      "##bican": 187,
      "##ich": 188,
      "barbican": 189,
      "de": 190,
      "so": 191,
      "ne": 192,
      "##ast": 193,
      "all": 194,
      "##ers": 195,
      "##ak": 196,
      "##dan": 197,
      "##am": 198,
      "ardan": 199,
      "their": 200,
      "moon": 201,
      "##ill": 202,
      "##os": 203,
      "this": 204,
      "##ant": 205,
      "##ous": 206,
      "com": 207,
      "dis": 208,
      "##um": 209,
      "project": 210,
      "##ther": 211,
      "from": 212,
      "##if": 213,
      "##ds": 214,
      "##un": 215,
      "have": 216,
      "##ck": 217,
      "##ile": 218,
      "##el": 219,
      "##us": 220,
      "##ra": 221,
      "##oo": 222,
      "##ate": 223,
      "them": 224,
      "##ity": 225,
      "##ust": 226,
      "al": 227,
      "its": 228,
      "##ge": 229,
      "could": 230,
      "##ough": 231,
      "en": 232,
      "our": 233,
      "##pp": 234,
      "sp": 235,
      "were": 236,
      "##ol": 237,
      "li": 238,
      "##ound": 239,
      "##ven": 240,
      "what": 241,
      "##em": 242,
      "##art": 243,
      "which": 244,
      "tr": 245,
      "would": 246,
      "fe": 247,
      "##ace": 248,
      "cap": 249,
      "ear": 250,
      "ever": 251,
      "ch": 252,
      "##and": 253,
      "##our": 254,
      "than": 255,
      "projectile": 256,
      "qu": 257,
      "ob": 258,
      "##ome": 259,
      "sa": 260,
      "##sel": 261,
      "wor": 262,
      "there": 263,
      "##oun": 264,
      "ab": 265,
      "##reat": 266,
      "me": 267,
      "##out": 268,
      "more": 269,
      "##pl": 270,
      "##ot": 271,
      "##oll": 272,
      "un": 273,
      "captain": 274,
      "her": 275,
      "##ive": 276,
      "##ions": 277,
      "##ke": 278,
      "##ong": 279,
      "now": 280,
      "##able": 281,
      "##end": 282,
      "im": 283,
      "##ard": 284,
      "##cc": 285,
      "earth": 286,
      "been": 287,
      "are": 288,
      "##ab": 289,
      "##qu": 290,
      "if": 291,
      "po": 292,
      "##fore": 293,
      "great": 294,
      "##ence": 295,
      "ver": 296,
      "tim": 297,
      "##pt": 298,
      "one": 299,
      "##ure": 300,
      "us": 301,
      "can": 302,
      "pr": 303,
      "##itt": 304,
      "do": 305,
      "##op": 306,
      "##act": 307,
      "comp": 308,
      "even": 309,
      "##ried": 310,
      "sur": 311,
      "##ally": 312,
      "gl": 313,
      "##ull": 314,
      "some": 315,
      "##ach": 316,
      "##ind": 317,
      "##ite": 318,
      "like": 319,
      "##ose": 320,
      "out": 321,
      "pl": 322,
      "##ort": 323,
      "very": 324,
      "di": 325,
      "##ved": 326,
      "only": 327,
      "any": 328,
      "##thing": 329,
      "##are": 330,
      "##ser": 331,
      "int": 332,
      "him": 333,
      "##cl": 334,
      "##ist": 335,
      "le": 336,
      "up": 337,
      "##ci": 338,
      "how": 339,
      "said": 340,
      "##av": 341,
      "per": 342,
      "##ked": 343,
      "##int": 344,
      "##ance": 345,
      "bl": 346,
      "fri": 347,
      "app": 348,
      "cried": 349,
      "obser": 350,
      "time": 351,
      "##ber": 352,
      "##ated": 353,
      "##ish": 354,
      "cont": 355,
      "##ass": 356,
      "who": 357,
      "##now": 358,
      "see": 359,
      "every": 360,
      "bo": 361,
      "about": 362,
      "##ittle": 363,
      "##ph": 364,
      "little": 365,
      "##ig": 366,
      "##ible": 367,
      "lun": 368,
      "##ag": 369,
      "long": 370,
      "such": 371,
      "##self": 372,
      "pre": 373,
      "##ond": 374,
      "##ie": 375,
      "##nich": 376,
      "##per": 377,
      "##nicholl": 378,
      "when": 379,
      "##iles": 380,
      "ag": 381,
      "mnicholl": 382,
      "fl": 383,
      "##ied": 384,
      "dist": 385,
      "must": 386,
      "##ear": 387,
      "point": 388,
      "lunar": 389,
      "##de": 390,
      "##00": 391,
      "man": 392,
      "other": 393,
      "##ide": 394,
      "still": 395,
      "surf": 396,
      "tw": 397,
      "##ine": 398,
      "my": 399,
      "##ays": 400,
      "surface": 401,
      "these": 402,
      "##ary": 403,
      "##ake": 404,
      "##oss": 405,
      "inter": 406,
      "##ock": 407,
      "##ath": 408,
      "##urn": 409,
      "your": 410,
      "ad": 411,
      "att": 412,
      "miles": 413,
      "##ree": 414,
      "##ations": 415,
      "know": 416,
      "##ell": 417,
      "##ves": 418,
      "ey": 419,
      "##ction": 420,
      "##ame": 421,
      "cl": 422,
      "moun": 423,
      "##cul": 424,
      "trave": 425,
      "fir": 426,
      "sun": 427,
      "gr": 428,
      "##ily": 429,
      "##ty": 430,
      "##pr": 431,
      "don": 432,
      "##ff": 433,
      "und": 434,
      "##ru": 435,
      "##ans": 436,
      "should": 437,
      "well": 438,
      "travell": 439,
      "over": 440,
      "part": 441,
      "pres": 442,
      "res": 443,
      "##ark": 444,
      "mountain": 445,
      "cr": 446,
      "##ac": 447,
      "acc": 448,
      "##ful": 449,
      "most": 450,
      "into": 451,
      "then": 452,
      "travellers": 453,
      "##wn": 454,
      "##ertain": 455,
      "too": 456,
      "##au": 457,
      "never": 458,
      "off": 459,
      "before": 460,
      "light": 461,
      "##ards": 462,
      "disc": 463,
      "##ater": 464,
      "rem": 465,
      "sl": 466,
      "##ious": 467,
      "bec": 468,
      "reg": 469,
      "##ment": 470,
      "ter": 471,
      "##oc": 472,
      "##ies": 473,
      "loo": 474,
      "##ely": 475,
      "##ack": 476,
      "##led": 477,
      "##ens": 478,
      "near": 479,
      "work": 480,
      "mu": 481,
      "inst": 482,
      "under": 483,
      "certain": 484,
      "mom": 485,
      "##esc": 486,
      "being": 487,
      "##ood": 488,
      "therefore": 489,
      "moment": 490,
      "last": 491,
      "##ling": 492,
      "thr": 493,
      "poss": 494,
      "##ep": 495,
      "##less": 496,
      "##ently": 497,
      "cons": 498,
      "nor": 499,
      "##ered": 500,
      "first": 501,
      "much": 502,
      "##ever": 503,
      "##iff": 504,
      "few": 505,
      "has": 506,
      "say": 507,
      "will": 508,
      "through": 509,
      "pe": 510,
      "sec": 511,
      "##ost": 512,
      "rep": 513,
      "##ron": 514,
      "##ink": 515,
      "af": 516,
      "though": 517,
      "##igh": 518,
      "##rect": 519,
      "where": 520,
      "asked": 521,
      "far": 522,
      "##ense": 523,
      "enough": 524,
      "cal": 525,
      "##ness": 526,
      "##een": 527,
      "##wards": 528,
      "##ving": 529,
      "repl": 530,
      "##ends": 531,
      "br": 532,
      "##az": 533,
      "read": 534,
      "##phere": 535,
      "##ne": 536,
      "##ub": 537,
      "##vid": 538,
      "##ully": 539,
      "two": 540,
      "_m": 541,
      "hour": 542,
      "##iz": 543,
      "##ying": 544,
      "form": 545,
      "after": 546,
      "##ating": 547,
      "soon": 548,
      "co": 549,
      "hard": 550,
      "mar": 551,
      "str": 552,
      "##ting": 553,
      "##ature": 554,
      "nothing": 555,
      "present": 556,
      "diff": 557,
      "##icul": 558,
      "bet": 559,
      "am": 560,
      "##ang": 561,
      "contin": 562,
      "replied": 563,
      "eas": 564,
      "##ical": 565,
      "##ade": 566,
      "may": 567,
      "##und": 568,
      "moons": 569,
      "friends": 570,
      "day": 571,
      "##ced": 572,
      "##uten": 573,
      "##selves": 574,
      "min": 575,
      "##ip": 576,
      "she": 577,
      "##ning": 578,
      "##cid": 579,
      "right": 580,
      "##ord": 581,
      "ref": 582,
      "##ount": 583,
      "observed": 584,
      "just": 585,
      "bel": 586,
      "ph": 587,
      "vel": 588,
      "##ail": 589,
      "##atter": 590,
      "##ston": 591,
      "again": 592,
      "veloc": 593,
      "cour": 594,
      "##ific": 595,
      "##ably": 596,
      "velocity": 597,
      "##ise": 598,
      "let": 599,
      "##man": 600,
      "once": 601,
      "quest": 602,
      "##ry": 603,
      "##pect": 604,
      "those": 605,
      "##atch": 606,
      "perf": 607,
      "##berg": 608,
      "mountains": 609,
      "hardly": 610,
      "course": 611,
      "did": 612,
      "fall": 613,
      "high": 614,
      "night": 615,
      "##sw": 616,
      "##one": 617,
      "##itu": 618,
      "##rib": 619,
      "around": 620,
      "new": 621,
      "compan": 622,
      "sm": 623,
      "##og": 624,
      "##orm": 625,
      "##aking": 626,
      "imp": 627,
      "however": 628,
      "guten": 629,
      "beg": 630,
      "##aving": 631,
      "gutenberg": 632,
      "##ces": 633,
      "##mos": 634,
      "##ase": 635,
      "why": 636,
      "atmos": 637,
      "without": 638,
      "himself": 639,
      "eyes": 640,
      "care": 641,
      "go": 642,
      "answ": 643,
      "##read": 644,
      "##ice": 645,
      "shall": 646,
      "sou": 647,
      "##age": 648,
      "##ings": 649,
      "##ick": 650,
      "start": 651,
      "ext": 652,
      "imm": 653,
      "occ": 654,
      "##dd": 655,
      "##eter": 656,
      "air": 657,
      "##tion": 658,
      "towards": 659,
      "##alf": 660,
      "sub": 661,
      "ke": 662,
      "made": 663,
      "##ue": 664,
      "##ft": 665,
      "##ory": 666,
      "reach": 667,
      "friend": 668,
      "attra": 669,
      "calcul": 670,
      "atmosphere": 671,
      "fact": 672,
      "good": 673,
      "sc": 674,
      "consid": 675,
      "marston": 676,
      "aw": 677,
      "cent": 678,
      "la": 679,
      "##lect": 680,
      "##imp": 681,
      "quite": 682,
      "##oub": 683,
      "found": 684,
      "sci": 685,
      "##red": 686,
      "feet": 687,
      "direct": 688,
      "##ished": 689,
      "dont": 690,
      "get": 691,
      "half": 692,
      "turn": 693,
      "##ib": 694,
      "##oy": 695,
      "##ually": 696,
      "##ench": 697,
      "##ows": 698,
      "##own": 699,
      "##app": 700,
      "supp": 701,
      "distance": 702,
      "ill": 703,
      "##king": 704,
      "##ors": 705,
      "inf": 706,
      "spe": 707,
      "appear": 708,
      "end": 709,
      "men": 710,
      "side": 711,
      "##fully": 712,
      "think": 713,
      "##row": 714,
      "##ower": 715,
      "minut": 716,
      "dark": 717,
      "lif": 718,
      "##wh": 719,
      "dep": 720,
      "themselves": 721,
      "abs": 722,
      "##press": 723,
      "certainly": 724,
      "perfect": 725,
      "here": 726,
      "##der": 727,
      "three": 728,
      "observ": 729,
      "slight": 730,
      "having": 731,
      "old": 732,
      "##ire": 733,
      "##other": 734,
      "##so": 735,
      "##ought": 736,
      "##ited": 737,
      "##ains": 738,
      "##tern": 739,
      "french": 740,
      "least": 741,
      "companions": 742,
      "ast": 743,
      "cle": 744,
      "cant": 745,
      "em": 746,
      "might": 747,
      "own": 748,
      "same": 749,
      "inv": 750,
      "##ither": 751,
      "decid": 752,
      "##rupt": 753,
      "cur": 754,
      "des": 755,
      "water": 756,
      "##ted": 757,
      "##reak": 758,
      "rec": 759,
      "##aph": 760,
      "##ope": 761,
      "question": 762,
      "bri": 763,
      "##dy": 764,
      "##air": 765,
      "thous": 766,
      "exce": 767,
      "decided": 768,
      "call": 769,
      "full": 770,
      "par": 771,
      "##ands": 772,
      "##ange": 773,
      "##let": 774,
      "seen": 775,
      "exact": 776,
      "sol": 777,
      "second": 778,
      "down": 779,
      "gi": 780,
      "yet": 781,
      "##ason": 782,
      "##ately": 783,
      "eye": 784,
      "minutes": 785,
      "_s": 786,
      "##ued": 787,
      "head": 788,
      "##imed": 789,
      "comm": 790,
      "possible": 791,
      "##ronom": 792,
      "fur": 793,
      "take": 794,
      "##iet": 795,
      "##most": 796,
      "##ause": 797,
      "##dden": 798,
      "foll": 799,
      "matter": 800,
      "pass": 801,
      "##ms": 802,
      "##ys": 803,
      "heat": 804,
      "##ets": 805,
      "sudden": 806,
      "excl": 807,
      "clear": 808,
      "act": 809,
      "car": 810,
      "op": 811,
      "rap": 812,
      "wond": 813,
      "inc": 814,
      "##isible": 815,
      "prob": 816,
      "##atell": 817,
      "hum": 818,
      "make": 819,
      "sw": 820,
      "satell": 821,
      "way": 822,
      "another": 823,
      "sel": 824,
      "##ign": 825,
      "north": 826,
      "easily": 827,
      "rapid": 828,
      "##over": 829,
      "##ud": 830,
      "##ined": 831,
      "##ition": 832,
      "seem": 833,
      "dear": 834,
      "alt": 835,
      "world": 836,
      "##ott": 837,
      "hours": 838,
      "gen": 839,
      "ide": 840,
      "tem": 841,
      "tell": 842,
      "##ix": 843,
      "##raph": 844,
      "##ents": 845,
      "##vel": 846,
      "##owed": 847,
      "space": 848,
      "object": 849,
      "continued": 850,
      "thousand": 851,
      "_c": 852,
      "doub": 853,
      "each": 854,
      "less": 855,
      "mid": 856,
      "ro": 857,
      "ind": 858,
      "##ides": 859,
      "##ility": 860,
      "whole": 861,
      "adv": 862,
      "consider": 863,
      "eff": 864,
      "wind": 865,
      "##a_": 866,
      "##ged": 867,
      "##ways": 868,
      "##ween": 869,
      "##edi": 870,
      "##ened": 871,
      "reason": 872,
      "##vers": 873,
      "exc": 874,
      "also": 875,
      "always": 876,
      "times": 877,
      "between": 878,
      "##itude": 879,
      "cor": 880,
      "det": 881,
      "mor": 882,
      "vol": 883,
      "##ene": 884,
      "back": 885,
      "col": 886,
      "hund": 887,
      "vi": 888,
      "##ial": 889,
      "##ual": 890,
      "##ared": 891,
      "##aps": 892,
      "alread": 893,
      "means": 894,
      "regard": 895,
      "hundred": 896,
      "already": 897,
      "desc": 898,
      "nature": 899,
      "simp": 900,
      "yes": 901,
      "ret": 902,
      "##ular": 903,
      "mean": 904,
      "complet": 905,
      "left": 906,
      "black": 907,
      "many": 908,
      "##ather": 909,
      "away": 910,
      "evid": 911,
      "rest": 912,
      "ser": 913,
      "##mit": 914,
      "ste": 915,
      "shad": 916,
      "almost": 917,
      "##avor": 918,
      "flo": 919,
      "instant": 920,
      "reply": 921,
      "differ": 922,
      "idea": 923,
      "days": 924,
      "kind": 925,
      "rock": 926,
      "vast": 927,
      "##ral": 928,
      "##rest": 929,
      "##hab": 930,
      "##zling": 931,
      "come": 932,
      "char": 933,
      "appro": 934,
      "##000": 935,
      "become": 936,
      "peak": 937,
      "answered": 938,
      "attraction": 939,
      "scient": 940,
      "suddenly": 941,
      "wonder": 942,
      "selen": 943,
      "cir": 944,
      "hand": 945,
      "##ild": 946,
      "##aimed": 947,
      "##fast": 948,
      "motion": 949,
      "prof": 950,
      "##ult": 951,
      "##aken": 952,
      "##us_": 953,
      "##gether": 954,
      "glass": 955,
      "interrupt": 956,
      "subject": 957,
      "life": 958,
      "cop": 959,
      "year": 960,
      "##up": 961,
      "##ates": 962,
      "##atis": 963,
      "##anc": 964,
      "##iss": 965,
      "##ash": 966,
      "quiet": 967,
      "_mare": 968,
      "astronom": 969,
      "doubt": 970,
      "bott": 971,
      "give": 972,
      "##ten": 973,
      "##ative": 974,
      "##ars": 975,
      "itself": 976,
      "##adi": 977,
      "##ures": 978,
      "exist": 979,
      "##osed": 980,
      "done": 981,
      "looked": 982,
      "began": 983,
      "carefully": 984,
      "tel": 985,
      "wr": 986,
      "##du": 987,
      "##sc": 988,
      "thing": 989,
      "expl": 990,
      "terrest": 991,
      "frenchman": 992,
      "probably": 993,
      "satellite": 994,
      "telesc": 995,
      "terrestri": 996,
      "power": 997,
      "set": 998,
      "##aut": 999,
      "##ites": 1000,
      "sea": 1001,
      "conf": 1002,
      "disp": 1003,
      "keep": 1004,
      "called": 1005,
      "gener": 1006,
      "approach": 1007,
      "ac": 1008,
      "able": 1009,
      "four": 1010,
      "gun": 1011,
      "ho": 1012,
      "rays": 1013,
      "sk": 1014,
      "sil": 1015,
      "##ks": 1016,
      "##rem": 1017,
      "eng": 1018,
      "##olut": 1019,
      "club": 1020,
      "nearly": 1021,
      "exactly": 1022,
      "further": 1023,
      "exclaimed": 1024,
      "terrestrial": 1025,
      "count": 1026,
      "favor": 1027,
      "jour": 1028,
      "##gen": 1029,
      "##aters": 1030,
      "##amp": 1031,
      "che": 1032,
      "prec": 1033,
      "difficul": 1034,
      "slightest": 1035,
      "rapidly": 1036,
      "temper": 1037,
      "equ": 1038,
      "elect": 1039,
      "ple": 1040,
      "ut": 1041,
      "inhab": 1042,
      "##ths": 1043,
      "##alt": 1044,
      "##tered": 1045,
      "##ement": 1046,
      "sound": 1047,
      "##od": 1048,
      "thought": 1049,
      "##ering": 1050,
      "##ann": 1051,
      "##ured": 1052,
      "rel": 1053,
      "##ident": 1054,
      "##sequ": 1055,
      "##owing": 1056,
      "consequ": 1057,
      "barbicans": 1058,
      "deg": 1059,
      "greater": 1060,
      "everything": 1061,
      "##icular": 1062,
      "law": 1063,
      "completely": 1064,
      "journe": 1065,
      "gas": 1066,
      "radi": 1067,
      "ten": 1068,
      "vo": 1069,
      "##cess": 1070,
      "##ons": 1071,
      "##rew": 1072,
      "##uring": 1073,
      "##thern": 1074,
      "both": 1075,
      "south": 1076,
      "morning": 1077,
      "regarding": 1078,
      "case": 1079,
      "either": 1080,
      "find": 1081,
      "gra": 1082,
      "rather": 1083,
      "vie": 1084,
      "##ier": 1085,
      "##ogether": 1086,
      "##fact": 1087,
      "thir": 1088,
      "##stand": 1089,
      "express": 1090,
      "##um_": 1091,
      "##que": 1092,
      "somewh": 1093,
      "anything": 1094,
      "crater": 1095,
      "bright": 1096,
      "altogether": 1097,
      "coo": 1098,
      "##oom": 1099,
      "##ric": 1100,
      "##he": 1101,
      "often": 1102,
      "ins": 1103,
      "##ici": 1104,
      "hear": 1105,
      "sum": 1106,
      "order": 1107,
      "##umin": 1108,
      "spl": 1109,
      "add": 1110,
      "discover": 1111,
      "because": 1112,
      "##pected": 1113,
      "##ribut": 1114,
      "small": 1115,
      "immedi": 1116,
      "centre": 1117,
      "evidently": 1118,
      "quietly": 1119,
      "journey": 1120,
      "view": 1121,
      "daz": 1122,
      "met": 1123,
      "num": 1124,
      "ocl": 1125,
      "put": 1126,
      "tra": 1127,
      "west": 1128,
      "want": 1129,
      "##xt": 1130,
      "##ingly": 1131,
      "##ury": 1132,
      "ass": 1133,
      "##elt": 1134,
      "##cious": 1135,
      "body": 1136,
      "pret": 1137,
      "look": 1138,
      "oclock": 1139,
      "line": 1140,
      "oce": 1141,
      "port": 1142,
      "tal": 1143,
      "##les": 1144,
      "##inary": 1145,
      "##ont": 1146,
      "whose": 1147,
      "##cei": 1148,
      "##tering": 1149,
      "appar": 1150,
      "longer": 1151,
      "works": 1152,
      "cold": 1153,
      "dazzling": 1154,
      "bro": 1155,
      "fam": 1156,
      "lay": 1157,
      "opp": 1158,
      "##ove": 1159,
      "##arp": 1160,
      "whate": 1161,
      "heart": 1162,
      "within": 1163,
      "produ": 1164,
      "weight": 1165,
      "##ccess": 1166,
      "##ief": 1167,
      "terri": 1168,
      "occas": 1169,
      "interrupted": 1170,
      "bottom": 1171,
      "whatever": 1172,
      "break": 1173,
      "fire": 1174,
      "gaz": 1175,
      "mag": 1176,
      "taken": 1177,
      "##ior": 1178,
      "##not": 1179,
      "##ouble": 1180,
      "##ict": 1181,
      "##the": 1182,
      "heard": 1183,
      "##ape": 1184,
      "sever": 1185,
      "interest": 1186,
      "##ibly": 1187,
      "absolut": 1188,
      "perfectly": 1189,
      "human": 1190,
      "temperature": 1191,
      "bol": 1192,
      "five": 1193,
      "free": 1194,
      "felt": 1195,
      "lying": 1196,
      "map": 1197,
      "pos": 1198,
      "six": 1199,
      "satis": 1200,
      "tri": 1201,
      "##ob": 1202,
      "##br": 1203,
      "##lic": 1204,
      "##get": 1205,
      "##aring": 1206,
      "##ret": 1207,
      "##rees": 1208,
      "##asure": 1209,
      "##ically": 1210,
      "##omen": 1211,
      "##thers": 1212,
      "hel": 1213,
      "move": 1214,
      "suff": 1215,
      "success": 1216,
      "##essed": 1217,
      "##ants": 1218,
      "poor": 1219,
      "does": 1220,
      "surpr": 1221,
      "place": 1222,
      "contr": 1223,
      "prev": 1224,
      "grand": 1225,
      "took": 1226,
      "better": 1227,
      "belfast": 1228,
      "observations": 1229,
      "decidedly": 1230,
      "inhabit": 1231,
      "bu": 1232,
      "dim": 1233,
      "face": 1234,
      "lost": 1235,
      "others": 1236,
      "sing": 1237,
      "sign": 1238,
      "##ised": 1239,
      "while": 1240,
      "##cept": 1241,
      "real": 1242,
      "hem": 1243,
      "state": 1244,
      "short": 1245,
      "necess": 1246,
      "craters": 1247,
      "account": 1248,
      "remark": 1249,
      "readily": 1250,
      "actually": 1251,
      "return": 1252,
      "famous": 1253,
      "best": 1254,
      "during": 1255,
      "el": 1256,
      "fully": 1257,
      "land": 1258,
      "sy": 1259,
      "##ael": 1260,
      "##oud": 1261,
      "##arm": 1262,
      "inde": 1263,
      "moving": 1264,
      "prop": 1265,
      "conc": 1266,
      "next": 1267,
      "ardans": 1268,
      "##ract": 1269,
      "spot": 1270,
      "##ended": 1271,
      "earths": 1272,
      "compar": 1273,
      "plains": 1274,
      "diam": 1275,
      "slow": 1276,
      "##ments": 1277,
      "illust": 1278,
      "effect": 1279,
      "years": 1280,
      "terrible": 1281,
      "cra": 1282,
      "fin": 1283,
      "hur": 1284,
      "list": 1285,
      "mich": 1286,
      "red": 1287,
      "ring": 1288,
      "squ": 1289,
      "te": 1290,
      "use": 1291,
      "##ia": 1292,
      "##ins": 1293,
      "##eng": 1294,
      "##enty": 1295,
      "dead": 1296,
      "##uss": 1297,
      "feel": 1298,
      "saw": 1299,
      "worth": 1300,
      "something": 1301,
      "dire": 1302,
      "particular": 1303,
      "understand": 1304,
      "##new": 1305,
      "strong": 1306,
      "##ording": 1307,
      "against": 1308,
      "going": 1309,
      "immense": 1310,
      "turned": 1311,
      "appeared": 1312,
      "open": 1313,
      "viol": 1314,
      "shadow": 1315,
      "different": 1316,
      "circ": 1317,
      "hemis": 1318,
      "bes": 1319,
      "lau": 1320,
      "oh": 1321,
      "pur": 1322,
      "##res": 1323,
      "##ex": 1324,
      "##can": 1325,
      "##haps": 1326,
      "##bo": 1327,
      "##light": 1328,
      "##lli": 1329,
      "##its": 1330,
      "##utral": 1331,
      "height": 1332,
      "stru": 1333,
      "##tained": 1334,
      "orb": 1335,
      "neutral": 1336,
      "##ush": 1337,
      "fell": 1338,
      "quick": 1339,
      "plain": 1340,
      "prep": 1341,
      "known": 1342,
      "looking": 1343,
      "##ize": 1344,
      "invisible": 1345,
      "solar": 1346,
      "window": 1347,
      "telescope": 1348,
      "somewhat": 1349,
      "pretty": 1350,
      "ocean": 1351,
      "magn": 1352,
      "several": 1353,
      "michael": 1354,
      "direction": 1355,
      "_p": 1356,
      "dra": 1357,
      "fif": 1358,
      "lat": 1359,
      "visible": 1360,
      "##ian": 1361,
      "##ians": 1362,
      "##ss": 1363,
      "##gs": 1364,
      "##ern": 1365,
      "anim": 1366,
      "requ": 1367,
      "##ired": 1368,
      "states": 1369,
      "const": 1370,
      "ord": 1371,
      "chap": 1372,
      "word": 1373,
      "plan": 1374,
      "##ortun": 1375,
      "peri": 1376,
      "perhaps": 1377,
      "regular": 1378,
      "amer": 1379,
      "##ograph": 1380,
      "seemed": 1381,
      "describ": 1382,
      "copy": 1383,
      "astronomers": 1384,
      "voice": 1385,
      "splend": 1386,
      "immediately": 1387,
      "suffici": 1388,
      "ball": 1389,
      "bene": 1390,
      "catch": 1391,
      "fast": 1392,
      "ma": 1393,
      "wall": 1394,
      "##enomen": 1395,
      "ann": 1396,
      "##ream": 1397,
      "##lem": 1398,
      "##ceed": 1399,
      "really": 1400,
      "##als": 1401,
      "##ained": 1402,
      "streak": 1403,
      "fort": 1404,
      "##imore": 1405,
      "shock": 1406,
      "deep": 1407,
      "##akes": 1408,
      "enorm": 1409,
      "phenomen": 1410,
      "kept": 1411,
      "passed": 1412,
      "correct": 1413,
      "volcan": 1414,
      "scientific": 1415,
      "wonderful": 1416,
      "##altimore": 1417,
      "grav": 1418,
      "summit": 1419,
      "occasion": 1420,
      "diameter": 1421,
      "laugh": 1422,
      "enormous": 1423,
      "coun": 1424,
      "east": 1425,
      "esc": 1426,
      "gent": 1427,
      "hy": 1428,
      "hor": 1429,
      "hope": 1430,
      "mon": 1431,
      "ox": 1432,
      "sens": 1433,
      "taking": 1434,
      "##nt": 1435,
      "##hann": 1436,
      "##gr": 1437,
      "##mber": 1438,
      "##ines": 1439,
      "##ination": 1440,
      "##ingu": 1441,
      "##ities": 1442,
      "##idge": 1443,
      "##ross": 1444,
      "stri": 1445,
      "arg": 1446,
      "exp": 1447,
      "disapp": 1448,
      "##cks": 1449,
      "##ook": 1450,
      "words": 1451,
      "glit": 1452,
      "distribut": 1453,
      "adm": 1454,
      "ready": 1455,
      "strange": 1456,
      "reflect": 1457,
      "extrem": 1458,
      "attract": 1459,
      "suppose": 1460,
      "infl": 1461,
      "exceed": 1462,
      "floor": 1463,
      "existence": 1464,
      "electron": 1465,
      "degrees": 1466,
      "##quehann": 1467,
      "hemisphere": 1468,
      "chapter": 1469,
      "_d": 1470,
      "bur": 1471,
      "bull": 1472,
      "baltimore": 1473,
      "making": 1474,
      "pen": 1475,
      "watch": 1476,
      "##iar": 1477,
      "##of": 1478,
      "##co": 1479,
      "##cy": 1480,
      "##li": 1481,
      "##ony": 1482,
      "##onds": 1483,
      "##ison": 1484,
      "reve": 1485,
      "arri": 1486,
      "##used": 1487,
      "##usquehann": 1488,
      "##ople": 1489,
      "distingu": 1490,
      "##aces": 1491,
      "##vided": 1492,
      "falling": 1493,
      "begin": 1494,
      "occup": 1495,
      "calculated": 1496,
      "directly": 1497,
      "depths": 1498,
      "##ternal": 1499,
      "given": 1500,
      "_susquehann": 1501,
      "detail": 1502,
      "selenites": 1503,
      "sky": 1504,
      "satisfact": 1505,
      "help": 1506,
      "besides": 1507,
      "aff": 1508,
      "came": 1509,
      "dang": 1510,
      "ha": 1511,
      "hands": 1512,
      "lar": 1513,
      "low": 1514,
      "main": 1515,
      "san": 1516,
      "##sp": 1517,
      "##atur": 1518,
      "##ances": 1519,
      "sure": 1520,
      "sharp": 1521,
      "exper": 1522,
      "dece": 1523,
      "##antic": 1524,
      "##ume": 1525,
      "##empt": 1526,
      "trans": 1527,
      "unt": 1528,
      "intell": 1529,
      "##ists": 1530,
      "according": 1531,
      "seconds": 1532,
      "general": 1533,
      "necessary": 1534,
      "indeed": 1535,
      "slowly": 1536,
      "illustr": 1537,
      "##ength": 1538,
      "electronic": 1539,
      "_susquehanna_": 1540,
      "burn": 1541,
      "gu": 1542,
      "gave": 1543,
      "ru": 1544,
      "sight": 1545,
      "##dies": 1546,
      "##bed": 1547,
      "##ps": 1548,
      "##gg": 1549,
      "##ygen": 1550,
      "things": 1551,
      "##ince": 1552,
      "##ics": 1553,
      "whe": 1554,
      "##ention": 1555,
      "##rim": 1556,
      "##right": 1557,
      "stars": 1558,
      "neither": 1559,
      "##osing": 1560,
      "##umb": 1561,
      "enter": 1562,
      "##pped": 1563,
      "true": 1564,
      "trouble": 1565,
      "saf": 1566,
      "united": 1567,
      "usual": 1568,
      "##itting": 1569,
      "close": 1570,
      "suns": 1571,
      "grad": 1572,
      "respect": 1573,
      "result": 1574,
      "terms": 1575,
      "people": 1576,
      "answer": 1577,
      "reached": 1578,
      "darkness": 1579,
      "brilli": 1580,
      "except": 1581,
      "excit": 1582,
      "simply": 1583,
      "simple": 1584,
      "country": 1585,
      "beneath": 1586,
      "oxygen": 1587,
      "disappear": 1588,
      "18": 1589,
      "_h": 1590,
      "bus": 1591,
      "breat": 1592,
      "est": 1593,
      "jo": 1594,
      "pac": 1595,
      "ris": 1596,
      "var": 1597,
      "went": 1598,
      "wild": 1599,
      "##o_": 1600,
      "##rum": 1601,
      "##ening": 1602,
      "##omp": 1603,
      "##aint": 1604,
      "seas": 1605,
      "conv": 1606,
      "##ounds": 1607,
      "##ending": 1608,
      "imag": 1609,
      "##ability": 1610,
      "seeing": 1611,
      "bodies": 1612,
      "##ublic": 1613,
      "presented": 1614,
      "##velop": 1615,
      "motionless": 1616,
      "approaching": 1617,
      "favorable": 1618,
      "difficult": 1619,
      "portion": 1620,
      "sufficient": 1621,
      "streaks": 1622,
      "gravity": 1623,
      "influ": 1624,
      "december": 1625,
      "cut": 1626,
      "eb": 1627,
      "ecl": 1628,
      "hill": 1629,
      "lim": 1630,
      "natur": 1631,
      "tried": 1632,
      "##ii": 1633,
      "##teen": 1634,
      "##sb": 1635,
      "##side": 1636,
      "##cing": 1637,
      "##att": 1638,
      "incl": 1639,
      "##thus": 1640,
      "star": 1641,
      "stand": 1642,
      "##ected": 1643,
      "expected": 1644,
      "##illed": 1645,
      "##rah": 1646,
      "enthus": 1647,
      "prom": 1648,
      "glob": 1649,
      "intense": 1650,
      "blaz": 1651,
      "##ishing": 1652,
      "##ield": 1653,
      "agre": 1654,
      "flash": 1655,
      "##culiar": 1656,
      "president": 1657,
      "nearer": 1658,
      "peculiar": 1659,
      "brought": 1660,
      "##ized": 1661,
      "below": 1662,
      "science": 1663,
      "getting": 1664,
      "observation": 1665,
      "following": 1666,
      "charact": 1667,
      "peaks": 1668,
      "number": 1669,
      "hurrah": 1670,
      "circum": 1671,
      "bullet": 1672,
      "reveal": 1673,
      "until": 1674,
      "pacific": 1675,
      "eclip": 1676,
      "enthusi": 1677,
      "15": 1678,
      "_v": 1679,
      "fa": 1680,
      "hot": 1681,
      "mill": 1682,
      "mass": 1683,
      "rend": 1684,
      "sent": 1685,
      "##iv": 1686,
      "##ts": 1687,
      "##e_": 1688,
      "##po": 1689,
      "##ple": 1690,
      "##ward": 1691,
      "##arn": 1692,
      "##iter": 1693,
      "##itch": 1694,
      "##itive": 1695,
      "##itable": 1696,
      "##ision": 1697,
      "##ased": 1698,
      "beh": 1699,
      "recei": 1700,
      "##rig": 1701,
      "##ection": 1702,
      "show": 1703,
      "arch": 1704,
      "cond": 1705,
      "exam": 1706,
      "need": 1707,
      "##ously": 1708,
      "##opes": 1709,
      "glimp": 1710,
      "upon": 1711,
      "blind": 1712,
      "ago": 1713,
      "attempt": 1714,
      "##ruct": 1715,
      "phil": 1716,
      "started": 1717,
      "illumin": 1718,
      "silence": 1719,
      "equal": 1720,
      "absolutely": 1721,
      "single": 1722,
      "argum": 1723,
      "beginning": 1724,
      "danger": 1725,
      "illustration": 1726,
      "globe": 1727,
      "1e": 1728,
      "dro": 1729,
      "mer": 1730,
      "mind": 1731,
      "miss": 1732,
      "##ale": 1733,
      "##night": 1734,
      "##ead": 1735,
      "##lish": 1736,
      "##ero": 1737,
      "##inion": 1738,
      "##asm": 1739,
      "##aster": 1740,
      "##leg": 1741,
      "white": 1742,
      "thats": 1743,
      "forever": 1744,
      "##iment": 1745,
      "prov": 1746,
      "##allel": 1747,
      "concl": 1748,
      "dev": 1749,
      "##umed": 1750,
      "##emb": 1751,
      "unc": 1752,
      "cannot": 1753,
      "bloom": 1754,
      "distant": 1755,
      "twenty": 1756,
      "myself": 1757,
      "##iously": 1758,
      "became": 1759,
      "regions": 1760,
      "instrum": 1761,
      "possibly": 1762,
      "easy": 1763,
      "questions": 1764,
      "imposs": 1765,
      "southern": 1766,
      "foundation": 1767,
      "directions": 1768,
      "##ibility": 1769,
      "curve": 1770,
      "##uded": 1771,
      "##atively": 1772,
      "powerful": 1773,
      "dispatch": 1774,
      "positive": 1775,
      "movement": 1776,
      "square": 1777,
      "struck": 1778,
      "period": 1779,
      "american": 1780,
      "counter": 1781,
      "exceedingly": 1782,
      "brilliant": 1783,
      "character": 1784,
      "12": 1785,
      "dri": 1786,
      "foo": 1787,
      "gre": 1788,
      "hes": 1789,
      "lab": 1790,
      "mr": 1791,
      "name": 1792,
      "oper": 1793,
      "orig": 1794,
      "pu": 1795,
      "path": 1796,
      "rate": 1797,
      "situ": 1798,
      "till": 1799,
      "win": 1800,
      "##iver": 1801,
      "##ner": 1802,
      "thro": 1803,
      "##ences": 1804,
      "##ati": 1805,
      "ang": 1806,
      "##is_": 1807,
      "##isely": 1808,
      "bear": 1809,
      "asser": 1810,
      "hea": 1811,
      "force": 1812,
      "provided": 1813,
      "def": 1814,
      "##ung": 1815,
      "ourselves": 1816,
      "lie": 1817,
      "##ounded": 1818,
      "##arts": 1819,
      "trying": 1820,
      "chief": 1821,
      "quar": 1822,
      "greatest": 1823,
      "outside": 1824,
      "instance": 1825,
      "instead": 1826,
      "##izing": 1827,
      "belie": 1828,
      "opinion": 1829,
      "objects": 1830,
      "difference": 1831,
      "profess": 1832,
      "profound": 1833,
      "precisely": 1834,
      "difficulty": 1835,
      "mete": 1836,
      "contrary": 1837,
      "latitude": 1838,
      "ordinary": 1839,
      "gentlem": 1840,
      "glittering": 1841,
      "large": 1842,
      "gradually": 1843,
      "bloomsb": 1844,
      "origin": 1845,
      "10": 1846,
      "20": 1847,
      "_b": 1848,
      "dest": 1849,
      "daring": 1850,
      "got": 1851,
      "gig": 1852,
      "hast": 1853,
      "ir": 1854,
      "pull": 1855,
      "pair": 1856,
      "rid": 1857,
      "run": 1858,
      "rail": 1859,
      "tone": 1860,
      "##iad": 1861,
      "##son": 1862,
      "##ses": 1863,
      "##ler": 1864,
      "##ken": 1865,
      "##yond": 1866,
      "thick": 1867,
      "##iness": 1868,
      "##atus": 1869,
      "##isco": 1870,
      "##lying": 1871,
      "beyond": 1872,
      "##stem": 1873,
      "##ented": 1874,
      "##ceive": 1875,
      "asc": 1876,
      "stra": 1877,
      "proble": 1878,
      "##ified": 1879,
      "whats": 1880,
      "ears": 1881,
      "post": 1882,
      "evening": 1883,
      "boys": 1884,
      "##ages": 1885,
      "points": 1886,
      "interior": 1887,
      "discuss": 1888,
      "remind": 1889,
      "##ledge": 1890,
      "saying": 1891,
      "formed": 1892,
      "import": 1893,
      "considered": 1894,
      "parallel": 1895,
      "incre": 1896,
      "consequence": 1897,
      "produced": 1898,
      "system": 1899,
      "worthy": 1900,
      "orbit": 1901,
      "fortun": 1902,
      "phenomenon": 1903,
      "burst": 1904,
      "whether": 1905,
      "excitement": 1906,
      "circumst": 1907,
      "heaven": 1908,
      "coll": 1909,
      "cause": 1910,
      "dr": 1911,
      "den": 1912,
      "eight": 1913,
      "happ": 1914,
      "knew": 1915,
      "lower": 1916,
      "length": 1917,
      "mut": 1918,
      "pie": 1919,
      "round": 1920,
      "ramp": 1921,
      "sides": 1922,
      "ve": 1923,
      "##old": 1924,
      "##ton": 1925,
      "##sh": 1926,
      "##uth": 1927,
      "throw": 1928,
      "##inci": 1929,
      "##orn": 1930,
      "init": 1931,
      "##iction": 1932,
      "##adem": 1933,
      "rev": 1934,
      "shape": 1935,
      "arr": 1936,
      "external": 1937,
      "##iling": 1938,
      "comb": 1939,
      "##ump": 1940,
      "##eless": 1941,
      "spo": 1942,
      "change": 1943,
      "meet": 1944,
      "unless": 1945,
      "press": 1946,
      "princi": 1947,
      "surr": 1948,
      "learn": 1949,
      "northern": 1950,
      "cover": 1951,
      "##eterm": 1952,
      "absor": 1953,
      "empl": 1954,
      "solid": 1955,
      "followed": 1956,
      "swe": 1957,
      "midnight": 1958,
      "advent": 1959,
      "advant": 1960,
      "effort": 1961,
      "columb": 1962,
      "steam": 1963,
      "floating": 1964,
      "rockets": 1965,
      "wrong": 1966,
      "added": 1967,
      "talk": 1968,
      "bolide": 1969,
      "surprise": 1970,
      "copyright": 1971,
      "details": 1972,
      "breath": 1973,
      "agreement": 1974,
      "quarter": 1975,
      "bloomsbury": 1976,
      "columbiad": 1977,
      "action": 1978,
      "cast": 1979,
      "city": 1980,
      "determ": 1981,
      "iron": 1982,
      "joy": 1983,
      "lic": 1984,
      "loc": 1985,
      "latter": 1986,
      "pers": 1987,
      "sense": 1988,
      "vent": 1989,
      "##oon": 1990,
      "##te": 1991,
      "##ax": 1992,
      "##ey": 1993,
      "##bing": 1994,
      "##bor": 1995,
      "##gl": 1996,
      "##mer": 1997,
      "thus": 1998,
      "theory": 1999,
      "##esh": 2000,
      "##orious": 2001,
      "##itions": 2002,
      "##reh": 2003,
      "##leep": 2004,
      "##ometer": 2005,
      "##ster": 2006,
      "forth": 2007,
      "prot": 2008,
      "showed": 2009,
      "seven": 2010,
      "death": 2011,
      "##ify": 2012,
      "enc": 2013,
      "enj": 2014,
      "##ember": 2015,
      "capable": 2016,
      "captains": 2017,
      "pole": 2018,
      "vert": 2019,
      "##itted": 2020,
      "glare": 2021,
      "glance": 2022,
      "plate": 2023,
      "fright": 2024,
      "intern": 2025,
      "##cular": 2026,
      "grou": 2027,
      "##aught": 2028,
      "becom": 2029,
      "possess": 2030,
      "highly": 2031,
      "careful": 2032,
      "starting": 2033,
      "occur": 2034,
      "commun": 2035,
      "altitude": 2036,
      "excited": 2037,
      "scientists": 2038,
      "hold": 2039,
      "laws": 2040,
      "thirty": 2041,
      "opportun": 2042,
      "inhabitants": 2043,
      "buoy": 2044,
      "listen": 2045,
      "magnific": 2046,
      "escap": 2047,
      "intellig": 2048,
      "glimpse": 2049,
      "puz": 2050,
      "professor": 2051,
      "gentlemen": 2052,
      "ramparts": 2053,
      "initial": 2054,
      "13": 2055,
      "30": 2056,
      "ap": 2057,
      "bre": 2058,
      "bound": 2059,
      "ca": 2060,
      "cam": 2061,
      "creat": 2062,
      "ed": 2063,
      "fate": 2064,
      "faint": 2065,
      "hon": 2066,
      "loud": 2067,
      "mur": 2068,
      "mere": 2069,
      "mile": 2070,
      "past": 2071,
      "public": 2072,
      "rise": 2073,
      "sch": 2074,
      "trem": 2075,
      "ves": 2076,
      "vain": 2077,
      "yards": 2078,
      "##ring": 2079,
      "##ror": 2080,
      "##ress": 2081,
      "##use": 2082,
      "##here": 2083,
      "##par": 2084,
      "##erable": 2085,
      "##ouse": 2086,
      "##arch": 2087,
      "##ank": 2088,
      "##estern": 2089,
      "##ork": 2090,
      "##ompl": 2091,
      "##that": 2092,
      "forget": 2093,
      "##ime": 2094,
      "mod": 2095,
      "super": 2096,
      "shot": 2097,
      "art": 2098,
      "convers": 2099,
      "franc": 2100,
      "compl": 2101,
      "along": 2102,
      "lies": 2103,
      "outl": 2104,
      "agree": 2105,
      "firm": 2106,
      "##pres": 2107,
      "partic": 2108,
      "moments": 2109,
      "secret": 2110,
      "report": 2111,
      "strict": 2112,
      "extra": 2113,
      "laid": 2114,
      "turning": 2115,
      "##oyed": 2116,
      "desp": 2117,
      "recover": 2118,
      "giving": 2119,
      "seems": 2120,
      "glasses": 2121,
      "telescopes": 2122,
      "engine": 2123,
      "pleasure": 2124,
      "##bridge": 2125,
      "dimin": 2126,
      "finally": 2127,
      "##ceeded": 2128,
      "disappeared": 2129,
      "influence": 2130,
      "counteract": 2131,
      "foot": 2132,
      "straight": 2133,
      "license": 2134,
      "opportunity": 2135,
      "cambridge": 2136,
      "conversation": 2137,
      "_ty": 2138,
      "bit": 2139,
      "ce": 2140,
      "due": 2141,
      "lands": 2142,
      "mort": 2143,
      "pounds": 2144,
      "pitch": 2145,
      "rig": 2146,
      "sim": 2147,
      "war": 2148,
      "##ius": 2149,
      "##oes": 2150,
      "##ls": 2151,
      "##gan": 2152,
      "##ator": 2153,
      "##oura": 2154,
      "##thes": 2155,
      "##urers": 2156,
      "##aying": 2157,
      "suc": 2158,
      "notic": 2159,
      "##ests": 2160,
      "##iled": 2161,
      "develop": 2162,
      "allow": 2163,
      "##ames": 2164,
      "##usion": 2165,
      "alive": 2166,
      "alone": 2167,
      "##ounding": 2168,
      "##ounced": 2169,
      "above": 2170,
      "glorious": 2171,
      "dian": 2172,
      "contem": 2173,
      "##aged": 2174,
      "attention": 2175,
      "accompl": 2176,
      "remember": 2177,
      "calm": 2178,
      "reader": 2179,
      "former": 2180,
      "coast": 2181,
      "refle": 2182,
      "calculation": 2183,
      "detect": 2184,
      "volume": 2185,
      "serious": 2186,
      "steep": 2187,
      "charge": 2188,
      "##autil": 2189,
      "consequently": 2190,
      "##head": 2191,
      "talking": 2192,
      "apparatus": 2193,
      "breakfast": 2194,
      "else": 2195,
      "comparison": 2196,
      "fifty": 2197,
      "splendid": 2198,
      "walls": 2199,
      "occasionally": 2200,
      "enterpr": 2201,
      "impossible": 2202,
      "meteor": 2203,
      "gigantic": 2204,
      "circumstances": 2205,
      "veget": 2206,
      "pressure": 2207,
      "adventurers": 2208,
      "group": 2209,
      "communic": 2210,
      "magnificent": 2211,
      "francisco": 2212,
      "_tych": 2213,
      "11": 2214,
      "16": 2215,
      "_f": 2216,
      "ack": 2217,
      "crow": 2218,
      "fig": 2219,
      "fail": 2220,
      "gul": 2221,
      "lav": 2222,
      "later": 2223,
      "nautil": 2224,
      "pow": 2225,
      "pap": 2226,
      "pol": 2227,
      "send": 2228,
      "sink": 2229,
      "since": 2230,
      "vis": 2231,
      "wa": 2232,
      "western": 2233,
      "##day": 2234,
      "##ivers": 2235,
      "##ium_": 2236,
      "##bra": 2237,
      "##gn": 2238,
      "##ging": 2239,
      "##gged": 2240,
      "##yr": 2241,
      "##val": 2242,
      "##fort": 2243,
      "##ert": 2244,
      "##inite": 2245,
      "##enced": 2246,
      "##atory": 2247,
      "##anch": 2248,
      "##anqu": 2249,
      "##ores": 2250,
      "incid": 2251,
      "##iting": 2252,
      "##road": 2253,
      "##irm": 2254,
      "##ching": 2255,
      "sto": 2256,
      "stre": 2257,
      "forty": 2258,
      "forces": 2259,
      "proved": 2260,
      "proper": 2261,
      "youre": 2262,
      "arms": 2263,
      "dec": 2264,
      "soft": 2265,
      "##antly": 2266,
      "##umph": 2267,
      "spect": 2268,
      "##ola": 2269,
      "fear": 2270,
      "##seless": 2271,
      "measure": 2272,
      "unf": 2273,
      "herself": 2274,
      "##endous": 2275,
      "##oph": 2276,
      "likely": 2277,
      "die": 2278,
      "##isted": 2279,
      "myster": 2280,
      "donations": 2281,
      "offic": 2282,
      "remain": 2283,
      "undert": 2284,
      "brain": 2285,
      "brave": 2286,
      "##order": 2287,
      "higher": 2288,
      "smile": 2289,
      "reaching": 2290,
      "calculate": 2291,
      "calculations": 2292,
      "speak": 2293,
      "depth": 2294,
      "parag": 2295,
      "carried": 2296,
      "midst": 2297,
      "color": 2298,
      "shadows": 2299,
      "instantly": 2300,
      "generally": 2301,
      "english": 2302,
      "utter": 2303,
      "degree": 2304,
      "third": 2305,
      "smaller": 2306,
      "brown": 2307,
      "triumph": 2308,
      "surprised": 2309,
      "prevent": 2310,
      "remarkable": 2311,
      "proport": 2312,
      "teleg": 2313,
      "violent": 2314,
      "prepared": 2315,
      "animal": 2316,
      "required": 2317,
      "experiment": 2318,
      "believe": 2319,
      "railroad": 2320,
      "problem": 2321,
      "important": 2322,
      "internal": 2323,
      "tremendous": 2324,
      "contempl": 2325,
      "reflection": 2326,
      "enterprise": 2327,
      "acknow": 2328,
      "gulf": 2329,
      "lava": 2330,
      "nautilus": 2331,
      "telegraph": 2332,
      "_l": 2333,
      "base": 2334,
      "caught": 2335,
      "ether": 2336,
      "fut": 2337,
      "furn": 2338,
      "lumin": 2339,
      "mach": 2340,
      "maps": 2341,
      "names": 2342,
      "pract": 2343,
      "size": 2344,
      "tou": 2345,
      "vall": 2346,
      "vac": 2347,
      "##s_": 2348,
      "##ren": 2349,
      "##ald": 2350,
      "##uced": 2351,
      "##cil": 2352,
      "##bs": 2353,
      "##y_": 2354,
      "##well": 2355,
      "##fer": 2356,
      "##ery": 2357,
      "##ining": 2358,
      "##inct": 2359,
      "##ency": 2360,
      "##es_": 2361,
      "##itness": 2362,
      "##omet": 2363,
      "whir": 2364,
      "whil": 2365,
      "##entric": 2366,
      "##char": 2367,
      "heav": 2368,
      "stony": 2369,
      "ship": 2370,
      "notice": 2371,
      "##ula": 2372,
      "##ested": 2373,
      "##estig": 2374,
      "theyre": 2375,
      "dem": 2376,
      "##astic": 2377,
      "##iful": 2378,
      "ent": 2379,
      "ours": 2380,
      "tradem": 2381,
      "chronom": 2382,
      "obst": 2383,
      "worse": 2384,
      "meth": 2385,
      "##otion": 2386,
      "unex": 2387,
      "gloom": 2388,
      "##asses": 2389,
      "boy": 2390,
      "##ager": 2391,
      "clou": 2392,
      "resemb": 2393,
      "cry": 2394,
      "##ensions": 2395,
      "conscious": 2396,
      "among": 2397,
      "##anged": 2398,
      "continents": 2399,
      "##ordinary": 2400,
      "perform": 2401,
      "##ormation": 2402,
      "information": 2403,
      "speaking": 2404,
      "##where": 2405,
      "excell": 2406,
      "##ashed": 2407,
      "electric": 2408,
      "expression": 2409,
      "cool": 2410,
      "absolute": 2411,
      "particularly": 2412,
      "##body": 2413,
      "fellow": 2414,
      "quickly": 2415,
      "planet": 2416,
      "volcanic": 2417,
      "laughed": 2418,
      "horiz": 2419,
      "extremely": 2420,
      "attractions": 2421,
      "distinguish": 2422,
      "imagine": 2423,
      "revealed": 2424,
      "render": 2425,
      "positively": 2426,
      "situation": 2427,
      "winter": 2428,
      "##ship": 2429,
      "arrange": 2430,
      "learned": 2431,
      "vessel": 2432,
      "extraordinary": 2433,
      "despair": 2434,
      "diana": 2435,
      "paragraph": 2436,
      "brownson": 2437,
      "vacu": 2438,
      "whilst": 2439,
      "trademark": 2440,
      "17": 2441,
      "25": 2442,
      "doll": 2443,
      "dream": 2444,
      "fun": 2445,
      "fanc": 2446,
      "flying": 2447,
      "gro": 2448,
      "grow": 2449,
      "id": 2450,
      "ice": 2451,
      "lu": 2452,
      "log": 2453,
      "lof": 2454,
      "liter": 2455,
      "mist": 2456,
      "math": 2457,
      "mac": 2458,
      "pa": 2459,
      "pure": 2460,
      "wid": 2461,
      "warm": 2462,
      "witness": 2463,
      "##iest": 2464,
      "##oved": 2465,
      "##ah": 2466,
      "##aim": 2467,
      "##ng": 2468,
      "##hood": 2469,
      "##by": 2470,
      "##pend": 2471,
      "##vo": 2472,
      "##inced": 2473,
      "##ats": 2474,
      "##ored": 2475,
      "##orable": 2476,
      "inch": 2477,
      "##ices": 2478,
      "beaut": 2479,
      "repres": 2480,
      "##riv": 2481,
      "stop": 2482,
      "forg": 2483,
      "##apor": 2484,
      "young": 2485,
      "separ": 2486,
      "##taining": 2487,
      "depress": 2488,
      "##ament": 2489,
      "##osity": 2490,
      "##osoph": 2491,
      "comfort": 2492,
      "displ": 2493,
      "dischar": 2494,
      "projectiles": 2495,
      "##iform": 2496,
      "##els": 2497,
      "live": 2498,
      "##emat": 2499,
      "sav": 2500,
      "meant": 2501,
      "uniform": 2502,
      "diver": 2503,
      "##cles": 2504,
      "leave": 2505,
      "##cient": 2506,
      "longitude": 2507,
      "##perb": 2508,
      "interp": 2509,
      "##acle": 2510,
      "access": 2511,
      "formation": 2512,
      "eastern": 2513,
      "##ogn": 2514,
      "supply": 2515,
      "thinking": 2516,
      "observatory": 2517,
      "investig": 2518,
      "parab": 2519,
      "heads": 2520,
      "follow": 2521,
      "clearly": 2522,
      "satellites": 2523,
      "midship": 2524,
      "considerably": 2525,
      "reasons": 2526,
      "retard": 2527,
      "selenite": 2528,
      "astronomer": 2529,
      "confid": 2530,
      "accept": 2531,
      "across": 2532,
      "silent": 2533,
      "cheer": 2534,
      "numer": 2535,
      "apparently": 2536,
      "gazing": 2537,
      "position": 2538,
      "trip": 2539,
      "comparatively": 2540,
      "purp": 2541,
      "##ushed": 2542,
      "fifteen": 2543,
      "##ernic": 2544,
      "splendor": 2545,
      "balloon": 2546,
      "admir": 2547,
      "arrived": 2548,
      "convinced": 2549,
      "ebook": 2550,
      "natural": 2551,
      "eclipse": 2552,
      "enthusiasm": 2553,
      "millions": 2554,
      "received": 2555,
      "archive": 2556,
      "condition": 2557,
      "philosoph": 2558,
      "sweet": 2559,
      "vertical": 2560,
      "puzzling": 2561,
      "##ourage": 2562,
      "mysterious": 2563,
      "luminous": 2564,
      "unexpected": 2565,
      "excellent": 2566,
      "vacuum": 2567,
      "lofty": 2568,
      "literary": 2569,
      "mathemat": 2570,
      "midshipman": 2571,
      "_n": 2572,
      "_w": 2573,
      "_new": 2574,
      "cross": 2575,
      "gone": 2576,
      "grew": 2577,
      "house": 2578,
      "jul": 2579,
      "jud": 2580,
      "jump": 2581,
      "lad": 2582,
      "lose": 2583,
      "lake": 2584,
      "losing": 2585,
      "mis": 2586,
      "nin": 2587,
      "nine": 2588,
      "none": 2589,
      "pan": 2590,
      "prim": 2591,
      "river": 2592,
      "sand": 2593,
      "ton": 2594,
      "useless": 2595,
      "van": 2596,
      "val": 2597,
      "york": 2598,
      "zero": 2599,
      "##i_": 2600,
      "##rm": 2601,
      "##awn": 2602,
      "##ee": 2603,
      "##ming": 2604,
      "##way": 2605,
      "therm": 2606,
      "tot": 2607,
      "whis": 2608,
      "##ute": 2609,
      "##ution": 2610,
      "ask": 2611,
      "##rill": 2612,
      "##ched": 2613,
      "##ety": 2614,
      "stream": 2615,
      "moved": 2616,
      "##ayed": 2617,
      "contained": 2618,
      "##ilar": 2619,
      "friction": 2620,
      "comet": 2621,
      "##ifying": 2622,
      "enab": 2623,
      "spite": 2624,
      "spark": 2625,
      "sphere": 2626,
      "living": 2627,
      "train": 2628,
      "early": 2629,
      "chains": 2630,
      "child": 2631,
      "impress": 2632,
      "##opernic": 2633,
      "level": 2634,
      "perm": 2635,
      "bold": 2636,
      "longs": 2637,
      "distur": 2638,
      "pointed": 2639,
      "manner": 2640,
      "twel": 2641,
      "##ocks": 2642,
      "undoub": 2643,
      "##ruction": 2644,
      "resumed": 2645,
      "crust": 2646,
      "accur": 2647,
      "remained": 2648,
      "beings": 2649,
      "##utenant": 2650,
      "didnt": 2651,
      "nights": 2652,
      "impro": 2653,
      "central": 2654,
      "specul": 2655,
      "depart": 2656,
      "mighty": 2657,
      "recogn": 2658,
      "humor": 2659,
      "swall": 2660,
      "_copernic": 2661,
      "room": 2662,
      "consideration": 2663,
      "rocky": 2664,
      "circular": 2665,
      "explan": 2666,
      "precaut": 2667,
      "pleas": 2668,
      "relief": 2669,
      "radiating": 2670,
      "discovered": 2671,
      "oppos": 2672,
      "gazed": 2673,
      "quicker": 2674,
      "drawn": 2675,
      "describe": 2676,
      "maed": 2677,
      "hyperb": 2678,
      "watching": 2679,
      "distinguished": 2680,
      "satisfactory": 2681,
      "business": 2682,
      "blazing": 2683,
      "_v_": 2684,
      "behind": 2685,
      "illuminated": 2686,
      "argument": 2687,
      "instrument": 2688,
      "lieutenant": 2689,
      "original": 2690,
      "covered": 2691,
      "escaped": 2692,
      "murph": 2693,
      "engineer": 2694,
      "landsc": 2695,
      "powder": 2696,
      "incident": 2697,
      "chronometer": 2698,
      "purpose": 2699,
      "thermometer": 2700,
      "undoubted": 2701,
      "1f": 2702,
      "40": 2703,
      "_e": 2704,
      "ah": 2705,
      "ax": 2706,
      "auth": 2707,
      "bir": 2708,
      "courage": 2709,
      "der": 2710,
      "dam": 2711,
      "et": 2712,
      "er": 2713,
      "ec": 2714,
      "fat": 2715,
      "faces": 2716,
      "field": 2717,
      "hung": 2718,
      "lo": 2719,
      "mel": 2720,
      "mem": 2721,
      "medi": 2722,
      "makes": 2723,
      "ra": 2724,
      "race": 2725,
      "sor": 2726,
      "snow": 2727,
      "##des": 2728,
      "##ius_": 2729,
      "##na": 2730,
      "##non": 2731,
      "##ec": 2732,
      "##ug": 2733,
      "##bon": 2734,
      "##but": 2735,
      "##bri": 2736,
      "##land": 2737,
      "##mb": 2738,
      "##men": 2739,
      "##know": 2740,
      "##wise": 2741,
      "##xic": 2742,
      "theres": 2743,
      "##atures": 2744,
      "##orter": 2745,
      "anx": 2746,
      "top": 2747,
      "##itation": 2748,
      "##itatis": 2749,
      "##isions": 2750,
      "beer": 2751,
      "##add": 2752,
      "held": 2753,
      "##imes": 2754,
      "wash": 2755,
      "shores": 2756,
      "search": 2757,
      "cone": 2758,
      "del": 2759,
      "delight": 2760,
      "neigh": 2761,
      "##ams": 2762,
      "##ooks": 2763,
      "##usted": 2764,
      "alarm": 2765,
      "try": 2766,
      "tranqu": 2767,
      "fee": 2768,
      "chair": 2769,
      "obli": 2770,
      "sail": 2771,
      "unw": 2772,
      "union": 2773,
      "imbri": 2774,
      "##ption": 2775,
      "cannon": 2776,
      "perpend": 2777,
      "observers": 2778,
      "board": 2779,
      "mnicholls": 2780,
      "flat": 2781,
      "yours": 2782,
      "admit": 2783,
      "knows": 2784,
      "##elled": 2785,
      "##ensity": 2786,
      "##escent": 2787,
      "afterwards": 2788,
      "##angu": 2789,
      "fallen": 2790,
      "##oney": 2791,
      "infinite": 2792,
      "speed": 2793,
      "appears": 2794,
      "appearance": 2795,
      "desir": 2796,
      "##iety": 2797,
      "##uding": 2798,
      "road": 2799,
      "considerable": 2800,
      "windows": 2801,
      "vivid": 2802,
      "complete": 2803,
      "##ission": 2804,
      "explain": 2805,
      "uttered": 2806,
      "discovery": 2807,
      "trace": 2808,
      "hearts": 2809,
      "gaze": 2810,
      "interesting": 2811,
      "freez": 2812,
      "effects": 2813,
      "crack": 2814,
      "cracks": 2815,
      "reduced": 2816,
      "planets": 2817,
      "hypo": 2818,
      "striking": 2819,
      "extreme": 2820,
      "satisfaction": 2821,
      "##spe": 2822,
      "experi": 2823,
      "guess": 2824,
      "safely": 2825,
      "estab": 2826,
      "starry": 2827,
      "standing": 2828,
      "arguments": 2829,
      "12000": 2830,
      "green": 2831,
      "hastily": 2832,
      "spoke": 2833,
      "advantage": 2834,
      "strictly": 2835,
      "mortal": 2836,
      "accomplished": 2837,
      "vegetation": 2838,
      "_tycho_": 2839,
      "unfortun": 2840,
      "proportion": 2841,
      "acknowledge": 2842,
      "future": 2843,
      "practical": 2844,
      "valley": 2845,
      "arrangement": 2846,
      "witnessed": 2847,
      "twelve": 2848,
      "_copernicus_": 2849,
      "murphy": 2850,
      "author": 2851,
      "##itatis_": 2852,
      "neighbor": 2853,
      "imbrium_": 2854,
      "perpendicular": 2855,
      "hypothes": 2856,
      "24": 2857,
      "35": 2858,
      "_o": 2859,
      "_t": 2860,
      "_r": 2861,
      "_ap": 2862,
      "bed": 2863,
      "double": 2864,
      "ele": 2865,
      "fle": 2866,
      "fair": 2867,
      "filled": 2868,
      "har": 2869,
      "killed": 2870,
      "loss": 2871,
      "pay": 2872,
      "priv": 2873,
      "rough": 2874,
      "rub": 2875,
      "sir": 2876,
      "sleep": 2877,
      "somet": 2878,
      "ty": 2879,
      "table": 2880,
      "tint": 2881,
      "wand": 2882,
      "waters": 2883,
      "xx": 2884,
      "##ole": 2885,
      "##ods": 2886,
      "##no": 2887,
      "##nest": 2888,
      "##ufact": 2889,
      "##come": 2890,
      "##lished": 2891,
      "##go": 2892,
      "##ger": 2893,
      "##wed": 2894,
      "##x_": 2895,
      "thou": 2896,
      "##erved": 2897,
      "##inds": 2898,
      "##onc": 2899,
      "##anced": 2900,
      "inex": 2901,
      "together": 2902,
      "##as_": 2903,
      "##adel": 2904,
      "receive": 2905,
      "##rop": 2906,
      "stock": 2907,
      "storm": 2908,
      "shif": 2909,
      "shell": 2910,
      "shows": 2911,
      "wel": 2912,
      "weigh": 2913,
      "exh": 2914,
      "exting": 2915,
      "allowed": 2916,
      "##amber": 2917,
      "##illing": 2918,
      "coming": 2919,
      "##el_": 2920,
      "##gebra": 2921,
      "##pper": 2922,
      "spir": 2923,
      "##olog": 2924,
      "feature": 2925,
      "features": 2926,
      "earnest": 2927,
      "worst": 2928,
      "unin": 2929,
      "##ables": 2930,
      "##ptical": 2931,
      "doing": 2932,
      "dogs": 2933,
      "compared": 2934,
      "glory": 2935,
      "lead": 2936,
      "##aves": 2937,
      "##pher": 2938,
      "manufact": 2939,
      "attach": 2940,
      "grave": 2941,
      "party": 2942,
      "lights": 2943,
      "working": 2944,
      "possibility": 2945,
      "repe": 2946,
      "formula": 2947,
      "refer": 2948,
      "refund": 2949,
      "phys": 2950,
      "highest": 2951,
      "gold": 2952,
      "scale": 2953,
      "curves": 2954,
      "record": 2955,
      "committ": 2956,
      "carry": 2957,
      "incess": 2958,
      "probability": 2959,
      "temp": 2960,
      "roared": 2961,
      "colors": 2962,
      "rocks": 2963,
      "selenograph": 2964,
      "acqu": 2965,
      "check": 2966,
      "somewhere": 2967,
      "addition": 2968,
      "immediate": 2969,
      "track": 2970,
      "##ceived": 2971,
      "broken": 2972,
      "humanity": 2973,
      "successful": 2974,
      "singular": 2975,
      "feeling": 2976,
      "strugg": 2977,
      "require": 2978,
      "described": 2979,
      "phenomena": 2980,
      "volcano": 2981,
      "escape": 2982,
      "month": 2983,
      "strike": 2984,
      "pencil": 2985,
      "maintained": 2986,
      "burned": 2987,
      "safe": 2988,
      "various": 2989,
      "naturally": 2990,
      "##attle": 2991,
      "including": 2992,
      "million": 2993,
      "examined": 2994,
      "blinding": 2995,
      "##eroid": 2996,
      "provide": 2997,
      "instruments": 2998,
      "labors": 2999,
      "thrown": 3000,
      "assert": 3001,
      "defect": 3002,
      "running": 3003,
      "discussion": 3004,
      "piece": 3005,
      "absorbed": 3006,
      "employed": 3007,
      "efforts": 3008,
      "person": 3009,
      "plateau": 3010,
      "pitchy": 3011,
      "succeeded": 3012,
      "communication": 3013,
      "crowd": 3014,
      "visit": 3015,
      "method": 3016,
      "clouds": 3017,
      "horizon": 3018,
      "dollars": 3019,
      "paid": 3020,
      "width": 3021,
      "comfortable": 3022,
      "numerous": 3023,
      "jules": 3024,
      "prime": 3025,
      "enabled": 3026,
      "departure": 3027,
      "explanation": 3028,
      "opposite": 3029,
      "medium": 3030,
      "##known": 3031,
      "unfortunately": 3032,
      "neighborhood": 3033,
      "sometimes": 3034,
      "extingu": 3035,
      "50": 3036,
      "_g": 3037,
      "_ar": 3038,
      "_al": 3039,
      "aston": 3040,
      "bon": 3041,
      "bay": 3042,
      "border": 3043,
      "dut": 3044,
      "eternal": 3045,
      "fare": 3046,
      "foc": 3047,
      "ge": 3048,
      "home": 3049,
      "hang": 3050,
      "ign": 3051,
      "lot": 3052,
      "mark": 3053,
      "mont": 3054,
      "master": 3055,
      "nub": 3056,
      "nons": 3057,
      "pal": 3058,
      "pet": 3059,
      "rain": 3060,
      "rush": 3061,
      "sn": 3062,
      "sat": 3063,
      "section": 3064,
      "tear": 3065,
      "vapor": 3066,
      "wish": 3067,
      "wide": 3068,
      "wings": 3069,
      "yawn": 3070,
      "##iosity": 3071,
      "##rent": 3072,
      "##ek": 3073,
      "##ef": 3074,
      "##bar": 3075,
      "##lands": 3076,
      "##wing": 3077,
      "##wor": 3078,
      "##wild": 3079,
      "##fied": 3080,
      "##er_": 3081,
      "##erted": 3082,
      "##enn": 3083,
      "##atic": 3084,
      "##arked": 3085,
      "##ane": 3086,
      "##anim": 3087,
      "##ington": 3088,
      "ancient": 3089,
      "inj": 3090,
      "told": 3091,
      "today": 3092,
      "##asing": 3093,
      "##ica": 3094,
      "bewild": 3095,
      "##urd": 3096,
      "##iding": 3097,
      "##ality": 3098,
      "##chan": 3099,
      "##etary": 3100,
      "stood": 3101,
      "proof": 3102,
      "shut": 3103,
      "shout": 3104,
      "weak": 3105,
      "notes": 3106,
      "organ": 3107,
      "deck": 3108,
      "sof": 3109,
      "##amed": 3110,
      "##osion": 3111,
      "comets": 3112,
      "##umber": 3113,
      "##iforn": 3114,
      "##ity_": 3115,
      "altern": 3116,
      "algebra": 3117,
      "envelop": 3118,
      "##olic": 3119,
      "chann": 3120,
      "quant": 3121,
      "meas": 3122,
      "mechan": 3123,
      "##plic": 3124,
      "une": 3125,
      "unknown": 3126,
      "unanim": 3127,
      "image": 3128,
      "used": 3129,
      "using": 3130,
      "plun": 3131,
      "plenty": 3132,
      "places": 3133,
      "div": 3134,
      "##cial": 3135,
      "##cially": 3136,
      "observer": 3137,
      "contact": 3138,
      "##phia": 3139,
      "prefer": 3140,
      "ages": 3141,
      "##0000": 3142,
      "otherwise": 3143,
      "twent": 3144,
      "yourself": 3145,
      "knowledge": 3146,
      "parts": 3147,
      "resist": 3148,
      "crescent": 3149,
      "accomp": 3150,
      "term": 3151,
      "nearest": 3152,
      "possessed": 3153,
      "farther": 3154,
      "californ": 3155,
      "bring": 3156,
      "sooner": 3157,
      "continent": 3158,
      "continually": 3159,
      "##under": 3160,
      "phr": 3161,
      "##itudes": 3162,
      "news": 3163,
      "smother": 3164,
      "sought": 3165,
      "startling": 3166,
      "scre": 3167,
      "screw": 3168,
      "aware": 3169,
      "##apped": 3170,
      "spec": 3171,
      "absurd": 3172,
      "emin": 3173,
      "curious": 3174,
      "curiosity": 3175,
      "desire": 3176,
      "thousands": 3177,
      "paris": 3178,
      "gives": 3179,
      "common": 3180,
      "indi": 3181,
      "hundreds": 3182,
      "descent": 3183,
      "blackness": 3184,
      "copies": 3185,
      "explosion": 3186,
      "approached": 3187,
      "silver": 3188,
      "counten": 3189,
      "utmost": 3190,
      "inhabited": 3191,
      "finding": 3192,
      "cooling": 3193,
      "inside": 3194,
      "apparent": 3195,
      "interested": 3196,
      "bolts": 3197,
      "contrad": 3198,
      "dimensions": 3199,
      "concuss": 3200,
      "spots": 3201,
      "violence": 3202,
      "fellows": 3203,
      "construct": 3204,
      "america": 3205,
      "maj": 3206,
      "senses": 3207,
      "reflecting": 3208,
      "arrival": 3209,
      "occupied": 3210,
      "intellect": 3211,
      "burning": 3212,
      "rugged": 3213,
      "busy": 3214,
      "rising": 3215,
      "convince": 3216,
      "hills": 3217,
      "blazed": 3218,
      "flashed": 3219,
      "masses": 3220,
      "philadel": 3221,
      "illumination": 3222,
      "dropped": 3223,
      "concluded": 3224,
      "devot": 3225,
      "labor": 3226,
      "operation": 3227,
      "assertion": 3228,
      "ascertain": 3229,
      "increasing": 3230,
      "fortunate": 3231,
      "heavenly": 3232,
      "happy": 3233,
      "meeting": 3234,
      "principle": 3235,
      "encoun": 3236,
      "frightful": 3237,
      "becomes": 3238,
      "becoming": 3239,
      "superior": 3240,
      "secretary": 3241,
      "noticed": 3242,
      "street": 3243,
      "fearful": 3244,
      "undertaken": 3245,
      "consciousness": 3246,
      "fancy": 3247,
      "beautiful": 3248,
      "meantime": 3249,
      "interposed": 3250,
      "crossed": 3251,
      "ninet": 3252,
      "axis": 3253,
      "washington": 3254,
      "tranquill": 3255,
      "committee": 3256,
      "farewell": 3257,
      "focus": 3258,
      "ignor": 3259,
      "nubium_": 3260,
      "accompan": 3261,
      "concussion": 3262,
      "philadelphia": 3263,
      "21": 3264,
      "_y": 3265,
      "_x_": 3266,
      "aid": 3267,
      "ahead": 3268,
      "bra": 3269,
      "battle": 3270,
      "cost": 3271,
      "cord": 3272,
      "din": 3273,
      "dry": 3274,
      "es": 3275,
      "ev": 3276,
      "eat": 3277,
      "ell": 3278,
      "erupt": 3279,
      "eager": 3280,
      "espe": 3281,
      "fre": 3282,
      "fish": 3283,
      "fier": 3284,
      "gle": 3285,
      "gest": 3286,
      "gently": 3287,
      "grim": 3288,
      "hence": 3289,
      "harm": 3290,
      "icy": 3291,
      "jove": 3292,
      "kn": 3293,
      "king": 3294,
      "lond": 3295,
      "lately": 3296,
      "love": 3297,
      "langu": 3298,
      "mou": 3299,
      "mus": 3300,
      "mater": 3301,
      "money": 3302,
      "nice": 3303,
      "pain": 3304,
      "page": 3305,
      "pict": 3306,
      "pale": 3307,
      "rose": 3308,
      "rang": 3309,
      "sake": 3310,
      "tons": 3311,
      "ur": 3312,
      "xv": 3313,
      "yield": 3314,
      "zen": 3315,
      "##dle": 3316,
      "##iation": 3317,
      "##ium": 3318,
      "##ipp": 3319,
      "##rant": 3320,
      "##rous": 3321,
      "##uck": 3322,
      "##ude": 3323,
      "##bur": 3324,
      "##ped": 3325,
      "##lim": 3326,
      "##ges": 3327,
      "##kins": 3328,
      "##with": 3329,
      "##for": 3330,
      "##fic": 3331,
      "thin": 3332,
      "##inus": 3333,
      "##on_": 3334,
      "##oned": 3335,
      "##anus": 3336,
      "##anks": 3337,
      "##oric": 3338,
      "##orid": 3339,
      "ant": 3340,
      "inn": 3341,
      "ine": 3342,
      "ingen": 3343,
      "##ising": 3344,
      "##asc": 3345,
      "##asy": 3346,
      "##asms": 3347,
      "##icated": 3348,
      "bef": 3349,
      "bell": 3350,
      "##ctor": 3351,
      "noise": 3352,
      "##idly": 3353,
      "##ldom": 3354,
      "##aled": 3355,
      "##alog": 3356,
      "asso": 3357,
      "asleep": 3358,
      "##vern": 3359,
      "stout": 3360,
      "story": 3361,
      "stret": 3362,
      "fore": 3363,
      "mot": 3364,
      "mole": 3365,
      "##apes": 3366,
      "sust": 3367,
      "susp": 3368,
      "sugg": 3369,
      "islands": 3370,
      "shoo": 3371,
      "showing": 3372,
      "sev": 3373,
      "seldom": 3374,
      "note": 3375,
      "##alled": 3376,
      "conn": 3377,
      "conject": 3378,
      "##ulting": 3379,
      "fresh": 3380,
      "alluded": 3381,
      "##osition": 3382,
      "##anted": 3383,
      "##raction": 3384,
      "encl": 3385,
      "spr": 3386,
      "spent": 3387,
      "##olving": 3388,
      "lips": 3389,
      "truth": 3390,
      "queen": 3391,
      "##ouncing": 3392,
      "abo": 3393,
      "##plan": 3394,
      "##otograph": 3395,
      "uns": 3396,
      "heroes": 3397,
      "imper": 3398,
      "##ccentric": 3399,
      "pron": 3400,
      "intended": 3401,
      "upwards": 3402,
      "##inted": 3403,
      "blast": 3404,
      "blanc": 3405,
      "blessed": 3406,
      "florid": 3407,
      "twice": 3408,
      "attended": 3409,
      "mount": 3410,
      "presence": 3411,
      "##acy": 3412,
      "##aced": 3413,
      "remarked": 3414,
      "regret": 3415,
      "lasted": 3416,
      "repose": 3417,
      "republic": 3418,
      "replace": 3419,
      "##ization": 3420,
      "forming": 3421,
      "strength": 3422,
      "photograph": 3423,
      "##attered": 3424,
      "extent": 3425,
      "subm": 3426,
      "scene": 3427,
      "supposing": 3428,
      "endless": 3429,
      "##rows": 3430,
      "minute": 3431,
      "asteroid": 3432,
      "commenced": 3433,
      "follows": 3434,
      "##ysix": 3435,
      "opened": 3436,
      "incon": 3437,
      "self": 3438,
      "_carp": 3439,
      "meaning": 3440,
      "evident": 3441,
      "seren": 3442,
      "stead": 3443,
      "##habitable": 3444,
      "wonderfully": 3445,
      "confident": 3446,
      "keeping": 3447,
      "precise": 3448,
      "please": 3449,
      "sounding": 3450,
      "brighter": 3451,
      "putting": 3452,
      "traces": 3453,
      "assumed": 3454,
      "produce": 3455,
      "occasions": 3456,
      "prevail": 3457,
      "inhabitable": 3458,
      "violently": 3459,
      "purs": 3460,
      "##bold": 3461,
      "prepare": 3462,
      "##ians_": 3463,
      "animals": 3464,
      "announced": 3465,
      "summits": 3466,
      "horror": 3467,
      "sensations": 3468,
      "##gress": 3469,
      "distributing": 3470,
      "maintain": 3471,
      "surely": 3472,
      "estim": 3473,
      "wildly": 3474,
      "prompt": 3475,
      "fah": 3476,
      "behold": 3477,
      "blindly": 3478,
      "##embers": 3479,
      "hasty": 3480,
      "reminded": 3481,
      "increased": 3482,
      "fortunately": 3483,
      "muttered": 3484,
      "surrounded": 3485,
      "surrounding": 3486,
      "advantages": 3487,
      "determined": 3488,
      "##rehend": 3489,
      "intelligence": 3490,
      "edge": 3491,
      "honorable": 3492,
      "outline": 3493,
      "particle": 3494,
      "diminished": 3495,
      "similar": 3496,
      "figures": 3497,
      "paper": 3498,
      "sinking": 3499,
      "stopped": 3500,
      "machin": 3501,
      "##ald_": 3502,
      "gloomy": 3503,
      "represent": 3504,
      "forgot": 3505,
      "judge": 3506,
      "vanished": 3507,
      "permission": 3508,
      "disturbed": 3509,
      "accuracy": 3510,
      "precautions": 3511,
      "pleasant": 3512,
      "maedler": 3513,
      "etc": 3514,
      "sorry": 3515,
      "desirous": 3516,
      "hypothesis": 3517,
      "uninhabitable": 3518,
      "selenographic": 3519,
      "julesbur": 3520,
      "extinguished": 3521,
      "sofa": 3522,
      "quantity": 3523,
      "measured": 3524,
      "twentysix": 3525,
      "california": 3526,
      "countenance": 3527,
      "ellip": 3528,
      "especially": 3529,
      "london": 3530,
      "mouth": 3531,
      "zenith": 3532,
      "associ": 3533,
      "shooting": 3534,
      "florida": 3535,
      "_carpath": 3536,
      "julesburg": 3537,
      "14": 3538,
      "_the": 3539,
      "aimed": 3540,
      "ble": 3541,
      "bore": 3542,
      "cre": 3543,
      "dre": 3544,
      "dom": 3545,
      "dust": 3546,
      "dense": 3547,
      "dread": 3548,
      "fo": 3549,
      "fro": 3550,
      "keen": 3551,
      "lit": 3552,
      "lamp": 3553,
      "lines": 3554,
      "mad": 3555,
      "mention": 3556,
      "nect": 3557,
      "nav": 3558,
      "pati": 3559,
      "rot": 3560,
      "roll": 3561,
      "roy": 3562,
      "says": 3563,
      "salt": 3564,
      "sending": 3565,
      "tre": 3566,
      "tax": 3567,
      "vers": 3568,
      "wil": 3569,
      "yell": 3570,
      "##dra": 3571,
      "##ige": 3572,
      "##sed": 3573,
      "##rated": 3574,
      "##eg": 3575,
      "##ues": 3576,
      "##uing": 3577,
      "##uct": 3578,
      "##ught": 3579,
      "##how": 3580,
      "##pet": 3581,
      "##pass": 3582,
      "##lers": 3583,
      "##gy": 3584,
      "##mor": 3585,
      "##kes": 3586,
      "##ygl": 3587,
      "##faster": 3588,
      "##50": 3589,
      "##xim": 3590,
      "##zen": 3591,
      "##zled": 3592,
      "thy": 3593,
      "thrill": 3594,
      "##erv": 3595,
      "##arine": 3596,
      "##arum_": 3597,
      "##anke": 3598,
      "##ordan": 3599,
      "##llarum_": 3600,
      "analog": 3601,
      "##ism": 3602,
      "##ask": 3603,
      "beams": 3604,
      "##omed": 3605,
      "##ceanus": 3606,
      "##cellarum_": 3607,
      "rever": 3608,
      "revel": 3609,
      "##idian": 3610,
      "##ird": 3611,
      "##rious": 3612,
      "##rived": 3613,
      "##ription": 3614,
      "station": 3615,
      "##ould_": 3616,
      "mother": 3617,
      "##apse": 3618,
      "proceed": 3619,
      "proceeded": 3620,
      "procellarum_": 3621,
      "shr": 3622,
      "weary": 3623,
      "##ils": 3624,
      "decl": 3625,
      "soci": 3626,
      "comes": 3627,
      "##uming": 3628,
      "##umerable": 3629,
      "##unte": 3630,
      "##ilege": 3631,
      "##elfaster": 3632,
      "##ooth": 3633,
      "##ust_": 3634,
      "enable": 3635,
      "entering": 3636,
      "spygl": 3637,
      "##oles": 3638,
      "liqu": 3639,
      "##veni": 3640,
      "chang": 3641,
      "chasms": 3642,
      "sailing": 3643,
      "worked": 3644,
      "meal": 3645,
      "##plend": 3646,
      "univers": 3647,
      "pop": 3648,
      "##pty": 3649,
      "usually": 3650,
      "prison": 3651,
      "dog": 3652,
      "doctor": 3653,
      "compr": 3654,
      "comprehend": 3655,
      "anyhow": 3656,
      "intensity": 3657,
      "##istic": 3658,
      "perple": 3659,
      "observe": 3660,
      "contract": 3661,
      "precious": 3662,
      "##ieved": 3663,
      "##pered": 3664,
      "whenever": 3665,
      "flag": 3666,
      "lunarians": 3667,
      "interplan": 3668,
      "##ellar": 3669,
      "cliff": 3670,
      "fires": 3671,
      "sunlight": 3672,
      "grat": 3673,
      "resp": 3674,
      "lightning": 3675,
      "disconc": 3676,
      "underst": 3677,
      "reporter": 3678,
      "##inkled": 3679,
      "brains": 3680,
      "continue": 3681,
      "minds": 3682,
      "refract": 3683,
      "##ification": 3684,
      "subst": 3685,
      "facts": 3686,
      "century": 3687,
      "##oubled": 3688,
      "##apping": 3689,
      "support": 3690,
      "ende": 3691,
      "lifted": 3692,
      "emotion": 3693,
      "empty": 3694,
      "current": 3695,
      "design": 3696,
      "solution": 3697,
      "_sinus": 3698,
      "carbon": 3699,
      "humbold": 3700,
      "switch": 3701,
      "corn": 3702,
      "morgan": 3703,
      "volunte": 3704,
      "restless": 3705,
      "interruption": 3706,
      "##upiter": 3707,
      "bottle": 3708,
      "writing": 3709,
      "sett": 3710,
      "confirm": 3711,
      "disput": 3712,
      "disposed": 3713,
      "keeps": 3714,
      "engaged": 3715,
      "##olution": 3716,
      "equator": 3717,
      "pleased": 3718,
      "radiation": 3719,
      "void": 3720,
      "##onscious": 3721,
      "gracious": 3722,
      "##standing": 3723,
      "brightness": 3724,
      "summer": 3725,
      "assured": 3726,
      "assume": 3727,
      "oceans": 3728,
      "bolides": 3729,
      "freely": 3730,
      "signal": 3731,
      "remarks": 3732,
      "illustrious": 3733,
      "constant": 3734,
      "regularly": 3735,
      "describing": 3736,
      "fastened": 3737,
      "gentle": 3738,
      "months": 3739,
      "##ines_": 3740,
      "glittered": 3741,
      "distributed": 3742,
      "distribution": 3743,
      "reflected": 3744,
      "##like": 3745,
      "occupying": 3746,
      "affirm": 3747,
      "respective": 3748,
      "exception": 3749,
      "186": 3750,
      "variety": 3751,
      "ebooks": 3752,
      "inclined": 3753,
      "promin": 3754,
      "intensely": 3755,
      "showers": 3756,
      "meridian": 3757,
      "unconscious": 3758,
      "operations": 3759,
      "situated": 3760,
      "_belfaster": 3761,
      "pulling": 3762,
      "posted": 3763,
      "pieces": 3764,
      "princip": 3765,
      "joyous": 3766,
      "locom": 3767,
      "located": 3768,
      "venture": 3769,
      "protected": 3770,
      "enjoy": 3771,
      "enjoyed": 3772,
      "buoys": 3773,
      "apart": 3774,
      "boundless": 3775,
      "schm": 3776,
      "schoo": 3777,
      "complain": 3778,
      "warrant": 3779,
      "papers": 3780,
      "wait": 3781,
      "spectacle": 3782,
      "officers": 3783,
      "heavy": 3784,
      "cryst": 3785,
      "ident": 3786,
      "lively": 3787,
      "savage": 3788,
      "confidently": 3789,
      "jumping": 3790,
      "swallowed": 3791,
      "hyperbola": 3792,
      "undoubtedly": 3793,
      "birds": 3794,
      "unwilling": 3795,
      "_oceanus": 3796,
      "_r_": 3797,
      "privilege": 3798,
      "spirits": 3799,
      "recorded": 3800,
      "additional": 3801,
      "nonsense": 3802,
      "yawning": 3803,
      "##works": 3804,
      "plunged": 3805,
      "screen": 3806,
      "knock": 3807,
      "language": 3808,
      "pictures": 3809,
      "innumerable": 3810,
      "enclosed": 3811,
      "pronounced": 3812,
      "machinery": 3813,
      "associated": 3814,
      "_carpathians_": 3815,
      "nectar": 3816,
      "perplex": 3817,
      "interplanetary": 3818,
      "humboldt": 3819,
      "_belfasters_": 3820,
      "27": 3821,
      "200": 3822,
      "400": 3823,
      "_un": 3824,
      "_per": 3825,
      "aer": 3826,
      "acid": 3827,
      "aud": 3828,
      "bal": 3829,
      "book": 3830,
      "cat": 3831,
      "cab": 3832,
      "cult": 3833,
      "fing": 3834,
      "fit": 3835,
      "fight": 3836,
      "fine": 3837,
      "gal": 3838,
      "gir": 3839,
      "haz": 3840,
      "hair": 3841,
      "holes": 3842,
      "jt": 3843,
      "jack": 3844,
      "late": 3845,
      "lust": 3846,
      "match": 3847,
      "nar": 3848,
      "nation": 3849,
      "od": 3850,
      "optical": 3851,
      "owing": 3852,
      "pat": 3853,
      "pou": 3854,
      "pot": 3855,
      "pub": 3856,
      "rul": 3857,
      "rene": 3858,
      "rivers": 3859,
      "sour": 3860,
      "tail": 3861,
      "takes": 3862,
      "upper": 3863,
      "vig": 3864,
      "voc": 3865,
      "wro": 3866,
      "wont": 3867,
      "yanke": 3868,
      "##oly": 3869,
      "##oying": 3870,
      "##ointed": 3871,
      "##to": 3872,
      "##tw": 3873,
      "##rying": 3874,
      "##rick": 3875,
      "##aff": 3876,
      "##eur": 3877,
      "##east": 3878,
      "##uv": 3879,
      "##uce": 3880,
      "##uine": 3881,
      "##uff": 3882,
      "##udd": 3883,
      "##hy": 3884,
      "##hot": 3885,
      "##bbing": 3886,
      "##pe": 3887,
      "##pro": 3888,
      "##past": 3889,
      "##long": 3890,
      "##lied": 3891,
      "##line": 3892,
      "##mount": 3893,
      "##ky": 3894,
      "##west": 3895,
      "##vable": 3896,
      "##four": 3897,
      "thor": 3898,
      "threw": 3899,
      "thunder": 3900,
      "##eral": 3901,
      "##educt": 3902,
      "##enet": 3903,
      "##ators": 3904,
      "##anes": 3905,
      "##inge": 3906,
      "##inging": 3907,
      "##orge": 3908,
      "##ories": 3909,
      "##oris_": 3910,
      "##itated": 3911,
      "##itating": 3912,
      "##ister": 3913,
      "##isite": 3914,
      "##istered": 3915,
      "##rel": 3916,
      "##ases": 3917,
      "##lebr": 3918,
      "bearing": 3919,
      "##oms": 3920,
      "noon": 3921,
      "whence": 3922,
      "##ades": 3923,
      "##ading": 3924,
      "ones": 3925,
      "online": 3926,
      "##celer": 3927,
      "recept": 3928,
      "##rown": 3929,
      "aspect": 3930,
      "asking": 3931,
      "##iring": 3932,
      "##cho": 3933,
      "hevel": 3934,
      "step": 3935,
      "forests": 3936,
      "moder": 3937,
      "withdra": 3938,
      "isnt": 3939,
      "shri": 3940,
      "shap": 3941,
      "shade": 3942,
      "weather": 3943,
      "seizing": 3944,
      "notwith": 3945,
      "##alling": 3946,
      "cones": 3947,
      "conce": 3948,
      "conver": 3949,
      "conical": 3950,
      "conceive": 3951,
      "containing": 3952,
      "expect": 3953,
      "examp": 3954,
      "exec": 3955,
      "##uls": 3956,
      "##ulous": 3957,
      "##ulate": 3958,
      "##ulated": 3959,
      "hist": 3960,
      "##jected": 3961,
      "delic": 3962,
      "solem": 3963,
      "##ama": 3964,
      "discl": 3965,
      "projected": 3966,
      "##unt": 3967,
      "##elion": 3968,
      "##usc": 3969,
      "##uses": 3970,
      "##oose": 3971,
      "##ustion": 3972,
      "##oughly": 3973,
      "spread": 3974,
      "spaces": 3975,
      "spring": 3976,
      "libr": 3977,
      "chain": 3978,
      "quitting": 3979,
      "obedi": 3980,
      "abund": 3981,
      "mexic": 3982,
      "unus": 3983,
      "unable": 3984,
      "proud": 3985,
      "##itten": 3986,
      "comply": 3987,
      "compens": 3988,
      "surve": 3989,
      "play": 3990,
      "played": 3991,
      "leg": 3992,
      "leaving": 3993,
      "blood": 3994,
      "blocks": 3995,
      "observing": 3996,
      "box": 3997,
      "lungs": 3998,
      "##aging": 3999,
      "flour": 4000,
      "distinct": 4001,
      "##earth": 4002,
      "pointing": 4003,
      "adj": 4004,
      "knowing": 4005,
      "class": 4006,
      "closed": 4007,
      "grant": 4008,
      "grounds": 4009,
      "travelling": 4010,
      "partitions": 4011,
      "resulting": 4012,
      "resplend": 4013,
      "cris": 4014,
      "accident": 4015,
      "accordan": 4016,
      "offered": 4017,
      "remains": 4018,
      "region": 4019,
      "##ensible": 4020,
      "##escrib": 4021,
      "##lessly": 4022,
      "##iffer": 4023,
      "whereas": 4024,
      "bridge": 4025,
      "branch": 4026,
      "reading": 4027,
      "##viding": 4028,
      "##vidual": 4029,
      "_m_": 4030,
      "_mapp": 4031,
      "_must_": 4032,
      "mars": 4033,
      "betr": 4034,
      "amid": 4035,
      "refraction": 4036,
      "belong": 4037,
      "##ifications": 4038,
      "letter": 4039,
      "newsp": 4040,
      "company_": 4041,
      "smooth": 4042,
      "impati": 4043,
      "begun": 4044,
      "soul": 4045,
      "startled": 4046,
      "marstons": 4047,
      "centri": 4048,
      "halfpast": 4049,
      "lift": 4050,
      "depos": 4051,
      "absence": 4052,
      "giant": 4053,
      "_sh": 4054,
      "cleared": 4055,
      "wonders": 4056,
      "incomp": 4057,
      "rapidity": 4058,
      "##otton": 4059,
      "genuine": 4060,
      "middle": 4061,
      "indescrib": 4062,
      "advis": 4063,
      "advanced": 4064,
      "considering": 4065,
      "reasonable": 4066,
      "##versed": 4067,
      "excuse": 4068,
      "detected": 4069,
      "colon": 4070,
      "serv": 4071,
      "subjected": 4072,
      "##ancing": 4073,
      "written": 4074,
      "setting": 4075,
      "confined": 4076,
      "acceler": 4077,
      "fourth": 4078,
      "cheers": 4079,
      "relatively": 4080,
      "relieved": 4081,
      "consequences": 4082,
      "radius": 4083,
      "thirteen": 4084,
      "expressive": 4085,
      "cooled": 4086,
      "##heit": 4087,
      "inspect": 4088,
      "layers": 4089,
      "fireworks": 4090,
      "##they": 4091,
      "contrast": 4092,
      "previous": 4093,
      "grandeur": 4094,
      "signs": 4095,
      "reality": 4096,
      "sym": 4097,
      "concentric": 4098,
      "squared": 4099,
      "strongly": 4100,
      "##board": 4101,
      "heights": 4102,
      "prepar": 4103,
      "draw": 4104,
      "construction": 4105,
      "orders": 4106,
      "sufficiently": 4107,
      "announcing": 4108,
      "deeply": 4109,
      "volcanoes": 4110,
      "laughing": 4111,
      "monot": 4112,
      "sensible": 4113,
      "##ground": 4114,
      "exposed": 4115,
      "distribute": 4116,
      "attractive": 4117,
      "_do": 4118,
      "_d_": 4119,
      "penins": 4120,
      "haul": 4121,
      "larger": 4122,
      "closely": 4123,
      "breathe": 4124,
      "wildest": 4125,
      "imagination": 4126,
      "##iii": 4127,
      "eclipses": 4128,
      "enthusiastic": 4129,
      "fault": 4130,
      "examine": 4131,
      "missing": 4132,
      "provisions": 4133,
      "conclusion": 4134,
      "conclude": 4135,
      "deviation": 4136,
      "twentyfour": 4137,
      "americans": 4138,
      "drily": 4139,
      "##atio": 4140,
      "irr": 4141,
      "irre": 4142,
      "ridges": 4143,
      "deny": 4144,
      "throwing": 4145,
      "revolution": 4146,
      "combustion": 4147,
      "absorbing": 4148,
      "employ": 4149,
      "steamer": 4150,
      "determine": 4151,
      "possession": 4152,
      "intelligent": 4153,
      "breast": 4154,
      "breaking": 4155,
      "caused": 4156,
      "firmly": 4157,
      "particip": 4158,
      "secrets": 4159,
      "counteracting": 4160,
      "rigidly": 4161,
      "succeed": 4162,
      "noticing": 4163,
      "developed": 4164,
      "development": 4165,
      "meteoric": 4166,
      "figure": 4167,
      "##ancholy": 4168,
      "triumphantly": 4169,
      "furnace": 4170,
      "touching": 4171,
      "logical": 4172,
      "misty": 4173,
      "##ahs": 4174,
      "depression": 4175,
      "discharge": 4176,
      "parabolic": 4177,
      "confidence": 4178,
      "mathematical": 4179,
      "total": 4180,
      "totally": 4181,
      "children": 4182,
      "improve": 4183,
      "recognize": 4184,
      "landscape": 4185,
      "landscapes": 4186,
      "ecst": 4187,
      "fatal": 4188,
      "fields": 4189,
      "melancholy": 4190,
      "obliqu": 4191,
      "354": 4192,
      "_apenn": 4193,
      "harbor": 4194,
      "rubbing": 4195,
      "welcome": 4196,
      "repeated": 4197,
      "golden": 4198,
      "incessant": 4199,
      "duty": 4200,
      "geolog": 4201,
      "injury": 4202,
      "unanimously": 4203,
      "phrase": 4204,
      "specific": 4205,
      "individual": 4206,
      "contradict": 4207,
      "constructed": 4208,
      "devoted": 4209,
      "encountered": 4210,
      "nineteen": 4211,
      "esq": 4212,
      "eagerly": 4213,
      "gleam": 4214,
      "gesticul": 4215,
      "material": 4216,
      "ranges": 4217,
      "ingenious": 4218,
      "sevent": 4219,
      "conjecture": 4220,
      "abode": 4221,
      "submarine": 4222,
      "steadily": 4223,
      "ellipse": 4224,
      "spyglasses": 4225,
      "liquid": 4226,
      "changing": 4227,
      "cliffs": 4228,
      "disconcerted": 4229,
      "understood": 4230,
      "endeavor": 4231,
      "carbonic": 4232,
      "schmid": 4233,
      "galile": 4234,
      "narrow": 4235,
      "vigor": 4236,
      "wrote": 4237,
      "##two": 4238,
      "thoroughly": 4239,
      "notwithstanding": 4240,
      "example": 4241,
      "solemn": 4242,
      "obedience": 4243,
      "mexico": 4244,
      "accordance": 4245,
      "newspap": 4246,
      "_apennines_": 4247,
      "28": 4248,
      "23": 4249,
      "_j": 4250,
      "_le": 4251,
      "_cl": 4252,
      "_not": 4253,
      "ath": 4254,
      "avo": 4255,
      "bor": 4256,
      "bad": 4257,
      "bill": 4258,
      "bows": 4259,
      "bits": 4260,
      "banks": 4261,
      "cy": 4262,
      "cri": 4263,
      "cand": 4264,
      "cav": 4265,
      "cup": 4266,
      "crew": 4267,
      "cities": 4268,
      "dashed": 4269,
      "elli": 4270,
      "eccentric": 4271,
      "fal": 4272,
      "fant": 4273,
      "fond": 4274,
      "fund": 4275,
      "fog": 4276,
      "fix": 4277,
      "fold": 4278,
      "gh": 4279,
      "gain": 4280,
      "gree": 4281,
      "gained": 4282,
      "gorge": 4283,
      "hall": 4284,
      "hers": 4285,
      "ham": 4286,
      "holl": 4287,
      "hors": 4288,
      "ive": 4289,
      "jar": 4290,
      "jupiter": 4291,
      "led": 4292,
      "lens": 4293,
      "mir": 4294,
      "mess": 4295,
      "mil": 4296,
      "mine": 4297,
      "mix": 4298,
      "mult": 4299,
      "nic": 4300,
      "nasm": 4301,
      "om": 4302,
      "osc": 4303,
      "piles": 4304,
      "paying": 4305,
      "piled": 4306,
      "pyr": 4307,
      "rim": 4308,
      "rings": 4309,
      "ridge": 4310,
      "ratio": 4311,
      "sit": 4312,
      "sier": 4313,
      "tong": 4314,
      "vision": 4315,
      "wre": 4316,
      "wom": 4317,
      "wal": 4318,
      "wip": 4319,
      "##iable": 4320,
      "##iance": 4321,
      "##iac": 4322,
      "##oth": 4323,
      "##ture": 4324,
      "##spect": 4325,
      "##rors": 4326,
      "##aily": 4327,
      "##acles": 4328,
      "##austed": 4329,
      "##eper": 4330,
      "##eks": 4331,
      "##uge": 4332,
      "##uable": 4333,
      "##udy": 4334,
      "##cle": 4335,
      "##cury": 4336,
      "##cotton": 4337,
      "##hip": 4338,
      "##bers": 4339,
      "##pie": 4340,
      "##path": 4341,
      "##lor": 4342,
      "##lance": 4343,
      "##lantic": 4344,
      "##gent": 4345,
      "##ggs": 4346,
      "##med": 4347,
      "##met": 4348,
      "##mans": 4349,
      "##work": 4350,
      "##vitable": 4351,
      "##form": 4352,
      "##fel_": 4353,
      "##zy": 4354,
      "##z_": 4355,
      "##erated": 4356,
      "##erves": 4357,
      "##erfel_": 4358,
      "##inity": 4359,
      "##inating": 4360,
      "##eding": 4361,
      "##ena": 4362,
      "##onom": 4363,
      "##atically": 4364,
      "##ou_": 4365,
      "##ara": 4366,
      "##arbican": 4367,
      "##arily": 4368,
      "##anus_": 4369,
      "##orary": 4370,
      "##orily": 4371,
      "##lly": 4372,
      "##lled": 4373,
      "##lling": 4374,
      "town": 4375,
      "##ital": 4376,
      "##reci": 4377,
      "##legr": 4378,
      "nobody": 4379,
      "whist": 4380,
      "##still": 4381,
      "##stellar": 4382,
      "##entrated": 4383,
      "onward": 4384,
      "##cely": 4385,
      "reversed": 4386,
      "##id_": 4387,
      "##alay": 4388,
      "##rol": 4389,
      "##roy": 4390,
      "##rodu": 4391,
      "##rogen": 4392,
      "##aining": 4393,
      "atlantic": 4394,
      "##rier": 4395,
      "hey": 4396,
      "##eted": 4397,
      "sty": 4398,
      "stun": 4399,
      "stud": 4400,
      "stared": 4401,
      "study": 4402,
      "foresh": 4403,
      "##ections": 4404,
      "mol": 4405,
      "moves": 4406,
      "progress": 4407,
      "##terday": 4408,
      "iss": 4409,
      "shake": 4410,
      "shru": 4411,
      "shaking": 4412,
      "weird": 4413,
      "seat": 4414,
      "season": 4415,
      "conve": 4416,
      "congr": 4417,
      "conceived": 4418,
      "frag": 4419,
      "front": 4420,
      "deal": 4421,
      "deli": 4422,
      "deeper": 4423,
      "neg": 4424,
      "##astically": 4425,
      "##illet": 4426,
      "##os_": 4427,
      "disg": 4428,
      "disorder": 4429,
      "##umps": 4430,
      "##eli": 4431,
      "##rable": 4432,
      "ener": 4433,
      "spill": 4434,
      "##ols": 4435,
      "##arted": 4436,
      "feas": 4437,
      "chamber": 4438,
      "thanks": 4439,
      "quitted": 4440,
      "obtain": 4441,
      "obtained": 4442,
      "saved": 4443,
      "abrupt": 4444,
      "abys": 4445,
      "##pled": 4446,
      "##ote": 4447,
      "##otive": 4448,
      "##otted": 4449,
      "una": 4450,
      "unre": 4451,
      "herald_": 4452,
      "##ively": 4453,
      "gla": 4454,
      "glad": 4455,
      "glist": 4456,
      "##inder": 4457,
      "plough": 4458,
      "plates": 4459,
      "placed": 4460,
      "divided": 4461,
      "anyone": 4462,
      "himalay": 4463,
      "##istribut": 4464,
      "leaves": 4465,
      "##cip": 4466,
      "##cies": 4467,
      "##ciol": 4468,
      "##cience": 4469,
      "##avius_": 4470,
      "permit": 4471,
      "blow": 4472,
      "applic": 4473,
      "appreh": 4474,
      "appreci": 4475,
      "everywhere": 4476,
      "boats": 4477,
      "##phe": 4478,
      "flu": 4479,
      "interstellar": 4480,
      "yourselves": 4481,
      "clos": 4482,
      "gray": 4483,
      "##prit": 4484,
      "shoulders": 4485,
      "crushed": 4486,
      "accents": 4487,
      "office": 4488,
      "slumber": 4489,
      "consol": 4490,
      "afra": 4491,
      "brink": 4492,
      "brakes": 4493,
      "formations": 4494,
      "marked": 4495,
      "presenting": 4496,
      "amount": 4497,
      "##angled": 4498,
      "easier": 4499,
      "minus": 4500,
      "beloved": 4501,
      "##ailable": 4502,
      "lets": 4503,
      "letting": 4504,
      "##ribed": 4505,
      "company": 4506,
      "companion": 4507,
      "impenet": 4508,
      "atmospher": 4509,
      "##readth": 4510,
      "##icking": 4511,
      "extend": 4512,
      "extended": 4513,
      "extending": 4514,
      "extinct": 4515,
      "scen": 4516,
      "scream": 4517,
      "foundations": 4518,
      "directing": 4519,
      "supposed": 4520,
      "infer": 4521,
      "infall": 4522,
      "special": 4523,
      "##what": 4524,
      "deprived": 4525,
      "older": 4526,
      "astounding": 4527,
      "embra": 4528,
      "desert": 4529,
      "recoll": 4530,
      "secondly": 4531,
      "furrows": 4532,
      "passing": 4533,
      "passage": 4534,
      "exclam": 4535,
      "exclaim": 4536,
      "clearer": 4537,
      "active": 4538,
      "actual": 4539,
      "carrying": 4540,
      "northeast": 4541,
      "##otten": 4542,
      "genial": 4543,
      "_con": 4544,
      "roar": 4545,
      "roast": 4546,
      "indul": 4547,
      "indicated": 4548,
      "indiffer": 4549,
      "excess": 4550,
      "corp": 4551,
      "##ene_": 4552,
      "background": 4553,
      "viv": 4554,
      "##apsed": 4555,
      "description": 4556,
      "yesterday": 4557,
      "evidence": 4558,
      "rested": 4559,
      "serene": 4560,
      "seriously": 4561,
      "steel": 4562,
      "scientist": 4563,
      "##issipp": 4564,
      "astronomy": 4565,
      "doubts": 4566,
      "bottles": 4567,
      "existed": 4568,
      "existing": 4569,
      "write": 4570,
      "explains": 4571,
      "explained": 4572,
      "guncotton": 4573,
      "hole": 4574,
      "cheering": 4575,
      "equally": 4576,
      "sounded": 4577,
      "thoughts": 4578,
      "radiant": 4579,
      "voices": 4580,
      "southwest": 4581,
      "coolly": 4582,
      "splitting": 4583,
      "address": 4584,
      "viewed": 4585,
      "wanted": 4586,
      "assist": 4587,
      "broke": 4588,
      "laying": 4589,
      "heartily": 4590,
      "producing": 4591,
      "satisfied": 4592,
      "grandest": 4593,
      "build": 4594,
      "returning": 4595,
      "landed": 4596,
      "concern": 4597,
      "concentrated": 4598,
      "redistribut": 4599,
      "telegr": 4600,
      "feelings": 4601,
      "##resh": 4602,
      "plainly": 4603,
      "magnifying": 4604,
      "dragged": 4605,
      "draught": 4606,
      "latest": 4607,
      "animated": 4608,
      "regularity": 4609,
      "annular": 4610,
      "correctly": 4611,
      "occasional": 4612,
      "expense": 4613,
      "attracting": 4614,
      "##cox": 4615,
      "satisfactorily": 4616,
      "lowest": 4617,
      "transc": 4618,
      "guard": 4619,
      "ruins": 4620,
      "entertain": 4621,
      "results": 4622,
      "_her": 4623,
      "risk": 4624,
      "limited": 4625,
      "limbs": 4626,
      "agreed": 4627,
      "eclipsed": 4628,
      "enthusiastically": 4629,
      "_vive": 4630,
      "faith": 4631,
      "rendered": 4632,
      "sentiment": 4633,
      "receipt": 4634,
      "conditions": 4635,
      "glimpses": 4636,
      "dangerous": 4637,
      "1e1": 4638,
      "mississipp": 4639,
      "provision": 4640,
      "uncertain": 4641,
      "characteristic": 4642,
      "hesitation": 4643,
      "angry": 4644,
      "meteors": 4645,
      "_barbican": 4646,
      "destination": 4647,
      "destroy": 4648,
      "thickness": 4649,
      "problems": 4650,
      "collision": 4651,
      "collection": 4652,
      "drink": 4653,
      "happened": 4654,
      "##ton_": 4655,
      "combined": 4656,
      "spoken": 4657,
      "solidly": 4658,
      "breathing": 4659,
      "##rehensible": 4660,
      "protect": 4661,
      "vertically": 4662,
      "frightened": 4663,
      "puzzled": 4664,
      "13th": 4665,
      "cavern": 4666,
      "creatures": 4667,
      "modify": 4668,
      "artic": 4669,
      "compliance": 4670,
      "outlines": 4671,
      "ceiling": 4672,
      "celebr": 4673,
      "simpl": 4674,
      "_tychos_": 4675,
      "failure": 4676,
      "polar": 4677,
      "streets": 4678,
      "softly": 4679,
      "measurements": 4680,
      "contemplated": 4681,
      "telegraphic": 4682,
      "touch": 4683,
      "##renheit": 4684,
      "whirl": 4685,
      "demon": 4686,
      "demand": 4687,
      "obstruct": 4688,
      "obstacle": 4689,
      "resembled": 4690,
      "performed": 4691,
      "250": 4692,
      "growled": 4693,
      "lucid": 4694,
      "represented": 4695,
      "forgotten": 4696,
      "separating": 4697,
      "display": 4698,
      "displaying": 4699,
      "discharged": 4700,
      "investigations": 4701,
      "parabola": 4702,
      "retarding": 4703,
      "mathematics": 4704,
      "_newton_": 4705,
      "ladder": 4706,
      "miserable": 4707,
      "tones": 4708,
      "whispered": 4709,
      "streams": 4710,
      "sparkling": 4711,
      "1f3": 4712,
      "damage": 4713,
      "econom": 4714,
      "raised": 4715,
      "anxiously": 4716,
      "delay": 4717,
      "delighted": 4718,
      "freeze": 4719,
      "freezing": 4720,
      "cracking": 4721,
      "experience": 4722,
      "establish": 4723,
      "established": 4724,
      "wandering": 4725,
      "shifting": 4726,
      "manufactured": 4727,
      "attached": 4728,
      "bones": 4729,
      "saturn": 4730,
      "channel": 4731,
      "divisions": 4732,
      "smothering": 4733,
      "screws": 4734,
      "eminently": 4735,
      "majest": 4736,
      "tranquillity": 4737,
      "accompanied": 4738,
      "_you_": 4739,
      "bravo": 4740,
      "inevitable": 4741,
      "befall": 4742,
      "suggested": 4743,
      "springs": 4744,
      "replacement": 4745,
      "inconcei": 4746,
      "serenitatis_": 4747,
      "promptly": 4748,
      "fahrenheit": 4749,
      "selenographica_": 4750,
      "dreadful": 4751,
      "patience": 4752,
      "wilcox": 4753,
      "proceeding": 4754,
      "popular": 4755,
      "switched": 4756,
      "volunteers": 4757,
      "settled": 4758,
      "locomotive": 4759,
      "school": 4760,
      "crystal": 4761,
      "nectaris_": 4762,
      "odor": 4763,
      "published": 4764,
      "renewed": 4765,
      "yankee": 4766,
      "hevelius": 4767,
      "shapeless": 4768,
      "disclaim": 4769,
      "unusual": 4770,
      "_mappa": 4771,
      "deposited": 4772,
      "indescribable": 4773,
      "colonel": 4774,
      "inspection": 4775,
      "_doerfel_": 4776,
      "geological": 4777,
      "seventeen": 4778,
      "schmidt": 4779,
      "galileo": 4780,
      "athens": 4781,
      "bowsprit": 4782,
      "false": 4783,
      "fantastic": 4784,
      "hersch": 4785,
      "horses": 4786,
      "nasmy": 4787,
      "oscill": 4788,
      "tongue": 4789,
      "wrecks": 4790,
      "##iacal": 4791,
      "congrat": 4792,
      "himalayahs": 4793,
      "impenetrable": 4794,
      "atmospheric": 4795,
      "embracing": 4796,
      "indifference": 4797,
      "concerned": 4798,
      "mississippi": 4799,
      "19": 4800,
      "1st": 4801,
      "100": 4802,
      "22": 4803,
      "48": 4804,
      "42": 4805,
      "46": 4806,
      "5th": 4807,
      "500": 4808,
      "70": 4809,
      "80": 4810,
      "8000": 4811,
      "90": 4812,
      "_a": 4813,
      "_pl": 4814,
      "_qu": 4815,
      "_is_": 4816,
      "ay": 4817,
      "aver": 4818,
      "age": 4819,
      "aqu": 4820,
      "bou": 4821,
      "bree": 4822,
      "banqu": 4823,
      "cou": 4824,
      "cel": 4825,
      "cable": 4826,
      "cock": 4827,
      "cisco": 4828,
      "cocks": 4829,
      "crown": 4830,
      "dying": 4831,
      "drew": 4832,
      "dotted": 4833,
      "eu": 4834,
      "eur": 4835,
      "epo": 4836,
      "ejected": 4837,
      "fou": 4838,
      "fan": 4839,
      "fath": 4840,
      "fac": 4841,
      "father": 4842,
      "fiss": 4843,
      "fishing": 4844,
      "fasc": 4845,
      "gall": 4846,
      "gate": 4847,
      "gase": 4848,
      "gib": 4849,
      "hat": 4850,
      "hit": 4851,
      "hom": 4852,
      "hous": 4853,
      "hab": 4854,
      "hull": 4855,
      "hens": 4856,
      "host": 4857,
      "hank": 4858,
      "hiding": 4859,
      "kinds": 4860,
      "lect": 4861,
      "loom": 4862,
      "lapse": 4863,
      "mt": 4864,
      "mic": 4865,
      "mart": 4866,
      "members": 4867,
      "nit": 4868,
      "net": 4869,
      "nay": 4870,
      "nail": 4871,
      "pit": 4872,
      "pun": 4873,
      "pity": 4874,
      "pard": 4875,
      "pack": 4876,
      "pip": 4877,
      "pomp": 4878,
      "ran": 4879,
      "ric": 4880,
      "rom": 4881,
      "ray": 4882,
      "roo": 4883,
      "rout": 4884,
      "rare": 4885,
      "ratt": 4886,
      "sen": 4887,
      "sal": 4888,
      "sne": 4889,
      "sang": 4890,
      "tight": 4891,
      "tast": 4892,
      "treat": 4893,
      "tend": 4894,
      "tub": 4895,
      "trees": 4896,
      "tired": 4897,
      "trop": 4898,
      "tables": 4899,
      "task": 4900,
      "ven": 4901,
      "vir": 4902,
      "vest": 4903,
      "vary": 4904,
      "waving": 4905,
      "waves": 4906,
      "##den": 4907,
      "##ding": 4908,
      "##dom": 4909,
      "##ih": 4910,
      "##ially": 4911,
      "##ia_": 4912,
      "##ipped": 4913,
      "##ikins": 4914,
      "##opt": 4915,
      "##oves": 4916,
      "##tly": 4917,
      "##sing": 4918,
      "##rence": 4919,
      "##rade": 4920,
      "##ressed": 4921,
      "##aw": 4922,
      "##aus": 4923,
      "##aved": 4924,
      "##acious": 4925,
      "##ns": 4926,
      "##ned": 4927,
      "##nell": 4928,
      "##noon": 4929,
      "##ech": 4930,
      "##eight": 4931,
      "##eys": 4932,
      "##uit": 4933,
      "##uly": 4934,
      "##uous": 4935,
      "##uber": 4936,
      "##con": 4937,
      "##comed": 4938,
      "##hn": 4939,
      "##hile": 4940,
      "##hole": 4941,
      "##bly": 4942,
      "##book": 4943,
      "##pers": 4944,
      "##pond": 4945,
      "##low": 4946,
      "##lime": 4947,
      "##goris_": 4948,
      "##more": 4949,
      "##mates": 4950,
      "##was": 4951,
      "##fur": 4952,
      "##finite": 4953,
      "##12": 4954,
      "##16": 4955,
      "##60": 4956,
      "thom": 4957,
      "threat": 4958,
      "thread": 4959,
      "##erat": 4960,
      "##erve": 4961,
      "##erning": 4962,
      "##inc": 4963,
      "##inston": 4964,
      "##eness": 4965,
      "##enths": 4966,
      "##an_": 4967,
      "##ingled": 4968,
      "##orama": 4969,
      "inver": 4970,
      "inqu": 4971,
      "inmates": 4972,
      "toler": 4973,
      "tools": 4974,
      "##itate": 4975,
      "##itute": 4976,
      "##isc": 4977,
      "##isk": 4978,
      "beat": 4979,
      "beating": 4980,
      "beef": 4981,
      "##omach": 4982,
      "##though": 4983,
      "##theless": 4984,
      "nove": 4985,
      "noble": 4986,
      "nodd": 4987,
      "novel": 4988,
      "noses": 4989,
      "##ential": 4990,
      "##uted": 4991,
      "##utation": 4992,
      "reck": 4993,
      "retained": 4994,
      "##idable": 4995,
      "##idence": 4996,
      "##se_": 4997,
      "##seven": 4998,
      "##semb": 4999,
      "##al_": 5000,
      "##alth": 5001,
      "##alent": 5002,
      "##aloo": 5003,
      "##alcul": 5004,
      "##roach": 5005,
      "ashy": 5006,
      "##ires": 5007,
      "##rily": 5008,
      "heap": 5009,
      "health": 5010,
      "##etic": 5011,
      "stir": 5012,
      "store": 5013,
      "stone": 5014,
      "stage": 5015,
      "stern": 5016,
      "status": 5017,
      "stomach": 5018,
      "forci": 5019,
      "forward": 5020,
      "##imb": 5021,
      "##immer": 5022,
      "waste": 5023,
      "prove": 5024,
      "proving": 5025,
      "process": 5026,
      "proxim": 5027,
      "providing": 5028,
      "prospect": 5029,
      "isol": 5030,
      "shore": 5031,
      "shak": 5032,
      "share": 5033,
      "shine": 5034,
      "shiver": 5035,
      "shorter": 5036,
      "shattered": 5037,
      "arrow": 5038,
      "armor": 5039,
      "wear": 5040,
      "webs": 5041,
      "week": 5042,
      "weeks": 5043,
      "##ere_": 5044,
      "select": 5045,
      "##allic": 5046,
      "exer": 5047,
      "exqu": 5048,
      "##estial": 5049,
      "##ilt": 5050,
      "##il_": 5051,
      "##ilated": 5052,
      "barely": 5053,
      "barbar": 5054,
      "butt": 5055,
      "fris": 5056,
      "deb": 5057,
      "neat": 5058,
      "##akened": 5059,
      "##illa": 5060,
      "##ille": 5061,
      "##osp": 5062,
      "##ant_": 5063,
      "##anting": 5064,
      "comical": 5065,
      "dism": 5066,
      "##umes": 5067,
      "projections": 5068,
      "##unction": 5069,
      "##racks": 5070,
      "##oods": 5071,
      "ench": 5072,
      "envel": 5073,
      "entered": 5074,
      "##pping": 5075,
      "##olas": 5076,
      "##olite": 5077,
      "##olved": 5078,
      "liable": 5079,
      "liked": 5080,
      "liability": 5081,
      "fees": 5082,
      "cham": 5083,
      "chill": 5084,
      "chance": 5085,
      "chick": 5086,
      "chlor": 5087,
      "##ander": 5088,
      "thank": 5089,
      "quit": 5090,
      "quality": 5091,
      "obl": 5092,
      "obsc": 5093,
      "##ples": 5094,
      "##plied": 5095,
      "unb": 5096,
      "unp": 5097,
      "nowhere": 5098,
      "##abaloo": 5099,
      "pray": 5100,
      "doom": 5101,
      "dozen": 5102,
      "##action": 5103,
      "comple": 5104,
      "comput": 5105,
      "compare": 5106,
      "surpass": 5107,
      "plat": 5108,
      "dig": 5109,
      "died": 5110,
      "diving": 5111,
      "anywhere": 5112,
      "anybody": 5113,
      "legs": 5114,
      "uphe": 5115,
      "perceive": 5116,
      "perceived": 5117,
      "blame": 5118,
      "frigoris_": 5119,
      "appl": 5120,
      "appointed": 5121,
      "##ishment": 5122,
      "contents": 5123,
      "contribut": 5124,
      "everybody": 5125,
      "boat": 5126,
      "##phinston": 5127,
      "##ago": 5128,
      "precip": 5129,
      "##onday": 5130,
      "##ieu": 5131,
      "##ieth": 5132,
      "##ieve": 5133,
      "##perate": 5134,
      "agony": 5135,
      "fling": 5136,
      "flow": 5137,
      "flame": 5138,
      "flapping": 5139,
      "manage": 5140,
      "managed": 5141,
      "manhole": 5142,
      "interse": 5143,
      "adopt": 5144,
      "adieu": 5145,
      "attend": 5146,
      "clap": 5147,
      "clay": 5148,
      "clust": 5149,
      "cloud": 5150,
      "fired": 5151,
      "sunk": 5152,
      "ground": 5153,
      "##prison": 5154,
      "##ffin": 5155,
      "overwh": 5156,
      "overcome": 5157,
      "overboard": 5158,
      "preserve": 5159,
      "reserved": 5160,
      "cred": 5161,
      "crash": 5162,
      "accord": 5163,
      "intoxic": 5164,
      "##wned": 5165,
      "nevertheless": 5166,
      "remed": 5167,
      "removed": 5168,
      "reminds": 5169,
      "remembers": 5170,
      "terra": 5171,
      "loose": 5172,
      "looks": 5173,
      "##ledged": 5174,
      "##enses": 5175,
      "##ension": 5176,
      "nearing": 5177,
      "instruct": 5178,
      "certainty": 5179,
      "##escence": 5180,
      "secure": 5181,
      "caloric": 5182,
      "brisk": 5183,
      "readers": 5184,
      "format": 5185,
      "afternoon": 5186,
      "coal": 5187,
      "coffin": 5188,
      "strang": 5189,
      "diffused": 5190,
      "amused": 5191,
      "mineral": 5192,
      "refused": 5193,
      "refuse": 5194,
      "refuge": 5195,
      "refresh": 5196,
      "justify": 5197,
      "phleg": 5198,
      "smart": 5199,
      "smiling": 5200,
      "goes": 5201,
      "answers": 5202,
      "##icks": 5203,
      "immob": 5204,
      "subs": 5205,
      "sublime": 5206,
      "calculating": 5207,
      "scar": 5208,
      "scor": 5209,
      "awhile": 5210,
      "awakened": 5211,
      "centres": 5212,
      "laun": 5213,
      "supper": 5214,
      "supplied": 5215,
      "speech": 5216,
      "endured": 5217,
      "lifting": 5218,
      "##why": 5219,
      "##pressible": 5220,
      "emer": 5221,
      "owner": 5222,
      "inval": 5223,
      "invented": 5224,
      "involving": 5225,
      "curtly": 5226,
      "desol": 5227,
      "recon": 5228,
      "recording": 5229,
      "##leton": 5230,
      "giants": 5231,
      "command": 5232,
      "commence": 5233,
      "matters": 5234,
      "passes": 5235,
      "clearing": 5236,
      "acting": 5237,
      "incor": 5238,
      "incred": 5239,
      "##igned": 5240,
      "ideas": 5241,
      "_could_": 5242,
      "indust": 5243,
      "indians": 5244,
      "induce": 5245,
      "corres": 5246,
      "corusc": 5247,
      "restored": 5248,
      "serving": 5249,
      "float": 5250,
      "instantane": 5251,
      "kindly": 5252,
      "circles": 5253,
      "copied": 5254,
      "copying": 5255,
      "##ancy": 5256,
      "wrapped": 5257,
      "wrinkled": 5258,
      "explor": 5259,
      "##ites_": 5260,
      "confounded": 5261,
      "dispute": 5262,
      "academ": 5263,
      "hoax": 5264,
      "skin": 5265,
      "counted": 5266,
      "favored": 5267,
      "favorite": 5268,
      "##anned": 5269,
      "relished": 5270,
      "radii": 5271,
      "radiated": 5272,
      "expressed": 5273,
      "insist": 5274,
      "insisted": 5275,
      "metallic": 5276,
      "wants": 5277,
      "assuming": 5278,
      "portions": 5279,
      "talked": 5280,
      "##ontal": 5281,
      "##ontest": 5282,
      "terrific": 5283,
      "##note": 5284,
      "sixteen": 5285,
      "trill": 5286,
      "succession": 5287,
      "successive": 5288,
      "belfasts": 5289,
      "inhabitability": 5290,
      "buff": 5291,
      "built": 5292,
      "dimmer": 5293,
      "realized": 5294,
      "elphinston": 5295,
      "landing": 5296,
      "indefinite": 5297,
      "propose": 5298,
      "proposed": 5299,
      "craw": 5300,
      "final": 5301,
      "finest": 5302,
      "redoubled": 5303,
      "ringing": 5304,
      "understanding": 5305,
      "opening": 5306,
      "circle": 5307,
      "hemispher": 5308,
      "beside": 5309,
      "##except": 5310,
      "##boat": 5311,
      "plane": 5312,
      "periods": 5313,
      "##ography": 5314,
      "##ographical": 5315,
      "balls": 5316,
      "catching": 5317,
      "mah": 5318,
      "counting": 5319,
      "horse": 5320,
      "expenses": 5321,
      "admired": 5322,
      "admitting": 5323,
      "strangely": 5324,
      "buried": 5325,
      "penet": 5326,
      "arrive": 5327,
      "occupy": 5328,
      "occupants": 5329,
      "helped": 5330,
      "afford": 5331,
      "affected": 5332,
      "dangers": 5333,
      "lowered": 5334,
      "##ps_": 5335,
      "##gging": 5336,
      "respects": 5337,
      "respectable": 5338,
      "exciting": 5339,
      "_has": 5340,
      "john": 5341,
      "risen": 5342,
      "rises": 5343,
      "difficulties": 5344,
      "influences": 5345,
      "cutting": 5346,
      "limit": 5347,
      "standstill": 5348,
      "flashes": 5349,
      "flashing": 5350,
      "revealing": 5351,
      "150": 5352,
      "facul": 5353,
      "rendering": 5354,
      "condens": 5355,
      "examination": 5356,
      "1e8": 5357,
      "drop": 5358,
      "drowned": 5359,
      "missed": 5360,
      "mission": 5361,
      "impossibility": 5362,
      "driving": 5363,
      "greeted": 5364,
      "throbbing": 5365,
      "believing": 5366,
      "profoundest": 5367,
      "destruction": 5368,
      "pairs": 5369,
      "discussed": 5370,
      "importance": 5371,
      "systems": 5372,
      "circumstance": 5373,
      "heavens": 5374,
      "drun": 5375,
      "dressed": 5376,
      "eighteen": 5377,
      "revolving": 5378,
      "arranged": 5379,
      "solidity": 5380,
      "casting": 5381,
      "joyful": 5382,
      "ventured": 5383,
      "##glass": 5384,
      "possessing": 5385,
      "occurred": 5386,
      "occurrence": 5387,
      "holder": 5388,
      "breach": 5389,
      "creating": 5390,
      "creator": 5391,
      "editions": 5392,
      "faintest": 5393,
      "murm": 5394,
      "merely": 5395,
      "modified": 5396,
      "firmament": 5397,
      "##president": 5398,
      "recovered": 5399,
      "recovering": 5400,
      "diminish": 5401,
      "footnote": 5402,
      "##these": 5403,
      "formerly": 5404,
      "elsewhere": 5405,
      "vegetable": 5406,
      "polished": 5407,
      "decision": 5408,
      "officer": 5409,
      "official": 5410,
      "undertaking": 5411,
      "utterly": 5412,
      "proportions": 5413,
      "contemplate": 5414,
      "acknowledged": 5415,
      "furnished": 5416,
      "machine": 5417,
      "ships": 5418,
      "entr": 5419,
      "methods": 5420,
      "cloudy": 5421,
      "resembling": 5422,
      "performing": 5423,
      "horizontal": 5424,
      "dreamed": 5425,
      "fanciful": 5426,
      "groans": 5427,
      "luck": 5428,
      "inches": 5429,
      "depressed": 5430,
      "##amental": 5431,
      "cheerful": 5432,
      "admiration": 5433,
      "philosophy": 5434,
      "philosophers": 5435,
      "_nil_": 5436,
      "panorama": 5437,
      "tonight": 5438,
      "valid": 5439,
      "whispers": 5440,
      "impression": 5441,
      "disturb": 5442,
      "speculation": 5443,
      "speculations": 5444,
      "recognized": 5445,
      "humorum_": 5446,
      "precaution": 5447,
      "maedlers": 5448,
      "derrick": 5449,
      "damages": 5450,
      "error": 5451,
      "hunger": 5452,
      "hungry": 5453,
      "memory": 5454,
      "anxiety": 5455,
      "##added": 5456,
      "oblique": 5457,
      "infinitely": 5458,
      "explaining": 5459,
      "experienced": 5460,
      "guesses": 5461,
      "authorities": 5462,
      "_apo": 5463,
      "beds": 5464,
      "elev": 5465,
      "flew": 5466,
      "fairly": 5467,
      "type": 5468,
      "welcomed": 5469,
      "exhausted": 5470,
      "##ambert": 5471,
      "manufacture": 5472,
      "gravely": 5473,
      "physical": 5474,
      "physics": 5475,
      "incessantly": 5476,
      "singularly": 5477,
      "struggling": 5478,
      "requirements": 5479,
      "personal": 5480,
      "astonishment": 5481,
      "rainb": 5482,
      "rushing": 5483,
      "tearing": 5484,
      "bewildered": 5485,
      "shouted": 5486,
      "organization": 5487,
      "enveloping": 5488,
      "mechanical": 5489,
      "mechanically": 5490,
      "unequ": 5491,
      "resistance": 5492,
      "smothered": 5493,
      "silvery": 5494,
      "inhabited_": 5495,
      "major": 5496,
      "intellectual": 5497,
      "tranquillitatis_": 5498,
      "ignorant": 5499,
      "aided": 5500,
      "dinner": 5501,
      "evapor": 5502,
      "eruptions": 5503,
      "grimly": 5504,
      "hencefor": 5505,
      "urged": 5506,
      "yielded": 5507,
      "yielding": 5508,
      "antic": 5509,
      "suspended": 5510,
      "notebook": 5511,
      "asteroids": 5512,
      "estimation": 5513,
      "creation": 5514,
      "drear": 5515,
      "rotation": 5516,
      "treasure": 5517,
      "analogous": 5518,
      "society": 5519,
      "##venient": 5520,
      "university": 5521,
      "dogm": 5522,
      "comprised": 5523,
      "confirmed": 5524,
      "gentleman": 5525,
      "prominence": 5526,
      "principally": 5527,
      "identical": 5528,
      "_unity_": 5529,
      "cultiv": 5530,
      "fingers": 5531,
      "pouillet": 5532,
      "potash": 5533,
      "ruler": 5534,
      "reception": 5535,
      "withdrawn": 5536,
      "shrie": 5537,
      "conceal": 5538,
      "history": 5539,
      "delicious": 5540,
      "library": 5541,
      "compensation": 5542,
      "survey": 5543,
      "flourishing": 5544,
      "adjust": 5545,
      "belonging": 5546,
      "letters": 5547,
      "incomprehensible": 5548,
      "sympath": 5549,
      "peninsula": 5550,
      "irrepressible": 5551,
      "participated": 5552,
      "ecstasy": 5553,
      "nineteenth": 5554,
      "newspaper": 5555,
      "_clavius_": 5556,
      "_not_": 5557,
      "fundamental": 5558,
      "gorgeous": 5559,
      "multi": 5560,
      "woman": 5561,
      "whistling": 5562,
      "style": 5563,
      "foreshort": 5564,
      "molten": 5565,
      "convex": 5566,
      "fragments": 5567,
      "spillikins": 5568,
      "feasibility": 5569,
      "glistening": 5570,
      "applicable": 5571,
      "inferior": 5572,
      "exclamation": 5573,
      "telegram": 5574,
      "faithful": 5575,
      "_barbicanites_": 5576,
      "demoniacal": 5577,
      "banquet": 5578,
      "couple": 5579,
      "celestial": 5580,
      "europe": 5581,
      "epoch": 5582,
      "gaseous": 5583,
      "houses": 5584,
      "hullabaloo": 5585,
      "martyr": 5586,
      "pipes": 5587,
      "ricciol": 5588,
      "route": 5589,
      "tropical": 5590,
      "venus": 5591,
      "vestige": 5592,
      "november": 5593,
      "proximity": 5594,
      "website": 5595,
      "exquisite": 5596,
      "envelope": 5597,
      "overwhel": 5598,
      "accordingly": 5599,
      "immobility": 5600,
      "correspond": 5601,
      "elphinstone": 5602,
      "hemispheres": 5603,
      "10000": 5604,
      "29": 5605,
      "26": 5606,
      "37": 5607,
      "300": 5608,
      "360": 5609,
      "4000": 5610,
      "450": 5611,
      "55": 5612,
      "56": 5613,
      "5000": 5614,
      "6th": 5615,
      "6000": 5616,
      "_re": 5617,
      "_ur": 5618,
      "_ch": 5619,
      "_pt": 5620,
      "_ne": 5621,
      "_he": 5622,
      "_arch": 5623,
      "_rill": 5624,
      "_erat": 5625,
      "av": 5626,
      "aust": 5627,
      "aug": 5628,
      "bas": 5629,
      "bent": 5630,
      "bid": 5631,
      "bow": 5632,
      "bul": 5633,
      "bab": 5634,
      "big": 5635,
      "bag": 5636,
      "boss": 5637,
      "bath": 5638,
      "born": 5639,
      "books": 5640,
      "breadth": 5641,
      "cad": 5642,
      "cul": 5643,
      "cass": 5644,
      "civ": 5645,
      "cyr": 5646,
      "cinder": 5647,
      "dur": 5648,
      "dant": 5649,
      "dus": 5650,
      "date": 5651,
      "dome": 5652,
      "dried": 5653,
      "dull": 5654,
      "dash": 5655,
      "density": 5656,
      "daily": 5657,
      "eh": 5658,
      "eman": 5659,
      "edu": 5660,
      "echo": 5661,
      "eggs": 5662,
      "fly": 5663,
      "fain": 5664,
      "fem": 5665,
      "food": 5666,
      "faster": 5667,
      "ger": 5668,
      "gri": 5669,
      "goose": 5670,
      "hop": 5671,
      "hav": 5672,
      "hide": 5673,
      "hail": 5674,
      "halt": 5675,
      "honey": 5676,
      "je": 5677,
      "jard": 5678,
      "jag": 5679,
      "kill": 5680,
      "knot": 5681,
      "lou": 5682,
      "lur": 5683,
      "link": 5684,
      "lord": 5685,
      "lashed": 5686,
      "med": 5687,
      "mab": 5688,
      "mens": 5689,
      "matt": 5690,
      "mcon": 5691,
      "mingled": 5692,
      "ni": 5693,
      "nu": 5694,
      "nap": 5695,
      "native": 5696,
      "nerv": 5697,
      "ore": 5698,
      "pm": 5699,
      "ped": 5700,
      "pall": 5701,
      "pound": 5702,
      "pup": 5703,
      "pier": 5704,
      "pushed": 5705,
      "rh": 5706,
      "ram": 5707,
      "rome": 5708,
      "rav": 5709,
      "ride": 5710,
      "rage": 5711,
      "rue": 5712,
      "rib": 5713,
      "rank": 5714,
      "sle": 5715,
      "som": 5716,
      "sigh": 5717,
      "sitting": 5718,
      "saint": 5719,
      "sized": 5720,
      "sangu": 5721,
      "ta": 5722,
      "tor": 5723,
      "tit": 5724,
      "tap": 5725,
      "test": 5726,
      "tamp": 5727,
      "ul": 5728,
      "vic": 5729,
      "vap": 5730,
      "vill": 5731,
      "vice": 5732,
      "vital": 5733,
      "wat": 5734,
      "wis": 5735,
      "wave": 5736,
      "wine": 5737,
      "wake": 5738,
      "wire": 5739,
      "women": 5740,
      "wager": 5741,
      "wires": 5742,
      "yelled": 5743,
      "##dated": 5744,
      "##dig": 5745,
      "##iations": 5746,
      "##oe": 5747,
      "##oic": 5748,
      "##oil": 5749,
      "##oke": 5750,
      "##oked": 5751,
      "##olem": 5752,
      "##tle": 5753,
      "##ties": 5754,
      "##tures": 5755,
      "##ras": 5756,
      "##rap": 5757,
      "##rate": 5758,
      "##rist": 5759,
      "##aust": 5760,
      "##acul": 5761,
      "##ny": 5762,
      "##nit": 5763,
      "##eth": 5764,
      "##ux": 5765,
      "##cracks": 5766,
      "##hill": 5767,
      "##hand": 5768,
      "##hist": 5769,
      "##hine": 5770,
      "##helion": 5771,
      "##bal": 5772,
      "##bling": 5773,
      "##boy": 5774,
      "##buff": 5775,
      "##pes": 5776,
      "##ping": 5777,
      "##pow": 5778,
      "##pable": 5779,
      "##port": 5780,
      "##power": 5781,
      "##piring": 5782,
      "##lo": 5783,
      "##lass": 5784,
      "##lph": 5785,
      "##lier": 5786,
      "##gar": 5787,
      "##gil": 5788,
      "##my": 5789,
      "##mill": 5790,
      "##kal": 5791,
      "##keli": 5792,
      "##ym": 5793,
      "##yen": 5794,
      "##wy": 5795,
      "##41": 5796,
      "##vals": 5797,
      "##fy": 5798,
      "##fit": 5799,
      "##field": 5800,
      "##fug": 5801,
      "##51": 5802,
      "##ze": 5803,
      "##zing": 5804,
      "##zach": 5805,
      "##21": 5806,
      "##72": 5807,
      "##62": 5808,
      "theat": 5809,
      "theories": 5810,
      "##eres": 5811,
      "##ina": 5812,
      "##inations": 5813,
      "##edily": 5814,
      "##edition": 5815,
      "##enes_": 5816,
      "##ona": 5817,
      "##onic": 5818,
      "##onious": 5819,
      "##ata": 5820,
      "##aturn": 5821,
      "##atics": 5822,
      "##ato_": 5823,
      "##aries": 5824,
      "##aning": 5825,
      "##anite": 5826,
      "##orth": 5827,
      "##oral": 5828,
      "##oret": 5829,
      "##orated": 5830,
      "##llous": 5831,
      "anch": 5832,
      "ina": 5833,
      "inert": 5834,
      "toast": 5835,
      "tomor": 5836,
      "##itary": 5837,
      "##ises": 5838,
      "##iset": 5839,
      "##isel": 5840,
      "##isons": 5841,
      "##re_": 5842,
      "##asp": 5843,
      "##icked": 5844,
      "##icism": 5845,
      "beam": 5846,
      "##omin": 5847,
      "##omets": 5848,
      "##ionth": 5849,
      "##thm": 5850,
      "##thouse": 5851,
      "##thenes_": 5852,
      "nois": 5853,
      "noonday": 5854,
      "item": 5855,
      "whom": 5856,
      "##struct": 5857,
      "##ad_": 5858,
      "##urb": 5859,
      "##urity": 5860,
      "##urys": 5861,
      "##urmount": 5862,
      "##utonic": 5863,
      "rej": 5864,
      "retain": 5865,
      "reel": 5866,
      "reapp": 5867,
      "##idal": 5868,
      "##idium_": 5869,
      "##vellous": 5870,
      "##alty": 5871,
      "##alizing": 5872,
      "##roar": 5873,
      "##roeter": 5874,
      "##rolling": 5875,
      "##rophe": 5876,
      "asper": 5877,
      "aside": 5878,
      "assemb": 5879,
      "##ainted": 5880,
      "##irt": 5881,
      "##irs": 5882,
      "##iron": 5883,
      "attain": 5884,
      "##ript": 5885,
      "##ches": 5886,
      "##chief": 5887,
      "heaving": 5888,
      "##eters": 5889,
      "##eties": 5890,
      "stay": 5891,
      "stif": 5892,
      "stoo": 5893,
      "stored": 5894,
      "forced": 5895,
      "forec": 5896,
      "##imo": 5897,
      "##imming": 5898,
      "mob": 5899,
      "moist": 5900,
      "movable": 5901,
      "##apol": 5902,
      "prolong": 5903,
      "prodig": 5904,
      "suit": 5905,
      "suitable": 5906,
      "sulph": 5907,
      "##terior": 5908,
      "shar": 5909,
      "shaken": 5910,
      "shudd": 5911,
      "arid": 5912,
      "arrest": 5913,
      "bye": 5914,
      "sem": 5915,
      "seated": 5916,
      "sealed": 5917,
      "noted": 5918,
      "##allation": 5919,
      "##ndall": 5920,
      "contain": 5921,
      "concept": 5922,
      "convenient": 5923,
      "exterior": 5924,
      "##ulas": 5925,
      "##ulation": 5926,
      "##ulating": 5927,
      "##ulted": 5928,
      "##estion": 5929,
      "##ilities": 5930,
      "barren": 5931,
      "france": 5932,
      "org": 5933,
      "orange": 5934,
      "##ational": 5935,
      "barbican_": 5936,
      "decept": 5937,
      "dewy": 5938,
      "sole": 5939,
      "soil": 5940,
      "neb": 5941,
      "##astly": 5942,
      "##astle": 5943,
      "##astrophe": 5944,
      "alle": 5945,
      "allowing": 5946,
      "##ers_": 5947,
      "##akers": 5948,
      "##amm": 5949,
      "##illip": 5950,
      "##ille_": 5951,
      "##osm": 5952,
      "##oses": 5953,
      "##osph": 5954,
      "##osthenes_": 5955,
      "##antage": 5956,
      "disag": 5957,
      "##umption": 5958,
      "##umulated": 5959,
      "##umns": 5960,
      "##ife_": 5961,
      "##une": 5962,
      "##usions": 5963,
      "##rag": 5964,
      "##ate_": 5965,
      "alas": 5966,
      "alumin": 5967,
      "alkal": 5968,
      "##gee": 5969,
      "couldnt": 5970,
      "enlight": 5971,
      "sph": 5972,
      "span": 5973,
      "##olve": 5974,
      "lived": 5975,
      "lives": 5976,
      "likeli": 5977,
      "##veness": 5978,
      "whatso": 5979,
      "trap": 5980,
      "troubled": 5981,
      "feast": 5982,
      "feather": 5983,
      "capric": 5984,
      "earlier": 5985,
      "everest": 5986,
      "cher": 5987,
      "chimed": 5988,
      "champ": 5989,
      "chasm": 5990,
      "charts": 5991,
      "changed": 5992,
      "choose": 5993,
      "christ": 5994,
      "##ourse": 5995,
      "obtaining": 5996,
      "sac": 5997,
      "thereby": 5998,
      "##ountain": 5999,
      "aband": 6000,
      "meat": 6001,
      "##pless": 6002,
      "##oting": 6003,
      "##olly": 6004,
      "unass": 6005,
      "unru": 6006,
      "univer": 6007,
      "unearth": 6008,
      "##endent": 6009,
      "imprison": 6010,
      "##quently": 6011,
      "poet": 6012,
      "pock": 6013,
      "user": 6014,
      "canine": 6015,
      "pred": 6016,
      "door": 6017,
      "complying": 6018,
      "compels": 6019,
      "compelled": 6020,
      "surv": 6021,
      "glowing": 6022,
      "##indled": 6023,
      "plutonic": 6024,
      "##ortment": 6025,
      "divers": 6026,
      "dign": 6027,
      "integ": 6028,
      "introdu": 6029,
      "##istarch": 6030,
      "lev": 6031,
      "upright": 6032,
      "uproar": 6033,
      "hows": 6034,
      "howl": 6035,
      "howling": 6036,
      "##intill": 6037,
      "blown": 6038,
      "blistered": 6039,
      "apply": 6040,
      "appalling": 6041,
      "##iged": 6042,
      "##igation": 6043,
      "##igrade": 6044,
      "##ague": 6045,
      "##agara": 6046,
      "prelim": 6047,
      "prehist": 6048,
      "##onder": 6049,
      "agency": 6050,
      "flut": 6051,
      "flight": 6052,
      "flood": 6053,
      "flakes": 6054,
      "flatt": 6055,
      "flung": 6056,
      "flesh": 6057,
      "mans": 6058,
      "myth": 6059,
      "intervals": 6060,
      "advers": 6061,
      "attitudes": 6062,
      "##reeable": 6063,
      "claimed": 6064,
      "clapping": 6065,
      "##cules": 6066,
      "travel": 6067,
      "sunken": 6068,
      "grass": 6069,
      "granite": 6070,
      "donate": 6071,
      "donke": 6072,
      "##ffled": 6073,
      "shouldnt": 6074,
      "parties": 6075,
      "partially": 6076,
      "preserved": 6077,
      "reser": 6078,
      "resour": 6079,
      "resolut": 6080,
      "resuming": 6081,
      "crit": 6082,
      "crests": 6083,
      "##acity": 6084,
      "acclim": 6085,
      "accumulated": 6086,
      "offer": 6087,
      "beforehand": 6088,
      "lighting": 6089,
      "slang": 6090,
      "slopes": 6091,
      "slipped": 6092,
      "##menting": 6093,
      "terrib": 6094,
      "##ensive": 6095,
      "certain_": 6096,
      "throng": 6097,
      "##eping": 6098,
      "conscience": 6099,
      "consulted": 6100,
      "norway": 6101,
      "fewer": 6102,
      "peering": 6103,
      "secch": 6104,
      "##inkage": 6105,
      "brings": 6106,
      "_mont": 6107,
      "_mille": 6108,
      "coated": 6109,
      "copper": 6110,
      "marsh": 6111,
      "marvellous": 6112,
      "presents": 6113,
      "amuse": 6114,
      "##angent": 6115,
      "##ipment": 6116,
      "sheets": 6117,
      "##orders": 6118,
      "justice": 6119,
      "phosph": 6120,
      "highlow": 6121,
      "newly": 6122,
      "impet": 6123,
      "imparted": 6124,
      "godd": 6125,
      "govern": 6126,
      "answering": 6127,
      "##reading": 6128,
      "souls": 6129,
      "extends": 6130,
      "extensive": 6131,
      "subsc": 6132,
      "scr": 6133,
      "scot": 6134,
      "scintill": 6135,
      "centenn": 6136,
      "centigrade": 6137,
      "director": 6138,
      "##ibition": 6139,
      "##ibnit": 6140,
      "##own_": 6141,
      "suppress": 6142,
      "infern": 6143,
      "##rowed": 6144,
      "darker": 6145,
      "darkest": 6146,
      "depends": 6147,
      "absent": 6148,
      "##pressibly": 6149,
      "##ternally": 6150,
      "astounded": 6151,
      "email": 6152,
      "invent": 6153,
      "deserved": 6154,
      "desperate": 6155,
      "watery": 6156,
      "recoil": 6157,
      "solic": 6158,
      "solve": 6159,
      "downwards": 6160,
      "_sc": 6161,
      "_some": 6162,
      "_saturn": 6163,
      "##imedes_": 6164,
      "fury": 6165,
      "furious": 6166,
      "passions": 6167,
      "exclus": 6168,
      "acted": 6169,
      "carri": 6170,
      "wondrous": 6171,
      "incalcul": 6172,
      "probable": 6173,
      "swore": 6174,
      "swung": 6175,
      "##ignation": 6176,
      "worlds": 6177,
      "roaring": 6178,
      "advised": 6179,
      "efful": 6180,
      "windlass": 6181,
      "detach": 6182,
      "volumes": 6183,
      "columns": 6184,
      "descend": 6185,
      "simpleton": 6186,
      "resting": 6187,
      "served": 6188,
      "series": 6189,
      "steer": 6190,
      "instants": 6191,
      "charged": 6192,
      "charming": 6193,
      "wondering": 6194,
      "circul": 6195,
      "glassy": 6196,
      "subjects": 6197,
      "##atisfact": 6198,
      "exists": 6199,
      "##screw": 6200,
      "powerless": 6201,
      "dispense": 6202,
      "gunpow": 6203,
      "hove": 6204,
      "sket": 6205,
      "engross": 6206,
      "furthermore": 6207,
      "countless": 6208,
      "##gency": 6209,
      "cheyen": 6210,
      "tempered": 6211,
      "equiv": 6212,
      "equipment": 6213,
      "uttering": 6214,
      "##alties": 6215,
      "soundless": 6216,
      "journeys": 6217,
      "tenth": 6218,
      "grace": 6219,
      "expressly": 6220,
      "expressions": 6221,
      "cook": 6222,
      "##icient": 6223,
      "##icians": 6224,
      "hearing": 6225,
      "hearers": 6226,
      "discovering": 6227,
      "viewing": 6228,
      "metal": 6229,
      "assure": 6230,
      "colds": 6231,
      "broad": 6232,
      "oppon": 6233,
      "hearty": 6234,
      "bottomless": 6235,
      "severe": 6236,
      "helpless": 6237,
      "movements": 6238,
      "previously": 6239,
      "grandly": 6240,
      "signals": 6241,
      "signalling": 6242,
      "##ceptible": 6243,
      "realize": 6244,
      "shortly": 6245,
      "necessity": 6246,
      "necessarily": 6247,
      "elastic": 6248,
      "syll": 6249,
      "propri": 6250,
      "proposition": 6251,
      "concerning": 6252,
      "comparative": 6253,
      "crazy": 6254,
      "finish": 6255,
      "listened": 6256,
      "listening": 6257,
      "redhot": 6258,
      "team": 6259,
      "teeth": 6260,
      "useful": 6261,
      "circuses": 6262,
      "purest": 6263,
      "purity": 6264,
      "##resist": 6265,
      "##light_": 6266,
      "neutralize": 6267,
      "##ushing": 6268,
      "preparing": 6269,
      "magnetic": 6270,
      "_pic": 6271,
      "_pro": 6272,
      "animation": 6273,
      "constantly": 6274,
      "perihelion": 6275,
      "ballast": 6276,
      "fasten": 6277,
      "walled": 6278,
      "annih": 6279,
      "annapol": 6280,
      "streaked": 6281,
      "hopeful": 6282,
      "monster": 6283,
      "sensation": 6284,
      "sensibly": 6285,
      "strikes": 6286,
      "arguing": 6287,
      "expedition": 6288,
      "admitted": 6289,
      "reflector": 6290,
      "extremity": 6291,
      "attracted": 6292,
      "inflated": 6293,
      "_did_": 6294,
      "_down_": 6295,
      "watched": 6296,
      "affect": 6297,
      "mainly": 6298,
      "sank": 6299,
      "sharply": 6300,
      "transition": 6301,
      "transpar": 6302,
      "transport": 6303,
      "guests": 6304,
      "rudd": 6305,
      "gradual": 6306,
      "respectfully": 6307,
      "brilliancy": 6308,
      "disappearance": 6309,
      "18000": 6310,
      "_had_": 6311,
      "join": 6312,
      "joke": 6313,
      "joined": 6314,
      "joining": 6315,
      "varied": 6316,
      "variations": 6317,
      "conviction": 6318,
      "imagined": 6319,
      "influenced": 6320,
      "limb": 6321,
      "limits": 6322,
      "limitation": 6323,
      "included": 6324,
      "promised": 6325,
      "blaze": 6326,
      "peculiarities": 6327,
      "15000": 6328,
      "_vice": 6329,
      "sentence": 6330,
      "##ivative": 6331,
      "##point": 6332,
      "##wardly": 6333,
      "receives": 6334,
      "arches": 6335,
      "examining": 6336,
      "attempted": 6337,
      "attempting": 6338,
      "equality": 6339,
      "1e7": 6340,
      "1e9": 6341,
      "drops": 6342,
      "mercury": 6343,
      "driven": 6344,
      "greedily": 6345,
      "namely": 6346,
      "operating": 6347,
      "pathless": 6348,
      "winds": 6349,
      "throat": 6350,
      "angle": 6351,
      "angles": 6352,
      "defined": 6353,
      "professors": 6354,
      "profoundly": 6355,
      "gentlemans": 6356,
      "20th": 6357,
      "destined": 6358,
      "iridium_": 6359,
      "irresist": 6360,
      "pulled": 6361,
      "rails": 6362,
      "ascent": 6363,
      "posts": 6364,
      "reminding": 6365,
      "parallelism": 6366,
      "increase": 6367,
      "fortune": 6368,
      "bursting": 6369,
      "drank": 6370,
      "denied": 6371,
      "happiness": 6372,
      "muttering": 6373,
      "combination": 6374,
      "principles": 6375,
      "employing": 6376,
      "steamboat": 6377,
      "determination": 6378,
      "persisted": 6379,
      "deathlike": 6380,
      "enjoying": 6381,
      "listeners": 6382,
      "escaping": 6383,
      "1300": 6384,
      "30th": 6385,
      "apoll": 6386,
      "honest": 6387,
      "schroeter": 6388,
      "vesuv": 6389,
      "##resses": 6390,
      "modification": 6391,
      "superfic": 6392,
      "articul": 6393,
      "outlined": 6394,
      "particles": 6395,
      "reported": 6396,
      "recovery": 6397,
      "diminishing": 6398,
      "cease": 6399,
      "rigor": 6400,
      "warning": 6401,
      "##ouraged": 6402,
      "accomplish": 6403,
      "calmly": 6404,
      "calmness": 6405,
      "coasts": 6406,
      "steeped": 6407,
      "communicate": 6408,
      "113": 6409,
      "164": 6410,
      "_fur": 6411,
      "powers": 6412,
      "waiting": 6413,
      "incidents": 6414,
      "stoicism": 6415,
      "fortytwo": 6416,
      "property": 6417,
      "decomp": 6418,
      "spectators": 6419,
      "spectacles": 6420,
      "diego": 6421,
      "bravely": 6422,
      "triumphal": 6423,
      "contemplation": 6424,
      "_lambert": 6425,
      "_life_": 6426,
      "futile": 6427,
      "furnish": 6428,
      "valleys": 6429,
      "whirled": 6430,
      "whirling": 6431,
      "heaviest": 6432,
      "entity": 6433,
      "resemblance": 6434,
      "performance": 6435,
      "coolness": 6436,
      "arrangements": 6437,
      "paragraphs": 6438,
      "dollar": 6439,
      "function": 6440,
      "growing": 6441,
      "idle": 6442,
      "purely": 6443,
      "warmest": 6444,
      "##rivance": 6445,
      "separate": 6446,
      "separated": 6447,
      "depressions": 6448,
      "savants": 6449,
      "diverging": 6450,
      "retarded": 6451,
      "accepted": 6452,
      "cheerfully": 6453,
      "admiringly": 6454,
      "_was_": 6455,
      "_were_": 6456,
      "judging": 6457,
      "jumped": 6458,
      "ladies": 6459,
      "panes": 6460,
      "sandy": 6461,
      "value": 6462,
      "sparkled": 6463,
      "impressed": 6464,
      "impressions": 6465,
      "permitted": 6466,
      "accurate": 6467,
      "improved": 6468,
      "speculative": 6469,
      "pleases": 6470,
      "reliefs": 6471,
      "_eccentric": 6472,
      "ahalf": 6473,
      "birth": 6474,
      "derivative": 6475,
      "loft": 6476,
      "melted": 6477,
      "raising": 6478,
      "sorbon": 6479,
      "snowy": 6480,
      "topographical": 6481,
      "alarming": 6482,
      "sailors": 6483,
      "desires": 6484,
      "vividly": 6485,
      "authority": 6486,
      "hypotheses": 6487,
      "240": 6488,
      "eleven": 6489,
      "fleet": 6490,
      "fleck": 6491,
      "payments": 6492,
      "roughly": 6493,
      "sirius": 6494,
      "tyndall": 6495,
      "tablets": 6496,
      "tints": 6497,
      "inexplic": 6498,
      "inexpressibly": 6499,
      "shift": 6500,
      "weighs": 6501,
      "earnestly": 6502,
      "leading": 6503,
      "reference": 6504,
      "tempers": 6505,
      "temporary": 6506,
      "acquainted": 6507,
      "struggle": 6508,
      "defective": 6509,
      "_g_": 6510,
      "_gro": 6511,
      "_arzach": 6512,
      "_aristarch": 6513,
      "astonished": 6514,
      "palace": 6515,
      "petit": 6516,
      "snick": 6517,
      "bewildering": 6518,
      "shouting": 6519,
      "organized": 6520,
      "alternative": 6521,
      "enveloped": 6522,
      "channels": 6523,
      "uneasy": 6524,
      "unanimous": 6525,
      "eminent": 6526,
      "indirect": 6527,
      "devote": 6528,
      "ascertained": 6529,
      "encounter": 6530,
      "ninetenths": 6531,
      "ignorance": 6532,
      "accompany": 6533,
      "212": 6534,
      "events": 6535,
      "eaten": 6536,
      "eruption": 6537,
      "freer": 6538,
      "frequently": 6539,
      "fiery": 6540,
      "fiercely": 6541,
      "kingdom": 6542,
      "lovely": 6543,
      "music": 6544,
      "muscular": 6545,
      "painted": 6546,
      "##ucky": 6547,
      "stretching": 6548,
      "stretched": 6549,
      "molehill": 6550,
      "molecules": 6551,
      "sustained": 6552,
      "sustaining": 6553,
      "connected": 6554,
      "connection": 6555,
      "unsatisfact": 6556,
      "blasting": 6557,
      "prevailed": 6558,
      "inhabitable_": 6559,
      "pursue": 6560,
      "pursued": 6561,
      "estimated": 6562,
      "fahr": 6563,
      "beholding": 6564,
      "similarly": 6565,
      "bleeding": 6566,
      "dreary": 6567,
      "frozen": 6568,
      "navy": 6569,
      "navigation": 6570,
      "royalty": 6571,
      "royalties": 6572,
      "versa_": 6573,
      "yellow": 6574,
      "##igee_": 6575,
      "##petal": 6576,
      "thrilled": 6577,
      "thrilling": 6578,
      "shroud": 6579,
      "shrinkage": 6580,
      "prisoners": 6581,
      "gratify": 6582,
      "respons": 6583,
      "refracted": 6584,
      "substance": 6585,
      "substances": 6586,
      "designate": 6587,
      "corners": 6588,
      "affirmative": 6589,
      "exceptional": 6590,
      "principal": 6591,
      "warranties": 6592,
      "knocked": 6593,
      "picturesque": 6594,
      "perplexity": 6595,
      "_perigee_": 6596,
      "aerolite": 6597,
      "balance": 6598,
      "catastrophe": 6599,
      "cabin": 6600,
      "girls": 6601,
      "hazy": 6602,
      "patron": 6603,
      "##proof": 6604,
      "modern": 6605,
      "execution": 6606,
      "abundant": 6607,
      "legal": 6608,
      "crisium_": 6609,
      "betraying": 6610,
      "amidst": 6611,
      "impatient": 6612,
      "centrifug": 6613,
      "centripetal": 6614,
      "_should_": 6615,
      "advisable": 6616,
      "service": 6617,
      "services": 6618,
      "preparations": 6619,
      "monoton": 6620,
      "monotony": 6621,
      "hauling": 6622,
      "irradi": 6623,
      "improvement": 6624,
      "obliquity": 6625,
      "obliquely": 6626,
      "gesticulating": 6627,
      "endeavored": 6628,
      "endeavoring": 6629,
      "vigorously": 6630,
      "_leibnit": 6631,
      "avoid": 6632,
      "borne": 6633,
      "cries": 6634,
      "cavities": 6635,
      "elliptical": 6636,
      "fixed": 6637,
      "ghastly": 6638,
      "greece": 6639,
      "hammer": 6640,
      "hollow": 6641,
      "mirror": 6642,
      "mixture": 6643,
      "pyram": 6644,
      "sierras": 6645,
      "wiping": 6646,
      "##othed": 6647,
      "##piece": 6648,
      "shrugging": 6649,
      "deliver": 6650,
      "negative": 6651,
      "disgusted": 6652,
      "energy": 6653,
      "abysses": 6654,
      "unacc": 6655,
      "glaci": 6656,
      "appreciable": 6657,
      "afraid": 6658,
      "scenes": 6659,
      "recollections": 6660,
      "exclaiming": 6661,
      "_conj": 6662,
      "roasting": 6663,
      "excessive": 6664,
      "assistance": 6665,
      "building": 6666,
      "draughts": 6667,
      "_herald_": 6668,
      "cavernous": 6669,
      "articles": 6670,
      "celebrated": 6671,
      "economy": 6672,
      "saturns": 6673,
      "majestic": 6674,
      "inconceivable": 6675,
      "schoolboy": 6676,
      "disclaimer": 6677,
      "herschel": 6678,
      "nasmyth": 6679,
      "congratulate": 6680,
      "_plato_": 6681,
      "average": 6682,
      "aqueduct": 6683,
      "fourier": 6684,
      "fancies": 6685,
      "fathoms": 6686,
      "facility": 6687,
      "fissures": 6688,
      "gallant": 6689,
      "gibber": 6690,
      "homer": 6691,
      "looming": 6692,
      "nitrogen": 6693,
      "network": 6694,
      "pardon": 6695,
      "romantic": 6696,
      "roof": 6697,
      "rattling": 6698,
      "senseless": 6699,
      "tender": 6700,
      "tube": 6701,
      "varying": 6702,
      "thomson": 6703,
      "inquir": 6704,
      "healthy": 6705,
      "isolated": 6706,
      "shaky": 6707,
      "selected": 6708,
      "frisby": 6709,
      "chambers": 6710,
      "chickens": 6711,
      "chlorate": 6712,
      "obliged": 6713,
      "obscurity": 6714,
      "prayer": 6715,
      "intersection": 6716,
      "crashing": 6717,
      "instructive": 6718,
      "refreshment": 6719,
      "phlegm": 6720,
      "subsidence": 6721,
      "launch": 6722,
      "invaluable": 6723,
      "instantaneous": 6724,
      "academy": 6725,
      "##ontestably": 6726,
      "buffers": 6727,
      "indefinitely": 6728,
      "mahomets": 6729,
      "drunk": 6730,
      "_aposel": 6731,
      "rainbows": 6732,
      "unequalled": 6733,
      "anticip": 6734,
      "cultivated": 6735,
      "shrieked": 6736,
      "sympathy": 6737,
      "riccioli": 6738,
      "corresponding": 6739,
      "_uranus_": 6740,
      "_ptolem": 6741,
      "_archimedes_": 6742,
      "_eratosthenes_": 6743,
      "culm": 6744,
      "cassin": 6745,
      "civil": 6746,
      "educ": 6747,
      "german": 6748,
      "havent": 6749,
      "jardin": 6750,
      "jagged": 6751,
      "links": 6752,
      "mabille_": 6753,
      "mconnell": 6754,
      "niagara": 6755,
      "nervous": 6756,
      "ravines": 6757,
      "somn": 6758,
      "sanguine": 6759,
      "vicepresident": 6760,
      "watkins": 6761,
      "##rapt": 6762,
      "tomorrow": 6763,
      "##urmountable": 6764,
      "asperity": 6765,
      "forecastle": 6766,
      "moisture": 6767,
      "sulphur": 6768,
      "arrested": 6769,
      "disagreeable": 6770,
      "aluminium": 6771,
      "alkali": 6772,
      "likelihood": 6773,
      "whatsoever": 6774,
      "unassailable": 6775,
      "unruffled": 6776,
      "universe": 6777,
      "integral": 6778,
      "preliminary": 6779,
      "prehistoric": 6780,
      "flattened": 6781,
      "adversary": 6782,
      "acclimat": 6783,
      "terribly": 6784,
      "goddess": 6785,
      "centennial": 6786,
      "infernal": 6787,
      "incalculable": 6788,
      "gunpowder": 6789,
      "engrossed": 6790,
      "cheyenne": 6791,
      "equivalent": 6792,
      "annihilated": 6793,
      "annapolis": 6794,
      "transparency": 6795,
      "vesuvius": 6796,
      "_lambert_": 6797,
      "_eccentricity_": 6798,
      "sorbonne": 6799,
      "inexplicable": 6800,
      "_arzachel_": 6801,
      "_aristarchus_": 6802,
      "unsatisfactory": 6803,
      "centrifugal": 6804,
      "_leibnitz_": 6805,
      "1c": 6806,
      "2nd": 6807,
      "20000": 6808,
      "38": 6809,
      "34": 6810,
      "33": 6811,
      "45": 6812,
      "41": 6813,
      "43": 6814,
      "54": 6815,
      "59": 6816,
      "60": 6817,
      "75": 6818,
      "750": 6819,
      "87": 6820,
      "81": 6821,
      "97": 6822,
      "900": 6823,
      "9000": 6824,
      "_in": 6825,
      "_or": 6826,
      "_ent": 6827,
      "_se": 6828,
      "_ter": 6829,
      "_ast": 6830,
      "_if": 6831,
      "_ven": 6832,
      "_ke": 6833,
      "_ab": 6834,
      "_op": 6835,
      "_are": 6836,
      "_de": 6837,
      "_less": 6838,
      "_imp": 6839,
      "_up": 6840,
      "_gen": 6841,
      "_night": 6842,
      "_old": 6843,
      "_y_": 6844,
      "_i_": 6845,
      "_earth": 6846,
      "ald": 6847,
      "aim": 6848,
      "aus": 6849,
      "aven": 6850,
      "aure": 6851,
      "ade": 6852,
      "avid": 6853,
      "apo": 6854,
      "aval": 6855,
      "aching": 6856,
      "aux": 6857,
      "ba": 6858,
      "ber": 6859,
      "ben": 6860,
      "bos": 6861,
      "bust": 6862,
      "band": 6863,
      "bout": 6864,
      "bite": 6865,
      "bays": 6866,
      "bac": 6867,
      "batter": 6868,
      "bands": 6869,
      "bowed": 6870,
      "bann": 6871,
      "bern": 6872,
      "based": 6873,
      "bank": 6874,
      "banged": 6875,
      "borders": 6876,
      "cit": 6877,
      "cate": 6878,
      "card": 6879,
      "cig": 6880,
      "cens": 6881,
      "cub": 6882,
      "caving": 6883,
      "caut": 6884,
      "cimmer": 6885,
      "ded": 6886,
      "dor": 6887,
      "dess": 6888,
      "dil": 6889,
      "dun": 6890,
      "dare": 6891,
      "dated": 6892,
      "dict": 6893,
      "darn": 6894,
      "diction": 6895,
      "dwell": 6896,
      "dawn": 6897,
      "deduct": 6898,
      "ere": 6899,
      "eating": 6900,
      "egg": 6901,
      "eleg": 6902,
      "egy": 6903,
      "fed": 6904,
      "fil": 6905,
      "fade": 6906,
      "fash": 6907,
      "fert": 6908,
      "ferv": 6909,
      "fading": 6910,
      "fountain": 6911,
      "gim": 6912,
      "gem": 6913,
      "gard": 6914,
      "gear": 6915,
      "game": 6916,
      "gics": 6917,
      "gna": 6918,
      "gaily": 6919,
      "hed": 6920,
      "hing": 6921,
      "hun": 6922,
      "hus": 6923,
      "hue": 6924,
      "hire": 6925,
      "hars": 6926,
      "hush": 6927,
      "hook": 6928,
      "hanged": 6929,
      "hilar": 6930,
      "hug": 6931,
      "ii": 6932,
      "iv": 6933,
      "ix": 6934,
      "iii": 6935,
      "ju": 6936,
      "jp": 6937,
      "jes": 6938,
      "jet": 6939,
      "jap": 6940,
      "jot": 6941,
      "jose": 6942,
      "job": 6943,
      "jumps": 6944,
      "junction": 6945,
      "kent": 6946,
      "kal": 6947,
      "kne": 6948,
      "killing": 6949,
      "kanes": 6950,
      "lon": 6951,
      "lam": 6952,
      "lass": 6953,
      "lock": 6954,
      "lob": 6955,
      "lakes": 6956,
      "lillip": 6957,
      "mas": 6958,
      "mary": 6959,
      "mail": 6960,
      "melt": 6961,
      "member": 6962,
      "madd": 6963,
      "mamm": 6964,
      "non": 6965,
      "nut": 6966,
      "nest": 6967,
      "nerves": 6968,
      "ou": 6969,
      "oy": 6970,
      "oct": 6971,
      "oven": 6972,
      "opt": 6973,
      "odd": 6974,
      "owed": 6975,
      "pg": 6976,
      "pin": 6977,
      "pave": 6978,
      "pill": 6979,
      "pra": 6980,
      "pig": 6981,
      "pine": 6982,
      "pang": 6983,
      "pins": 6984,
      "pitted": 6985,
      "pasc": 6986,
      "puls": 6987,
      "picking": 6988,
      "panting": 6989,
      "padded": 6990,
      "ren": 6991,
      "rich": 6992,
      "rill": 6993,
      "rive": 6994,
      "ross": 6995,
      "rip": 6996,
      "rows": 6997,
      "rains": 6998,
      "raph": 6999,
      "range": 7000,
      "rates": 7001,
      "rushed": 7002,
      "rattle": 7003,
      "rhy": 7004,
      "roris_": 7005,
      "raging": 7006,
      "sad": 7007,
      "sid": 7008,
      "save": 7009,
      "sore": 7010,
      "song": 7011,
      "siz": 7012,
      "sets": 7013,
      "sons": 7014,
      "satur": 7015,
      "sister": 7016,
      "tar": 7017,
      "ting": 7018,
      "tro": 7019,
      "tall": 7020,
      "tore": 7021,
      "tant": 7022,
      "tree": 7023,
      "tides": 7024,
      "tumb": 7025,
      "tests": 7026,
      "tested": 7027,
      "tna": 7028,
      "tinge": 7029,
      "tension": 7030,
      "tune": 7031,
      "tangent": 7032,
      "ull": 7033,
      "va": 7034,
      "vom": 7035,
      "vul": 7036,
      "vine": 7037,
      "vib": 7038,
      "vict": 7039,
      "vex": 7040,
      "vague": 7041,
      "wore": 7042,
      "wag": 7043,
      "wood": 7044,
      "wished": 7045,
      "wins": 7046,
      "wishing": 7047,
      "woods": 7048,
      "wadded": 7049,
      "waning": 7050,
      "wicked": 7051,
      "xi": 7052,
      "xix": 7053,
      "xii": 7054,
      "xiv": 7055,
      "xiii": 7056,
      "ye": 7057,
      "yak": 7058,
      "yonder": 7059,
      "##di": 7060,
      "##ded": 7061,
      "##dign": 7062,
      "##dmans": 7063,
      "##drogen": 7064,
      "##io": 7065,
      "##ike": 7066,
      "##iqu": 7067,
      "##ience": 7068,
      "##ived": 7069,
      "##ives": 7070,
      "##iably": 7071,
      "##ivided": 7072,
      "##iveness": 7073,
      "##ox": 7074,
      "##opp": 7075,
      "##off": 7076,
      "##oice": 7077,
      "##ody": 7078,
      "##oidable": 7079,
      "##tes": 7080,
      "##tions": 7081,
      "##tible": 7082,
      "##tons": 7083,
      "##time": 7084,
      "##tius_": 7085,
      "##ttle": 7086,
      "##sk": 7087,
      "##sight": 7088,
      "##six": 7089,
      "##rs": 7090,
      "##rom": 7091,
      "##rican": 7092,
      "##ram": 7093,
      "##rass": 7094,
      "##rical": 7095,
      "##rman": 7096,
      "##rents": 7097,
      "##raint": 7098,
      "##rometer": 7099,
      "##rament": 7100,
      "##ratic": 7101,
      "##rane": 7102,
      "##af": 7103,
      "##aited": 7104,
      "##aunt": 7105,
      "##ners": 7106,
      "##nam": 7107,
      "##nant": 7108,
      "##nian": 7109,
      "##nony": 7110,
      "##eer": 7111,
      "##eat": 7112,
      "##eal": 7113,
      "##eak": 7114,
      "##ege": 7115,
      "##eff": 7116,
      "##evid": 7117,
      "##uy": 7118,
      "##uis": 7119,
      "##uith": 7120,
      "##uity": 7121,
      "##uish": 7122,
      "##uction": 7123,
      "##uys": 7124,
      "##ugs": 7125,
      "##uously": 7126,
      "##cas": 7127,
      "##col": 7128,
      "##cout": 7129,
      "##cund": 7130,
      "##cons": 7131,
      "##cosm": 7132,
      "##hes": 7133,
      "##hell": 7134,
      "##high": 7135,
      "##haz": 7136,
      "##hold": 7137,
      "##hosp": 7138,
      "##haust": 7139,
      "##hrman": 7140,
      "##ban": 7141,
      "##bes": 7142,
      "##ball": 7143,
      "##bog": 7144,
      "##bors": 7145,
      "##bod": 7146,
      "##bbed": 7147,
      "##beg": 7148,
      "##bdign": 7149,
      "##part": 7150,
      "##poss": 7151,
      "##passes": 7152,
      "##pices": 7153,
      "##lar": 7154,
      "##lest": 7155,
      "##lins": 7156,
      "##gu": 7157,
      "##gence": 7158,
      "##gled": 7159,
      "##gular": 7160,
      "##gian": 7161,
      "##mw": 7162,
      "##mas": 7163,
      "##mous": 7164,
      "##mist": 7165,
      "##kay": 7166,
      "##kindled": 7167,
      "##yer": 7168,
      "##you": 7169,
      "##yards": 7170,
      "##yons": 7171,
      "##88": 7172,
      "##816": 7173,
      "##_a": 7174,
      "##we": 7175,
      "##went": 7176,
      "##wal": 7177,
      "##were": 7178,
      "##wich": 7179,
      "##western": 7180,
      "##winds": 7181,
      "##vre": 7182,
      "##vas": 7183,
      "##vad": 7184,
      "##vation": 7185,
      "##vard": 7186,
      "##vably": 7187,
      "##vians": 7188,
      "##vantage": 7189,
      "##fall": 7190,
      "##fting": 7191,
      "##zes": 7192,
      "##ju": 7193,
      "##20": 7194,
      "##71": 7195,
      "##95": 7196,
      "##972": 7197,
      "##65": 7198,
      "thund": 7199,
      "##erie": 7200,
      "##erment": 7201,
      "##eries": 7202,
      "##erland": 7203,
      "##ercury": 7204,
      "##erhaz": 7205,
      "##iny": 7206,
      "##in_": 7207,
      "##inter": 7208,
      "##inine": 7209,
      "##inction": 7210,
      "##ina_": 7211,
      "##edless": 7212,
      "##edding": 7213,
      "##en_": 7214,
      "##endan": 7215,
      "##enzy": 7216,
      "##ones": 7217,
      "##onaut": 7218,
      "##onse_": 7219,
      "##at_": 7220,
      "##atus_": 7221,
      "##ar_": 7222,
      "##arf": 7223,
      "##arole": 7224,
      "##ano": 7225,
      "##anic": 7226,
      "##ancial": 7227,
      "##ese": 7228,
      "##esar": 7229,
      "##orand": 7230,
      "##orde": 7231,
      "##llo": 7232,
      "ink": 7233,
      "inve": 7234,
      "inau": 7235,
      "insc": 7236,
      "inability": 7237,
      "inatt": 7238,
      "inopp": 7239,
      "inhosp": 7240,
      "tow": 7241,
      "tomb": 7242,
      "##itor": 7243,
      "##itic": 7244,
      "##itut": 7245,
      "##itect": 7246,
      "##itous": 7247,
      "##iteness": 7248,
      "##isse": 7249,
      "##isive": 7250,
      "##isure": 7251,
      "##rec": 7252,
      "##reced": 7253,
      "##asiness": 7254,
      "##asped": 7255,
      "##ico": 7256,
      "##icate": 7257,
      "##icable": 7258,
      "##icating": 7259,
      "##icting": 7260,
      "##lys": 7261,
      "##ly_": 7262,
      "##le_": 7263,
      "##leman": 7264,
      "bee": 7265,
      "beet": 7266,
      "beast": 7267,
      "behe": 7268,
      "beats": 7269,
      "##omfort": 7270,
      "##ctic": 7271,
      "##ctions": 7272,
      "##ion_": 7273,
      "##this": 7274,
      "##thest": 7275,
      "##thought": 7276,
      "nov": 7277,
      "nose": 7278,
      "whim": 7279,
      "whither": 7280,
      "whining": 7281,
      "wheres": 7282,
      "wholly": 7283,
      "wharf": 7284,
      "##stic": 7285,
      "##sters": 7286,
      "##strick": 7287,
      "##steak": 7288,
      "##ghens": 7289,
      "##ghthouse": 7290,
      "##entiously": 7291,
      "##ado": 7292,
      "##ads": 7293,
      "##aded": 7294,
      "##adle": 7295,
      "##adow": 7296,
      "##advantage": 7297,
      "##urate": 7298,
      "##urable": 7299,
      "##urance": 7300,
      "##urier": 7301,
      "##urbed": 7302,
      "##urtius_": 7303,
      "##utable": 7304,
      "##utted": 7305,
      "rear": 7306,
      "rely": 7307,
      "rect": 7308,
      "reign": 7309,
      "reward": 7310,
      "reuse": 7311,
      "rejected": 7312,
      "reaction": 7313,
      "rebuff": 7314,
      "reiset": 7315,
      "##ider": 7316,
      "##ided": 7317,
      "##idity": 7318,
      "##idated": 7319,
      "##idering": 7320,
      "##idden": 7321,
      "##set": 7322,
      "##see": 7323,
      "##sever": 7324,
      "##alus": 7325,
      "##alpable": 7326,
      "##roject": 7327,
      "##rocosm": 7328,
      "asci": 7329,
      "asia": 7330,
      "##iration": 7331,
      "##irious": 7332,
      "##verish": 7333,
      "##ril": 7334,
      "##ries": 7335,
      "##riment": 7336,
      "##riously": 7337,
      "##che": 7338,
      "heave": 7339,
      "heating": 7340,
      "heeding": 7341,
      "heedless": 7342,
      "hello": 7343,
      "##eta": 7344,
      "stat": 7345,
      "stro": 7346,
      "stim": 7347,
      "stere": 7348,
      "stag": 7349,
      "stiff": 7350,
      "stair": 7351,
      "stands": 7352,
      "stately": 7353,
      "stup": 7354,
      "stamp": 7355,
      "stump": 7356,
      "staff": 7357,
      "sticks": 7358,
      "fores": 7359,
      "forest": 7360,
      "forem": 7361,
      "forwards": 7362,
      "##imm": 7363,
      "##im_": 7364,
      "##imate": 7365,
      "##ecting": 7366,
      "##ghter": 7367,
      "wasting": 7368,
      "mode": 7369,
      "##appl": 7370,
      "withstand": 7371,
      "prow": 7372,
      "proves": 7373,
      "##aye": 7374,
      "##ay_": 7375,
      "sugar": 7376,
      "shone": 7377,
      "shower": 7378,
      "shared": 7379,
      "shrew": 7380,
      "shining": 7381,
      "shapes": 7382,
      "shedding": 7383,
      "youth": 7384,
      "ard": 7385,
      "arc": 7386,
      "arm": 7387,
      "arab": 7388,
      "arago": 7389,
      "arctic": 7390,
      "##ereal": 7391,
      "sees": 7392,
      "semb": 7393,
      "notion": 7394,
      "##alley": 7395,
      "##essing": 7396,
      "##ight_": 7397,
      "conj": 7398,
      "conund": 7399,
      "condu": 7400,
      "exempt": 7401,
      "exert": 7402,
      "exuber": 7403,
      "externally": 7404,
      "##uler_": 7405,
      "##esto": 7406,
      "##estro": 7407,
      "hiss": 7408,
      "hissing": 7409,
      "##ore_": 7410,
      "##iless": 7411,
      "##ilate": 7412,
      "##ilus_": 7413,
      "##iliar": 7414,
      "##icance": 7415,
      "bare": 7416,
      "barking": 7417,
      "barometer": 7418,
      "baromet": 7419,
      "barby": 7420,
      "barrel": 7421,
      "frank": 7422,
      "frames": 7423,
      "fringe": 7424,
      "frenzy": 7425,
      "orth": 7426,
      "deem": 7427,
      "depl": 7428,
      "sold": 7429,
      "sock": 7430,
      "necks": 7431,
      "negl": 7432,
      "nevad": 7433,
      "##astrous": 7434,
      "alls": 7435,
      "allows": 7436,
      "##aked": 7437,
      "##akable": 7438,
      "theirs": 7439,
      "moon_": 7440,
      "moonlight": 7441,
      "##illery": 7442,
      "##osal": 7443,
      "commenting": 7444,
      "dish": 7445,
      "disqu": 7446,
      "disrupt": 7447,
      "disadvantage": 7448,
      "disastrous": 7449,
      "##umble": 7450,
      "##umbr": 7451,
      "##umerated": 7452,
      "##ift": 7453,
      "##ifer": 7454,
      "##ificance": 7455,
      "##unar": 7456,
      "##unct": 7457,
      "##unted": 7458,
      "##une_": 7459,
      "##elo": 7460,
      "##ateful": 7461,
      "##ustic": 7462,
      "##ustomed": 7463,
      "alman": 7464,
      "alps_": 7465,
      "alike": 7466,
      "env": 7467,
      "enrapt": 7468,
      "enlar": 7469,
      "enkindled": 7470,
      "enumerated": 7471,
      "##pposition": 7472,
      "spend": 7473,
      "spare": 7474,
      "spangled": 7475,
      "spider": 7476,
      "##olves": 7477,
      "##ola_": 7478,
      "##olerable": 7479,
      "liber": 7480,
      "lighthouse": 7481,
      "##emo": 7482,
      "##emn": 7483,
      "##emon": 7484,
      "##emble": 7485,
      "##artes": 7486,
      "tray": 7487,
      "trust": 7488,
      "trains": 7489,
      "traph": 7490,
      "trump": 7491,
      "trusted": 7492,
      "truly": 7493,
      "wouldnt": 7494,
      "feared": 7495,
      "fecund": 7496,
      "feverish": 7497,
      "cape": 7498,
      "capital": 7499,
      "chest": 7500,
      "chant": 7501,
      "chart": 7502,
      "chances": 7503,
      "chilled": 7504,
      "china": 7505,
      "##anding": 7506,
      "##ourn": 7507,
      "quad": 7508,
      "quack": 7509,
      "quits": 7510,
      "quiver": 7511,
      "obey": 7512,
      "saving": 7513,
      "##selen": 7514,
      "worn": 7515,
      "wormw": 7516,
      "ably": 7517,
      "abused": 7518,
      "meets": 7519,
      "meggs": 7520,
      "meadow": 7521,
      "##pler_": 7522,
      "##otions": 7523,
      "unl": 7524,
      "unqu": 7525,
      "unav": 7526,
      "unself": 7527,
      "unne": 7528,
      "unmit": 7529,
      "unlike": 7530,
      "unrolling": 7531,
      "unscrew": 7532,
      "unmist": 7533,
      "##ongated": 7534,
      "implic": 7535,
      "imitate": 7536,
      "implied": 7537,
      "##arded": 7538,
      "##cca": 7539,
      "area": 7540,
      "##about": 7541,
      "##abund": 7542,
      "verd": 7543,
      "verge": 7544,
      "verne": 7545,
      "verify": 7546,
      "veracious": 7547,
      "##ptic": 7548,
      "##ptot": 7549,
      "##ptured": 7550,
      "##ptians": 7551,
      "##ptune_": 7552,
      "cane": 7553,
      "canvas": 7554,
      "pride": 7555,
      "pressed": 7556,
      "prince": 7557,
      "printed": 7558,
      "presto": 7559,
      "compos": 7560,
      "compass": 7561,
      "compiled": 7562,
      "compasses": 7563,
      "surpasses": 7564,
      "glow": 7565,
      "glaring": 7566,
      "glancing": 7567,
      "glimmer": 7568,
      "##ache": 7569,
      "##ach_": 7570,
      "##aching": 7571,
      "##ite_": 7572,
      "likewise": 7573,
      "plant": 7574,
      "plum": 7575,
      "plumb": 7576,
      "plung": 7577,
      "planted": 7578,
      "plaus": 7579,
      "plugs": 7580,
      "##ort_": 7581,
      "dial": 7582,
      "dividing": 7583,
      "anyway": 7584,
      "intently": 7585,
      "intolerable": 7586,
      "##clid": 7587,
      "##isting": 7588,
      "##istics": 7589,
      "##isturbed": 7590,
      "lever": 7591,
      "leag": 7592,
      "lease": 7593,
      "lecout": 7594,
      "leisure": 7595,
      "upside": 7596,
      "updated": 7597,
      "##avi": 7598,
      "##aval": 7599,
      "block": 7600,
      "blows": 7601,
      "blank": 7602,
      "blunder": 7603,
      "bluish": 7604,
      "applied": 7605,
      "##beration": 7606,
      "##isher": 7607,
      "conting": 7608,
      "content": 7609,
      "contrived": 7610,
      "control": 7611,
      "contrivance": 7612,
      "everyone": 7613,
      "bother": 7614,
      "boiling": 7615,
      "bobbing": 7616,
      "##phic": 7617,
      "##phatically": 7618,
      "##phonse_": 7619,
      "##igence": 7620,
      "##igated": 7621,
      "##igled": 7622,
      "##igning": 7623,
      "##igods": 7624,
      "##iggled": 7625,
      "lunatics": 7626,
      "##agr": 7627,
      "##agne": 7628,
      "##agians": 7629,
      "longest": 7630,
      "prem": 7631,
      "aggl": 7632,
      "fled": 7633,
      "flatter": 7634,
      "flowing": 7635,
      "flushed": 7636,
      "flattered": 7637,
      "flinging": 7638,
      "distract": 7639,
      "##earch": 7640,
      "manager": 7641,
      "managing": 7642,
      "manners": 7643,
      "surfaces": 7644,
      "##ine_": 7645,
      "mystic": 7646,
      "interfer": 7647,
      "adam": 7648,
      "attent": 7649,
      "attribut": 7650,
      "attending": 7651,
      "attested": 7652,
      "##elling": 7653,
      "##ellation": 7654,
      "clench": 7655,
      "claim": 7656,
      "climb": 7657,
      "clothed": 7658,
      "firing": 7659,
      "sunset": 7660,
      "grin": 7661,
      "grit": 7662,
      "grain": 7663,
      "grains": 7664,
      "granted": 7665,
      "gruith": 7666,
      "grappl": 7667,
      "undef": 7668,
      "undivided": 7669,
      "undisturbed": 7670,
      "shoulder": 7671,
      "oversp": 7672,
      "overhead": 7673,
      "overpower": 7674,
      "partly": 7675,
      "partake": 7676,
      "resc": 7677,
      "respected": 7678,
      "resounding": 7679,
      "resisted": 7680,
      "resusc": 7681,
      "resolved": 7682,
      "resignation": 7683,
      "resemble": 7684,
      "research": 7685,
      "crying": 7686,
      "##acs": 7687,
      "##acing": 7688,
      "##acus": 7689,
      "##acocks": 7690,
      "##acre_": 7691,
      "##aclys": 7692,
      "accent": 7693,
      "##fulness": 7694,
      "##aux": 7695,
      "##augh": 7696,
      "offering": 7697,
      "lightened": 7698,
      "discern": 7699,
      "remo": 7700,
      "remove": 7701,
      "slower": 7702,
      "slumb": 7703,
      "slaught": 7704,
      "regards": 7705,
      "regna": 7706,
      "registered": 7707,
      "regulating": 7708,
      "##ment_": 7709,
      "terror": 7710,
      "##ensical": 7711,
      "nearness": 7712,
      "mud": 7713,
      "institute": 7714,
      "installation": 7715,
      "undergo": 7716,
      "underwent": 7717,
      "momentary": 7718,
      "consisted": 7719,
      "conscient": 7720,
      "console": 7721,
      "consulting": 7722,
      "consumption": 7723,
      "##every": 7724,
      "willing": 7725,
      "willingly": 7726,
      "pea": 7727,
      "peace": 7728,
      "peacocks": 7729,
      "repast": 7730,
      "repair": 7731,
      "reprodu": 7732,
      "##inkling": 7733,
      "wherever": 7734,
      "calf": 7735,
      "##vingly": 7736,
      "replaced": 7737,
      "brand": 7738,
      "brass": 7739,
      "##azement": 7740,
      "##ney": 7741,
      "_ma": 7742,
      "_most": 7743,
      "_mount": 7744,
      "_mars": 7745,
      "_move": 7746,
      "_moret": 7747,
      "_mercury": 7748,
      "_memo": 7749,
      "forms": 7750,
      "formidable": 7751,
      "coals": 7752,
      "coinc": 7753,
      "coeff": 7754,
      "coleman": 7755,
      "marrow": 7756,
      "strat": 7757,
      "strain": 7758,
      "strick": 7759,
      "##iculous": 7760,
      "bets": 7761,
      "ample": 7762,
      "amazement": 7763,
      "continuous": 7764,
      "mayor": 7765,
      "friendship": 7766,
      "minor": 7767,
      "##ips": 7768,
      "##ipel": 7769,
      "sheep": 7770,
      "belief": 7771,
      "phase": 7772,
      "phases": 7773,
      "coursing": 7774,
      "mountainsa": 7775,
      "mountains_": 7776,
      "highhigh": 7777,
      "nightfall": 7778,
      "##ribe": 7779,
      "newton": 7780,
      "smith": 7781,
      "smiles": 7782,
      "smiled": 7783,
      "smoked": 7784,
      "imposed": 7785,
      "impelled": 7786,
      "impuls": 7787,
      "impalpable": 7788,
      "god": 7789,
      "gods": 7790,
      "shallow": 7791,
      "starts": 7792,
      "extract": 7793,
      "extinction": 7794,
      "immers": 7795,
      "immutable": 7796,
      "airs": 7797,
      "submit": 7798,
      "kepl": 7799,
      "##fted": 7800,
      "calculus": 7801,
      "scaph": 7802,
      "considers": 7803,
      "awful": 7804,
      "awaited": 7805,
      "founded": 7806,
      "directors": 7807,
      "gets": 7808,
      "turns": 7809,
      "##ibilities": 7810,
      "suppressed": 7811,
      "ills": 7812,
      "illusion": 7813,
      "illusions": 7814,
      "infused": 7815,
      "infinity": 7816,
      "speck": 7817,
      "specks": 7818,
      "appearing": 7819,
      "appearances": 7820,
      "ends": 7821,
      "ended": 7822,
      "ending": 7823,
      "endure": 7824,
      "endurable": 7825,
      "sidewal": 7826,
      "lifet": 7827,
      "lifeless": 7828,
      "##which": 7829,
      "deputation": 7830,
      "deportment": 7831,
      "perfection": 7832,
      "clever": 7833,
      "cleaved": 7834,
      "embar": 7835,
      "emotions": 7836,
      "emphatically": 7837,
      "owns": 7838,
      "invar": 7839,
      "invention": 7840,
      "involved": 7841,
      "##ruptured": 7842,
      "curving": 7843,
      "currents": 7844,
      "desult": 7845,
      "desired": 7846,
      "deserves": 7847,
      "reconc": 7848,
      "recalled": 7849,
      "recourse": 7850,
      "questioning": 7851,
      "##air_": 7852,
      "calling": 7853,
      "parad": 7854,
      "##lete": 7855,
      "exactness": 7856,
      "gild": 7857,
      "##asons": 7858,
      "##asonable": 7859,
      "_sal": 7860,
      "_sol": 7861,
      "_sang": 7862,
      "_sacre_": 7863,
      "heading": 7864,
      "headlong": 7865,
      "commer": 7866,
      "commod": 7867,
      "committing": 7868,
      "committed": 7869,
      "commotion": 7870,
      "furrowed": 7871,
      "furthest": 7872,
      "passion": 7873,
      "passeng": 7874,
      "##mson": 7875,
      "excluded": 7876,
      "clearness": 7877,
      "actors": 7878,
      "activ": 7879,
      "cars": 7880,
      "careless": 7881,
      "cargo": 7882,
      "incand": 7883,
      "humors": 7884,
      "humming": 7885,
      "swear": 7886,
      "swamp": 7887,
      "swarm": 7888,
      "swaying": 7889,
      "##ignificance": 7890,
      "rapids": 7891,
      "dearly": 7892,
      "telling": 7893,
      "objected": 7894,
      "objection": 7895,
      "objections": 7896,
      "_cr": 7897,
      "_camp": 7898,
      "_cant_": 7899,
      "_curtius_": 7900,
      "doubled": 7901,
      "lesson": 7902,
      "roth": 7903,
      "roam": 7904,
      "rodmans": 7905,
      "robes": 7906,
      "india": 7907,
      "indian": 7908,
      "induced": 7909,
      "indemn": 7910,
      "advance": 7911,
      "advice": 7912,
      "advancing": 7913,
      "reasoning": 7914,
      "reasonably": 7915,
      "excused": 7916,
      "deton": 7917,
      "##enees_": 7918,
      "backed": 7919,
      "backwards": 7920,
      "vii": 7921,
      "viii": 7922,
      "regarded": 7923,
      "regardless": 7924,
      "descending": 7925,
      "descartes": 7926,
      "reticul": 7927,
      "retired": 7928,
      "blackest": 7929,
      "blackened": 7930,
      "restric": 7931,
      "shaded": 7932,
      "shades": 7933,
      "shading": 7934,
      "replying": 7935,
      "##ralia": 7936,
      "selenitic": 7937,
      "handy": 7938,
      "handing": 7939,
      "profile": 7940,
      "profund": 7941,
      "interrupting": 7942,
      "##upit": 7943,
      "##ancanus_": 7944,
      "##issible": 7945,
      "##issimo": 7946,
      "doubtful": 7947,
      "doubtless": 7948,
      "##ures_": 7949,
      "explod": 7950,
      "confound": 7951,
      "confessed": 7952,
      "confused": 7953,
      "confusion": 7954,
      "dispel": 7955,
      "disposal": 7956,
      "generated": 7957,
      "generations": 7958,
      "fourrier": 7959,
      "guns": 7960,
      "holy": 7961,
      "skies": 7962,
      "skins": 7963,
      "skirt": 7964,
      "skimming": 7965,
      "silently": 7966,
      "engra": 7967,
      "clubmen": 7968,
      "journ": 7969,
      "checks": 7970,
      "precision": 7971,
      "precinct": 7972,
      "temperament": 7973,
      "equation": 7974,
      "utens": 7975,
      "soundings": 7976,
      "thoughtful": 7977,
      "relation": 7978,
      "relative": 7979,
      "reliable": 7980,
      "radiate": 7981,
      "radiance": 7982,
      "tenmill": 7983,
      "##cessary": 7984,
      "southward": 7985,
      "mornings": 7986,
      "thirst": 7987,
      "expressing": 7988,
      "brightest": 7989,
      "cooked": 7990,
      "##ricably": 7991,
      "oftenest": 7992,
      "insens": 7993,
      "inspected": 7994,
      "insuff": 7995,
      "inspiring": 7996,
      "insurmountable": 7997,
      "insignificance": 7998,
      "summ": 7999,
      "numbers": 8000,
      "trail": 8001,
      "traced": 8002,
      "trails": 8003,
      "westwardly": 8004,
      "##xtricably": 8005,
      "pretending": 8006,
      "##ontin": 8007,
      "colder": 8008,
      "brobdign": 8009,
      "familiar": 8010,
      "oppose": 8011,
      "opposed": 8012,
      "product": 8013,
      "production": 8014,
      "##ccessible": 8015,
      "breaks": 8016,
      "breakers": 8017,
      "fireball": 8018,
      "severely": 8019,
      "interests": 8020,
      "sixth": 8021,
      "sixty": 8022,
      "satisfy": 8023,
      "##retty": 8024,
      "helm": 8025,
      "helena": 8026,
      "suffer": 8027,
      "suffered": 8028,
      "successfully": 8029,
      "surprising": 8030,
      "prevented": 8031,
      "inhabits": 8032,
      "dimly": 8033,
      "signalled": 8034,
      "realm": 8035,
      "realms": 8036,
      "realizing": 8037,
      "remarkably": 8038,
      "elk": 8039,
      "elapse": 8040,
      "elapsed": 8041,
      "elongated": 8042,
      "symb": 8043,
      "synony": 8044,
      "independ": 8045,
      "propound": 8046,
      "concur": 8047,
      "concav": 8048,
      "earthshine": 8049,
      "comparisons": 8050,
      "diamond": 8051,
      "effected": 8052,
      "effecting": 8053,
      "crags": 8054,
      "finished": 8055,
      "financial": 8056,
      "hurled": 8057,
      "listens": 8058,
      "listlessly": 8059,
      "reduction": 8060,
      "squall": 8061,
      "tea": 8062,
      "text": 8063,
      "deaden": 8064,
      "deadlight": 8065,
      "strongest": 8066,
      "openings": 8067,
      "shadowy": 8068,
      "differential": 8069,
      "circus": 8070,
      "laughter": 8071,
      "purifying": 8072,
      "##res_": 8073,
      "orbs": 8074,
      "orbits": 8075,
      "magnitude": 8076,
      "magnified": 8077,
      "_pyr": 8078,
      "_purb": 8079,
      "_palus": 8080,
      "_pretty": 8081,
      "drag": 8082,
      "fifth": 8083,
      "latitudes": 8084,
      "requisite": 8085,
      "requiring": 8086,
      "constitut": 8087,
      "ordin": 8088,
      "chapuis": 8089,
      "##ortune": 8090,
      "perigee": 8091,
      "describes": 8092,
      "splendors": 8093,
      "benefit": 8094,
      "fastening": 8095,
      "maxim": 8096,
      "annals": 8097,
      "fortifications": 8098,
      "council": 8099,
      "hydrogen": 8100,
      "stripes": 8101,
      "argue": 8102,
      "expend": 8103,
      "expanding": 8104,
      "disappointed": 8105,
      "admire": 8106,
      "reflections": 8107,
      "reflectors": 8108,
      "exceeding": 8109,
      "floorlight": 8110,
      "electronically": 8111,
      "_day_": 8112,
      "bullets": 8113,
      "watchers": 8114,
      "##cynian": 8115,
      "reveals": 8116,
      "distinguishing": 8117,
      "occupies": 8118,
      "detailed": 8119,
      "detailing": 8120,
      "affair": 8121,
      "affright": 8122,
      "affection": 8123,
      "maintaining": 8124,
      "sharpest": 8125,
      "transm": 8126,
      "transmit": 8127,
      "transfer": 8128,
      "transform": 8129,
      "illustrated": 8130,
      "burns": 8131,
      "burner": 8132,
      "guide": 8133,
      "guessed": 8134,
      "ruin": 8135,
      "ruptured": 8136,
      "sighting": 8137,
      "wheel": 8138,
      "wheels": 8139,
      "##rimony": 8140,
      "entertaining": 8141,
      "safest": 8142,
      "safety": 8143,
      "countryman": 8144,
      "189": 8145,
      "18th": 8146,
      "_huy": 8147,
      "_him_": 8148,
      "busily": 8149,
      "esterhaz": 8150,
      "joint": 8151,
      "jokes": 8152,
      "jovians": 8153,
      "wilder": 8154,
      "##aintance": 8155,
      "imaginations": 8156,
      "ebull": 8157,
      "##sby": 8158,
      "inclination": 8159,
      "standard": 8160,
      "promise": 8161,
      "promoting": 8162,
      "peculiarity": 8163,
      "science_": 8164,
      "characters": 8165,
      "numberless": 8166,
      "hurrahs": 8167,
      "1500": 8168,
      "_valley": 8169,
      "hotel": 8170,
      "sentences": 8171,
      "sententiously": 8172,
      "##iterrane": 8173,
      "behalf": 8174,
      "##rigible": 8175,
      "architect": 8176,
      "archipel": 8177,
      "needless": 8178,
      "attempts": 8179,
      "merc": 8180,
      "merry": 8181,
      "merriment": 8182,
      "whitehot": 8183,
      "uncomfort": 8184,
      "twentyseven": 8185,
      "impossibilities": 8186,
      "dispatched": 8187,
      "counterbal": 8188,
      "driver": 8189,
      "drifting": 8190,
      "fools": 8191,
      "opera": 8192,
      "paths": 8193,
      "throttle": 8194,
      "##atives": 8195,
      "angular": 8196,
      "angrily": 8197,
      "angelo": 8198,
      "bearings": 8199,
      "asserted": 8200,
      "defer": 8201,
      "lieu": 8202,
      "chiefly": 8203,
      "quarrel": 8204,
      "believed": 8205,
      "differencein": 8206,
      "bloomsburys": 8207,
      "originator": 8208,
      "_baltimore": 8209,
      "pullman": 8210,
      "ridiculous": 8211,
      "railway": 8212,
      "ascend": 8213,
      "ascribed": 8214,
      "straw": 8215,
      "collapsed": 8216,
      "collecting": 8217,
      "denying": 8218,
      "eightieth": 8219,
      "mutter": 8220,
      "mutually": 8221,
      "veil": 8222,
      "revised": 8223,
      "combine": 8224,
      "spoiled": 8225,
      "meetings": 8226,
      "pressing": 8227,
      "surround": 8228,
      "covering": 8229,
      "absorbs": 8230,
      "solidified": 8231,
      "swept": 8232,
      "sweeping": 8233,
      "adventures": 8234,
      "breathless": 8235,
      "quarters": 8236,
      "columbiads": 8237,
      "castle": 8238,
      "castiron": 8239,
      "joyfully": 8240,
      "locality": 8241,
      "persist": 8242,
      "ventilate": 8243,
      "protection": 8244,
      "protuber": 8245,
      "seventh": 8246,
      "encomp": 8247,
      "encouraged": 8248,
      "plateaus": 8249,
      "plateglass": 8250,
      "internally": 8251,
      "groups": 8252,
      "occurs": 8253,
      "community": 8254,
      "thirtyeight": 8255,
      "thirtyseven": 8256,
      "escapes": 8257,
      "intelligently": 8258,
      "april": 8259,
      "boundaries": 8260,
      "caesar": 8261,
      "caustic": 8262,
      "created": 8263,
      "creature": 8264,
      "edward": 8265,
      "faintly": 8266,
      "honor": 8267,
      "honors": 8268,
      "tremor": 8269,
      "vainly": 8270,
      "models": 8271,
      "modifications": 8272,
      "superl": 8273,
      "artillery": 8274,
      "complicated": 8275,
      "agreeable": 8276,
      "engineering": 8277,
      "diminution": 8278,
      "counteraction": 8279,
      "bitter": 8280,
      "ceased": 8281,
      "landsl": 8282,
      "rigid": 8283,
      "rigged": 8284,
      "dianas": 8285,
      "accomplishing": 8286,
      "remembered": 8287,
      "##headed": 8288,
      "splendidly": 8289,
      "11th": 8290,
      "11972": 8291,
      "1600": 8292,
      "16000": 8293,
      "failed": 8294,
      "lateral": 8295,
      "laterally": 8296,
      "poles": 8297,
      "visited": 8298,
      "waited": 8299,
      "##valve": 8300,
      "##anche": 8301,
      "##oreseen": 8302,
      "stopping": 8303,
      "decre": 8304,
      "decide": 8305,
      "decorated": 8306,
      "softening": 8307,
      "spectre": 8308,
      "measurement": 8309,
      "unforeseen": 8310,
      "##ophilus_": 8311,
      "remaining": 8312,
      "colorless": 8313,
      "colorado": 8314,
      "englishman": 8315,
      "thirdly": 8316,
      "triumphant": 8317,
      "gulfs": 8318,
      "telegraphed": 8319,
      "_lacus": 8320,
      "_laugh": 8321,
      "machines": 8322,
      "touched": 8323,
      "whirring": 8324,
      "heavily": 8325,
      "heavier": 8326,
      "demigods": 8327,
      "entry": 8328,
      "entire": 8329,
      "entangled": 8330,
      "chronometers": 8331,
      "obstruction": 8332,
      "gloomily": 8333,
      "resembles": 8334,
      "electricity": 8335,
      "planetary": 8336,
      "distinguishable": 8337,
      "vessels": 8338,
      "despaired": 8339,
      "despairing": 8340,
      "17th": 8341,
      "25000": 8342,
      "dreams": 8343,
      "functions": 8344,
      "grooved": 8345,
      "grooves": 8346,
      "iceberg": 8347,
      "logic": 8348,
      "mistake": 8349,
      "macnicholl": 8350,
      "widest": 8351,
      "warmly": 8352,
      "##voirs": 8353,
      "beauty": 8354,
      "stops": 8355,
      "younger": 8356,
      "comfortably": 8357,
      "uniforms": 8358,
      "divergent": 8359,
      "interposition": 8360,
      "investigation": 8361,
      "investigate": 8362,
      "investigating": 8363,
      "parabolas": 8364,
      "retardation": 8365,
      "accepting": 8366,
      "cheerily": 8367,
      "admirable": 8368,
      "admirably": 8369,
      "philosopher": 8370,
      "sweetly": 8371,
      "sweetest": 8372,
      "unexpectedly": 8373,
      "julius": 8374,
      "lady": 8375,
      "mischief": 8376,
      "pane": 8377,
      "panama": 8378,
      "vanilla": 8379,
      "valuable": 8380,
      "whisper": 8381,
      "streamed": 8382,
      "enables": 8383,
      "boldly": 8384,
      "swallows": 8385,
      "swallowing": 8386,
      "explanations": 8387,
      "opposition": 8388,
      "hyperbolic": 8389,
      "hyperbolas": 8390,
      "businesslike": 8391,
      "_eon_": 8392,
      "_euler_": 8393,
      "courageous": 8394,
      "etna": 8395,
      "errors": 8396,
      "erfur": 8397,
      "erratic": 8398,
      "loves": 8399,
      "lohrman": 8400,
      "melting": 8401,
      "meme_": 8402,
      "memorable": 8403,
      "memorand": 8404,
      "raise": 8405,
      "anxious": 8406,
      "##addle": 8407,
      "washed": 8408,
      "searching": 8409,
      "delirious": 8410,
      "alarmed": 8411,
      "tranquil": 8412,
      "feeble": 8413,
      "speedy": 8414,
      "vividest": 8415,
      "cracked": 8416,
      "experiences": 8417,
      "greenish": 8418,
      "greenland": 8419,
      "authorit": 8420,
      "2400": 8421,
      "_opposition": 8422,
      "elements": 8423,
      "harbors": 8424,
      "private": 8425,
      "rubber": 8426,
      "sleeping": 8427,
      "tycho": 8428,
      "wander": 8429,
      "wandered": 8430,
      "xxi": 8431,
      "xxii": 8432,
      "xxiv": 8433,
      "xxiii": 8434,
      "inexorable": 8435,
      "inexhaust": 8436,
      "exhilar": 8437,
      "exhibition": 8438,
      "spirit": 8439,
      "##ologist": 8440,
      "earnestness": 8441,
      "repeat": 8442,
      "repeating": 8443,
      "referred": 8444,
      "references": 8445,
      "referring": 8446,
      "tempests": 8447,
      "selenographers": 8448,
      "acquire": 8449,
      "acquired": 8450,
      "acquaintance": 8451,
      "checked": 8452,
      "struggles": 8453,
      "assertions": 8454,
      "defects": 8455,
      "_alpet": 8456,
      "_alps_": 8457,
      "_alphonse_": 8458,
      "astonishing": 8459,
      "boneta": 8460,
      "duties": 8461,
      "masterpie": 8462,
      "nonsensical": 8463,
      "palm": 8464,
      "peters": 8465,
      "petits": 8466,
      "tears": 8467,
      "##barbican": 8468,
      "##worked": 8469,
      "##aneously": 8470,
      "injured": 8471,
      "bewilderment": 8472,
      "proofreading": 8473,
      "shutter": 8474,
      "##umbered": 8475,
      "alternating": 8476,
      "alternately": 8477,
      "uneasiness": 8478,
      "plunge": 8479,
      "division": 8480,
      "preferred": 8481,
      "resistless": 8482,
      "terminating": 8483,
      "continental": 8484,
      "phrases": 8485,
      "screwed": 8486,
      "specified": 8487,
      "contradicting": 8488,
      "laboring": 8489,
      "ascertaining": 8490,
      "ignoram": 8491,
      "battlefield": 8492,
      "costs": 8493,
      "dryness": 8494,
      "eatables": 8495,
      "freed": 8496,
      "gleamed": 8497,
      "muscles": 8498,
      "mater_": 8499,
      "xvi": 8500,
      "xvii": 8501,
      "xviii": 8502,
      "##uck_": 8503,
      "##force": 8504,
      "thinner": 8505,
      "inextricably": 8506,
      "ingenuity": 8507,
      "bells": 8508,
      "stoutly": 8509,
      "foreign": 8510,
      "forehead": 8511,
      "forethought": 8512,
      "motive": 8513,
      "motions": 8514,
      "motto": 8515,
      "molecular": 8516,
      "sustain": 8517,
      "suspend": 8518,
      "suggest": 8519,
      "seventy": 8520,
      "conjectures": 8521,
      "sprinkled": 8522,
      "aboard": 8523,
      "imperf": 8524,
      "imperceptible": 8525,
      "regretted": 8526,
      "photographs": 8527,
      "photography": 8528,
      "photographers": 8529,
      "inconveni": 8530,
      "selfevid": 8531,
      "selfposs": 8532,
      "serenity": 8533,
      "steady": 8534,
      "prevailing": 8535,
      "pursuing": 8536,
      "representation": 8537,
      "representatives": 8538,
      "14th": 8539,
      "_theophilus_": 8540,
      "bleaching": 8541,
      "creations": 8542,
      "domin": 8543,
      "domain": 8544,
      "densely": 8545,
      "keener": 8546,
      "keenly": 8547,
      "lamps": 8548,
      "madre": 8549,
      "madly": 8550,
      "madame": 8551,
      "mentioned": 8552,
      "versat": 8553,
      "yells": 8554,
      "analogy": 8555,
      "reverse": 8556,
      "reverie": 8557,
      "revels": 8558,
      "revelation": 8559,
      "stationed": 8560,
      "declared": 8561,
      "societies": 8562,
      "universal": 8563,
      "contracted": 8564,
      "contracting": 8565,
      "gratified": 8566,
      "respond": 8567,
      "respiration": 8568,
      "refracting": 8569,
      "designated": 8570,
      "cornell": 8571,
      "restlessness": 8572,
      "##upiter_": 8573,
      "settle": 8574,
      "disputed": 8575,
      "disputes": 8576,
      "1862": 8577,
      "1861": 8578,
      "prominently": 8579,
      "locomotion": 8580,
      "schools": 8581,
      "warranty": 8582,
      "crystall": 8583,
      "savagely": 8584,
      "perplexed": 8585,
      "_perisel": 8586,
      "aeronaut": 8587,
      "audibly": 8588,
      "audience": 8589,
      "cataclys": 8590,
      "culture": 8591,
      "finger": 8592,
      "fitful": 8593,
      "hairs": 8594,
      "lustily": 8595,
      "lustrous": 8596,
      "national": 8597,
      "rules": 8598,
      "sourer": 8599,
      "source": 8600,
      "vocal": 8601,
      "##uvre": 8602,
      "##anese": 8603,
      "aspects": 8604,
      "steps": 8605,
      "moderate": 8606,
      "withdraw": 8607,
      "shriek": 8608,
      "expecting": 8609,
      "expectations": 8610,
      "histor": 8611,
      "delicate": 8612,
      "##elion_": 8613,
      "spreads": 8614,
      "librations": 8615,
      "abundance": 8616,
      "proudly": 8617,
      "boxes": 8618,
      "flourish": 8619,
      "distinctive": 8620,
      "resplendent": 8621,
      "resplendescence": 8622,
      "crises": 8623,
      "branches": 8624,
      "betrayed": 8625,
      "belongs": 8626,
      "impatiently": 8627,
      "_short_": 8628,
      "middleaged": 8629,
      "adviser": 8630,
      "accelerated": 8631,
      "accelerating": 8632,
      "preparation": 8633,
      "drawling": 8634,
      "irritated": 8635,
      "irregular": 8636,
      "gleaming": 8637,
      "gesticulated": 8638,
      "narrower": 8639,
      "vigorous": 8640,
      "solemnly": 8641,
      "newspapers": 8642,
      "_jupiter_": 8643,
      "avoiding": 8644,
      "billsby": 8645,
      "cyn": 8646,
      "crimson": 8647,
      "candor": 8648,
      "candidly": 8649,
      "cavity": 8650,
      "cups": 8651,
      "elliptic": 8652,
      "fogs": 8653,
      "folded": 8654,
      "folding": 8655,
      "ghost": 8656,
      "greek": 8657,
      "hampered": 8658,
      "hollows": 8659,
      "messrs": 8660,
      "nicely": 8661,
      "nicety": 8662,
      "omn": 8663,
      "omin": 8664,
      "sierra": 8665,
      "walking": 8666,
      "walks": 8667,
      "wiped": 8668,
      "##cleus": 8669,
      "##manship": 8670,
      "stunted": 8671,
      "stunned": 8672,
      "studied": 8673,
      "issue": 8674,
      "issuing": 8675,
      "seasons": 8676,
      "abruptly": 8677,
      "abyss": 8678,
      "unaided": 8679,
      "ploughed": 8680,
      "apprehended": 8681,
      "apprehensions": 8682,
      "fluent": 8683,
      "fluid": 8684,
      "closer": 8685,
      "closest": 8686,
      "consolidated": 8687,
      "scenery": 8688,
      "screamed": 8689,
      "infallible": 8690,
      "infallibly": 8691,
      "recollection": 8692,
      "roasted": 8693,
      "indulged": 8694,
      "corpse": 8695,
      "vivifying": 8696,
      "addresses": 8697,
      "addressing": 8698,
      "assistants": 8699,
      "buildings": 8700,
      "redistributing": 8701,
      "redistribution": 8702,
      "transcendent": 8703,
      "_hercynian": 8704,
      "sentimental": 8705,
      "article": 8706,
      "simpler": 8707,
      "simplified": 8708,
      "whirlwinds": 8709,
      "demanded": 8710,
      "majesty": 8711,
      "befallen": 8712,
      "inconceivably": 8713,
      "herschels": 8714,
      "nasmyths": 8715,
      "oscillating": 8716,
      "48000": 8717,
      "_quand": 8718,
      "aye": 8719,
      "breeze": 8720,
      "crowned": 8721,
      "euclid": 8722,
      "fascination": 8723,
      "fascinating": 8724,
      "habitable": 8725,
      "hostile": 8726,
      "lecture": 8727,
      "micrometer": 8728,
      "microcosm": 8729,
      "nails": 8730,
      "pitiless": 8731,
      "punct": 8732,
      "packed": 8733,
      "pomposity": 8734,
      "rarefied": 8735,
      "salute": 8736,
      "saluted": 8737,
      "sneer": 8738,
      "sneered": 8739,
      "tightly": 8740,
      "taste": 8741,
      "treated": 8742,
      "virgil": 8743,
      "##oves_": 8744,
      "threatening": 8745,
      "inverse": 8746,
      "inverted": 8747,
      "tolerable": 8748,
      "tolerably": 8749,
      "beefsteak": 8750,
      "nodding": 8751,
      "novelty": 8752,
      "stirred": 8753,
      "stomachs": 8754,
      "forcible": 8755,
      "forcibly": 8756,
      "shivering": 8757,
      "exertion": 8758,
      "debate": 8759,
      "neatly": 8760,
      "dismal": 8761,
      "##unction_": 8762,
      "enchanting": 8763,
      "chilly": 8764,
      "unbounded": 8765,
      "unpreced": 8766,
      "completed": 8767,
      "computer": 8768,
      "computers": 8769,
      "surpassed": 8770,
      "surpassing": 8771,
      "platform": 8772,
      "upheaval": 8773,
      "applause": 8774,
      "contributed": 8775,
      "contributions": 8776,
      "precipices": 8777,
      "precipitous": 8778,
      "flowers": 8779,
      "adopted": 8780,
      "clustered": 8781,
      "credit": 8782,
      "intoxication": 8783,
      "intoxicated": 8784,
      "strangest": 8785,
      "scarcely": 8786,
      "scoria": 8787,
      "emergency": 8788,
      "desolation": 8789,
      "desolate": 8790,
      "reconstruct": 8791,
      "commencement": 8792,
      "incorrect": 8793,
      "incorrigible": 8794,
      "incredul": 8795,
      "incredulous": 8796,
      "industry": 8797,
      "industriously": 8798,
      "coruscating": 8799,
      "exploring": 8800,
      "explorations": 8801,
      "trillions": 8802,
      "crawl": 8803,
      "crawling": 8804,
      "penetrate": 8805,
      "faculties": 8806,
      "condensed": 8807,
      "murmured": 8808,
      "entrance": 8809,
      "disturbance": 8810,
      "elevated": 8811,
      "majority": 8812,
      "evaporate": 8813,
      "evaporated": 8814,
      "henceforth": 8815,
      "henceforward": 8816,
      "drearier": 8817,
      "dreariest": 8818,
      "dogmatically": 8819,
      "multiplic": 8820,
      "multiplied": 8821,
      "foreshortened": 8822,
      "convexity": 8823,
      "exquisitely": 8824,
      "overwhelming": 8825,
      "_neptune_": 8826,
      "available": 8827,
      "australia": 8828,
      "august": 8829,
      "babies": 8830,
      "bathed": 8831,
      "cadence": 8832,
      "cyrus": 8833,
      "duration": 8834,
      "dusky": 8835,
      "emanate": 8836,
      "eggshell": 8837,
      "fainter": 8838,
      "feminine": 8839,
      "grief": 8840,
      "hoping": 8841,
      "knots": 8842,
      "lurid": 8843,
      "mattresses": 8844,
      "nucleus": 8845,
      "naples": 8846,
      "oreography": 8847,
      "pedest": 8848,
      "pallor": 8849,
      "pupil": 8850,
      "piercing": 8851,
      "rueful": 8852,
      "slept": 8853,
      "taavi": 8854,
      "tapest": 8855,
      "testing": 8856,
      "tampa": 8857,
      "ult": 8858,
      "vicinity": 8859,
      "vapors": 8860,
      "village": 8861,
      "vitalizing": 8862,
      "wiser": 8863,
      "##oicing": 8864,
      "theatre": 8865,
      "anchored": 8866,
      "inaccessible": 8867,
      "toasts": 8868,
      "##aspian": 8869,
      "beaming": 8870,
      "noiseless": 8871,
      "rejoicing": 8872,
      "reappear": 8873,
      "assembled": 8874,
      "stifled": 8875,
      "stooped": 8876,
      "prolongation": 8877,
      "prodigious": 8878,
      "##estionably": 8879,
      "organs": 8880,
      "nebulous": 8881,
      "alleged": 8882,
      "##ragius_": 8883,
      "enlightened": 8884,
      "spher": 8885,
      "capricious": 8886,
      "champagne": 8887,
      "christmas": 8888,
      "sacrament": 8889,
      "abandoned": 8890,
      "unearthly": 8891,
      "imprisonment": 8892,
      "pocket": 8893,
      "dignity": 8894,
      "levity": 8895,
      "flutter": 8896,
      "flights": 8897,
      "flooded": 8898,
      "mytholog": 8899,
      "donkey": 8900,
      "reservoirs": 8901,
      "resource": 8902,
      "secchi": 8903,
      "_monte": 8904,
      "phosphor": 8905,
      "scratch": 8906,
      "scotch": 8907,
      "suppressing": 8908,
      "solicit": 8909,
      "_some_": 8910,
      "_saturn_": 8911,
      "exclusively": 8912,
      "carriage": 8913,
      "effulgence": 8914,
      "circulation": 8915,
      "sketch": 8916,
      "gracefully": 8917,
      "opponents": 8918,
      "elasticity": 8919,
      "syllable": 8920,
      "propriety": 8921,
      "_pico_": 8922,
      "ruddy": 8923,
      "irresistible": 8924,
      "superficial": 8925,
      "articulate": 8926,
      "rigorously": 8927,
      "_furore_": 8928,
      "decomposing": 8929,
      "loftiest": 8930,
      "fleeting": 8931,
      "_grooves_": 8932,
      "snicker": 8933,
      "indirectly": 8934,
      "responsibility": 8935,
      "patronizing": 8936,
      "monotonous": 8937,
      "irradiation": 8938,
      "pyramidal": 8939,
      "unaccount": 8940,
      "glaciers": 8941,
      "_conjunction_": 8942,
      "draughtsman": 8943,
      "schoolboys": 8944,
      "gibbering": 8945,
      "inquiries": 8946,
      "phlegmatic": 8947,
      "_aposelene_": 8948,
      "anticipation": 8949,
      "_ptolemy_": 8950,
      "culmination": 8951,
      "cassini": 8952,
      "acclimatization": 8953,
      "875": 8954,
      "_seas_": 8955,
      "_terra": 8956,
      "_venus_": 8957,
      "_kepler_": 8958,
      "_are_": 8959,
      "_less_": 8960,
      "_up_": 8961,
      "_night_": 8962,
      "auspices": 8963,
      "adequ": 8964,
      "avidity": 8965,
      "avalanche": 8966,
      "bosom": 8967,
      "bustling": 8968,
      "banners": 8969,
      "categ": 8970,
      "cigar": 8971,
      "cubic": 8972,
      "cimmerian": 8973,
      "darned": 8974,
      "elegant": 8975,
      "egyptians": 8976,
      "federal": 8977,
      "fashion": 8978,
      "fertility": 8979,
      "gimcracks": 8980,
      "garden": 8981,
      "hinges": 8982,
      "hunter": 8983,
      "harsh": 8984,
      "hilarity": 8985,
      "japanese": 8986,
      "jotting": 8987,
      "joseph": 8988,
      "kentucky": 8989,
      "kalju": 8990,
      "lonely": 8991,
      "lasso": 8992,
      "lockes": 8993,
      "lobos": 8994,
      "lilliput": 8995,
      "mammoth": 8996,
      "nestling": 8997,
      "oysters": 8998,
      "pillars": 8999,
      "prair": 9000,
[...]
